[PAD]
[UNK]
[CLS]
[SEP]
[MASK]
[unused0]
[unused1]
[unused2]
[unused3]
[unused4]
[unused5]
[unused6]
[unused7]
[unused8]
[unused9]
[unused10]
[unused11]
[unused12]
[unused13]
[unused14]
[unused15]
[unused16]
[unused17]
[unused18]
[unused19]
[unused20]
[unused21]
[unused22]
[unused23]
[unused24]
[unused25]
[unused26]
[unused27]
[unused28]
[unused29]
[unused30]
[unused31]
[unused32]
[unused33]
[unused34]
[unused35]
[unused36]
[unused37]
[unused38]
[unused39]
[unused40]
[unused41]
[unused42]
[unused43]
[unused44]
[unused45]
[unused46]
[unused47]
[unused48]
[unused49]
[unused50]
[unused51]
[unused52]
[unused53]
[unused54]
[unused55]
[unused56]
[unused57]
[unused58]
[unused59]
[unused60]
[unused61]
[unused62]
[unused63]
[unused64]
[unused65]
[unused66]
[unused67]
[unused68]
[unused69]
[unused70]
[unused71]
[unused72]
[unused73]
[unused74]
[unused75]
[unused76]
[unused77]
[unused78]
[unused79]
[unused80]
[unused81]
[unused82]
[unused83]
[unused84]
[unused85]
[unused86]
[unused87]
[unused88]
[unused89]
[unused90]
[unused91]
[unused92]
[unused93]
[unused94]
[unused95]
[unused96]
[unused97]
[unused98]
[unused99]
[unused100]
[unused101]
[unused102]
[unused103]
[unused104]
[unused105]
[unused106]
[unused107]
[unused108]
[unused109]
[unused110]
[unused111]
[unused112]
[unused113]
[unused114]
[unused115]
[unused116]
[unused117]
[unused118]
[unused119]
[unused120]
[unused121]
[unused122]
[unused123]
[unused124]
[unused125]
[unused126]
[unused127]
[unused128]
[unused129]
[unused130]
[unused131]
[unused132]
[unused133]
[unused134]
[unused135]
[unused136]
[unused137]
[unused138]
[unused139]
[unused140]
[unused141]
[unused142]
[unused143]
[unused144]
[unused145]
[unused146]
[unused147]
[unused148]
[unused149]
[unused150]
[unused151]
[unused152]
[unused153]
[unused154]
[unused155]
[unused156]
[unused157]
[unused158]
[unused159]
[unused160]
[unused161]
[unused162]
[unused163]
[unused164]
[unused165]
[unused166]
[unused167]
[unused168]
[unused169]
[unused170]
[unused171]
[unused172]
[unused173]
[unused174]
[unused175]
[unused176]
[unused177]
[unused178]
[unused179]
[unused180]
[unused181]
[unused182]
[unused183]
[unused184]
[unused185]
[unused186]
[unused187]
[unused188]
[unused189]
[unused190]
[unused191]
[unused192]
[unused193]
[unused194]
[unused195]
[unused196]
[unused197]
[unused198]
[unused199]
[unused200]
[unused201]
[unused202]
[unused203]
[unused204]
[unused205]
[unused206]
[unused207]
[unused208]
[unused209]
[unused210]
[unused211]
[unused212]
[unused213]
[unused214]
[unused215]
[unused216]
[unused217]
[unused218]
[unused219]
[unused220]
[unused221]
[unused222]
[unused223]
[unused224]
[unused225]
[unused226]
[unused227]
[unused228]
[unused229]
[unused230]
[unused231]
[unused232]
[unused233]
[unused234]
[unused235]
[unused236]
[unused237]
[unused238]
[unused239]
[unused240]
[unused241]
[unused242]
[unused243]
[unused244]
[unused245]
[unused246]
[unused247]
[unused248]
[unused249]
[unused250]
[unused251]
[unused252]
[unused253]
[unused254]
[unused255]
[unused256]
[unused257]
[unused258]
[unused259]
[unused260]
[unused261]
[unused262]
[unused263]
[unused264]
[unused265]
[unused266]
[unused267]
[unused268]
[unused269]
[unused270]
[unused271]
[unused272]
[unused273]
[unused274]
[unused275]
[unused276]
[unused277]
[unused278]
[unused279]
[unused280]
[unused281]
[unused282]
[unused283]
[unused284]
[unused285]
[unused286]
[unused287]
[unused288]
[unused289]
[unused290]
[unused291]
[unused292]
[unused293]
[unused294]
[unused295]
[unused296]
[unused297]
[unused298]
[unused299]
[unused300]
[unused301]
[unused302]
[unused303]
[unused304]
[unused305]
[unused306]
[unused307]
[unused308]
[unused309]
[unused310]
[unused311]
[unused312]
[unused313]
[unused314]
[unused315]
[unused316]
[unused317]
[unused318]
[unused319]
[unused320]
[unused321]
[unused322]
[unused323]
[unused324]
[unused325]
[unused326]
[unused327]
[unused328]
[unused329]
[unused330]
[unused331]
[unused332]
[unused333]
[unused334]
[unused335]
[unused336]
[unused337]
[unused338]
[unused339]
[unused340]
[unused341]
[unused342]
[unused343]
[unused344]
[unused345]
[unused346]
[unused347]
[unused348]
[unused349]
[unused350]
[unused351]
[unused352]
[unused353]
[unused354]
[unused355]
[unused356]
[unused357]
[unused358]
[unused359]
[unused360]
[unused361]
[unused362]
[unused363]
[unused364]
[unused365]
[unused366]
[unused367]
[unused368]
[unused369]
[unused370]
[unused371]
[unused372]
[unused373]
[unused374]
[unused375]
[unused376]
[unused377]
[unused378]
[unused379]
[unused380]
[unused381]
[unused382]
[unused383]
[unused384]
[unused385]
[unused386]
[unused387]
[unused388]
[unused389]
[unused390]
[unused391]
[unused392]
[unused393]
[unused394]
[unused395]
[unused396]
[unused397]
[unused398]
[unused399]
[unused400]
[unused401]
[unused402]
[unused403]
[unused404]
[unused405]
[unused406]
[unused407]
[unused408]
[unused409]
[unused410]
[unused411]
[unused412]
[unused413]
[unused414]
[unused415]
[unused416]
[unused417]
[unused418]
[unused419]
[unused420]
[unused421]
[unused422]
[unused423]
[unused424]
[unused425]
[unused426]
[unused427]
[unused428]
[unused429]
[unused430]
[unused431]
[unused432]
[unused433]
[unused434]
[unused435]
[unused436]
[unused437]
[unused438]
[unused439]
[unused440]
[unused441]
[unused442]
[unused443]
[unused444]
[unused445]
[unused446]
[unused447]
[unused448]
[unused449]
[unused450]
[unused451]
[unused452]
[unused453]
[unused454]
[unused455]
[unused456]
[unused457]
[unused458]
[unused459]
[unused460]
[unused461]
[unused462]
[unused463]
[unused464]
[unused465]
[unused466]
[unused467]
[unused468]
[unused469]
[unused470]
[unused471]
[unused472]
[unused473]
[unused474]
[unused475]
[unused476]
[unused477]
[unused478]
[unused479]
[unused480]
[unused481]
[unused482]
[unused483]
[unused484]
[unused485]
[unused486]
[unused487]
[unused488]
[unused489]
[unused490]
[unused491]
[unused492]
[unused493]
[unused494]
[unused495]
[unused496]
[unused497]
[unused498]
[unused499]
[unused500]
[unused501]
[unused502]
[unused503]
[unused504]
[unused505]
[unused506]
[unused507]
[unused508]
[unused509]
[unused510]
[unused511]
[unused512]
[unused513]
[unused514]
[unused515]
[unused516]
[unused517]
[unused518]
[unused519]
[unused520]
[unused521]
[unused522]
[unused523]
[unused524]
[unused525]
[unused526]
[unused527]
[unused528]
[unused529]
[unused530]
[unused531]
[unused532]
[unused533]
[unused534]
[unused535]
[unused536]
[unused537]
[unused538]
[unused539]
[unused540]
[unused541]
[unused542]
[unused543]
[unused544]
[unused545]
[unused546]
[unused547]
[unused548]
[unused549]
[unused550]
[unused551]
[unused552]
[unused553]
[unused554]
[unused555]
[unused556]
[unused557]
[unused558]
[unused559]
[unused560]
[unused561]
[unused562]
[unused563]
[unused564]
[unused565]
[unused566]
[unused567]
[unused568]
[unused569]
[unused570]
[unused571]
[unused572]
[unused573]
[unused574]
[unused575]
[unused576]
[unused577]
[unused578]
[unused579]
[unused580]
[unused581]
[unused582]
[unused583]
[unused584]
[unused585]
[unused586]
[unused587]
[unused588]
[unused589]
[unused590]
[unused591]
[unused592]
[unused593]
[unused594]
[unused595]
[unused596]
[unused597]
[unused598]
[unused599]
[unused600]
[unused601]
[unused602]
[unused603]
[unused604]
[unused605]
[unused606]
[unused607]
[unused608]
[unused609]
[unused610]
[unused611]
[unused612]
[unused613]
[unused614]
[unused615]
[unused616]
[unused617]
[unused618]
[unused619]
[unused620]
[unused621]
[unused622]
[unused623]
[unused624]
[unused625]
[unused626]
[unused627]
[unused628]
[unused629]
[unused630]
[unused631]
[unused632]
[unused633]
[unused634]
[unused635]
[unused636]
[unused637]
[unused638]
[unused639]
[unused640]
[unused641]
[unused642]
[unused643]
[unused644]
[unused645]
[unused646]
[unused647]
[unused648]
[unused649]
[unused650]
[unused651]
[unused652]
[unused653]
[unused654]
[unused655]
[unused656]
[unused657]
[unused658]
[unused659]
[unused660]
[unused661]
[unused662]
[unused663]
[unused664]
[unused665]
[unused666]
[unused667]
[unused668]
[unused669]
[unused670]
[unused671]
[unused672]
[unused673]
[unused674]
[unused675]
[unused676]
[unused677]
[unused678]
[unused679]
[unused680]
[unused681]
[unused682]
[unused683]
[unused684]
[unused685]
[unused686]
[unused687]
[unused688]
[unused689]
[unused690]
[unused691]
[unused692]
[unused693]
[unused694]
[unused695]
[unused696]
[unused697]
[unused698]
[unused699]
[unused700]
[unused701]
[unused702]
[unused703]
[unused704]
[unused705]
[unused706]
[unused707]
[unused708]
[unused709]
[unused710]
[unused711]
[unused712]
[unused713]
[unused714]
[unused715]
[unused716]
[unused717]
[unused718]
[unused719]
[unused720]
[unused721]
[unused722]
[unused723]
[unused724]
[unused725]
[unused726]
[unused727]
[unused728]
[unused729]
[unused730]
[unused731]
[unused732]
[unused733]
[unused734]
[unused735]
[unused736]
[unused737]
[unused738]
[unused739]
[unused740]
[unused741]
[unused742]
[unused743]
[unused744]
[unused745]
[unused746]
[unused747]
[unused748]
[unused749]
[unused750]
[unused751]
[unused752]
[unused753]
[unused754]
[unused755]
[unused756]
[unused757]
[unused758]
[unused759]
[unused760]
[unused761]
[unused762]
[unused763]
[unused764]
[unused765]
[unused766]
[unused767]
[unused768]
[unused769]
[unused770]
[unused771]
[unused772]
[unused773]
[unused774]
[unused775]
[unused776]
[unused777]
[unused778]
[unused779]
[unused780]
[unused781]
[unused782]
[unused783]
[unused784]
[unused785]
[unused786]
[unused787]
[unused788]
[unused789]
[unused790]
[unused791]
[unused792]
[unused793]
[unused794]
[unused795]
[unused796]
[unused797]
[unused798]
[unused799]
[unused800]
[unused801]
[unused802]
[unused803]
[unused804]
[unused805]
[unused806]
[unused807]
[unused808]
[unused809]
[unused810]
[unused811]
[unused812]
[unused813]
[unused814]
[unused815]
[unused816]
[unused817]
[unused818]
[unused819]
[unused820]
[unused821]
[unused822]
[unused823]
[unused824]
[unused825]
[unused826]
[unused827]
[unused828]
[unused829]
[unused830]
[unused831]
[unused832]
[unused833]
[unused834]
[unused835]
[unused836]
[unused837]
[unused838]
[unused839]
[unused840]
[unused841]
[unused842]
[unused843]
[unused844]
[unused845]
[unused846]
[unused847]
[unused848]
[unused849]
[unused850]
[unused851]
[unused852]
[unused853]
[unused854]
[unused855]
[unused856]
[unused857]
[unused858]
[unused859]
[unused860]
[unused861]
[unused862]
[unused863]
[unused864]
[unused865]
[unused866]
[unused867]
[unused868]
[unused869]
[unused870]
[unused871]
[unused872]
[unused873]
[unused874]
[unused875]
[unused876]
[unused877]
[unused878]
[unused879]
[unused880]
[unused881]
[unused882]
[unused883]
[unused884]
[unused885]
[unused886]
[unused887]
[unused888]
[unused889]
[unused890]
[unused891]
[unused892]
[unused893]
[unused894]
[unused895]
[unused896]
[unused897]
[unused898]
[unused899]
[unused900]
[unused901]
[unused902]
[unused903]
[unused904]
[unused905]
[unused906]
[unused907]
[unused908]
[unused909]
[unused910]
[unused911]
[unused912]
[unused913]
[unused914]
[unused915]
[unused916]
[unused917]
[unused918]
[unused919]
[unused920]
[unused921]
[unused922]
[unused923]
[unused924]
[unused925]
[unused926]
[unused927]
[unused928]
[unused929]
[unused930]
[unused931]
[unused932]
[unused933]
[unused934]
[unused935]
[unused936]
[unused937]
[unused938]
[unused939]
[unused940]
[unused941]
[unused942]
[unused943]
[unused944]
[unused945]
[unused946]
[unused947]
[unused948]
[unused949]
[unused950]
[unused951]
[unused952]
[unused953]
[unused954]
[unused955]
[unused956]
[unused957]
[unused958]
[unused959]
[unused960]
[unused961]
[unused962]
[unused963]
[unused964]
[unused965]
[unused966]
[unused967]
[unused968]
[unused969]
[unused970]
[unused971]
[unused972]
[unused973]
[unused974]
[unused975]
[unused976]
[unused977]
[unused978]
[unused979]
[unused980]
[unused981]
[unused982]
[unused983]
[unused984]
[unused985]
[unused986]
[unused987]
[unused988]
[unused989]
[unused990]
[unused991]
[unused992]
[unused993]
[unused994]
[unused995]
[unused996]
[unused997]
[unused998]
[unused999]
[unused1000]
[unused1001]
[unused1002]
[unused1003]
[unused1004]
[unused1005]
[unused1006]
[unused1007]
[unused1008]
[unused1009]
[unused1010]
[unused1011]
[unused1012]
[unused1013]
[unused1014]
[unused1015]
[unused1016]
[unused1017]
[unused1018]
[unused1019]
[unused1020]
[unused1021]
[unused1022]
[unused1023]
[unused1024]
[unused1025]
[unused1026]
[unused1027]
[unused1028]
[unused1029]
[unused1030]
[unused1031]
[unused1032]
[unused1033]
[unused1034]
[unused1035]
[unused1036]
[unused1037]
[unused1038]
[unused1039]
[unused1040]
[unused1041]
[unused1042]
[unused1043]
[unused1044]
[unused1045]
[unused1046]
[unused1047]
[unused1048]
[unused1049]
[unused1050]
[unused1051]
[unused1052]
[unused1053]
[unused1054]
[unused1055]
[unused1056]
[unused1057]
[unused1058]
[unused1059]
[unused1060]
[unused1061]
[unused1062]
[unused1063]
[unused1064]
[unused1065]
[unused1066]
[unused1067]
[unused1068]
[unused1069]
[unused1070]
[unused1071]
[unused1072]
[unused1073]
[unused1074]
[unused1075]
[unused1076]
[unused1077]
[unused1078]
[unused1079]
[unused1080]
[unused1081]
[unused1082]
[unused1083]
[unused1084]
[unused1085]
[unused1086]
[unused1087]
[unused1088]
[unused1089]
[unused1090]
[unused1091]
[unused1092]
[unused1093]
[unused1094]
[unused1095]
[unused1096]
[unused1097]
[unused1098]
[unused1099]
[unused1100]
[unused1101]
[unused1102]
[unused1103]
[unused1104]
[unused1105]
[unused1106]
[unused1107]
[unused1108]
[unused1109]
[unused1110]
[unused1111]
[unused1112]
[unused1113]
[unused1114]
[unused1115]
[unused1116]
[unused1117]
[unused1118]
[unused1119]
[unused1120]
[unused1121]
[unused1122]
[unused1123]
[unused1124]
[unused1125]
[unused1126]
[unused1127]
[unused1128]
[unused1129]
[unused1130]
[unused1131]
[unused1132]
[unused1133]
[unused1134]
[unused1135]
[unused1136]
[unused1137]
[unused1138]
[unused1139]
[unused1140]
[unused1141]
[unused1142]
[unused1143]
[unused1144]
[unused1145]
[unused1146]
[unused1147]
[unused1148]
[unused1149]
[unused1150]
[unused1151]
[unused1152]
[unused1153]
[unused1154]
[unused1155]
[unused1156]
[unused1157]
[unused1158]
[unused1159]
[unused1160]
[unused1161]
[unused1162]
[unused1163]
[unused1164]
[unused1165]
[unused1166]
[unused1167]
[unused1168]
[unused1169]
[unused1170]
[unused1171]
[unused1172]
[unused1173]
[unused1174]
[unused1175]
[unused1176]
[unused1177]
[unused1178]
[unused1179]
[unused1180]
[unused1181]
[unused1182]
[unused1183]
[unused1184]
[unused1185]
[unused1186]
[unused1187]
[unused1188]
[unused1189]
[unused1190]
[unused1191]
[unused1192]
[unused1193]
[unused1194]
[unused1195]
[unused1196]
[unused1197]
[unused1198]
[unused1199]
[unused1200]
[unused1201]
[unused1202]
[unused1203]
[unused1204]
[unused1205]
[unused1206]
[unused1207]
[unused1208]
[unused1209]
[unused1210]
[unused1211]
[unused1212]
[unused1213]
[unused1214]
[unused1215]
[unused1216]
[unused1217]
[unused1218]
[unused1219]
[unused1220]
[unused1221]
[unused1222]
[unused1223]
[unused1224]
[unused1225]
[unused1226]
[unused1227]
[unused1228]
[unused1229]
[unused1230]
[unused1231]
[unused1232]
[unused1233]
[unused1234]
[unused1235]
[unused1236]
[unused1237]
[unused1238]
[unused1239]
[unused1240]
[unused1241]
[unused1242]
[unused1243]
[unused1244]
[unused1245]
[unused1246]
[unused1247]
[unused1248]
[unused1249]
[unused1250]
[unused1251]
[unused1252]
[unused1253]
[unused1254]
[unused1255]
[unused1256]
[unused1257]
[unused1258]
[unused1259]
[unused1260]
[unused1261]
[unused1262]
[unused1263]
[unused1264]
[unused1265]
[unused1266]
[unused1267]
[unused1268]
[unused1269]
[unused1270]
[unused1271]
[unused1272]
[unused1273]
[unused1274]
[unused1275]
[unused1276]
[unused1277]
[unused1278]
[unused1279]
[unused1280]
[unused1281]
[unused1282]
[unused1283]
[unused1284]
[unused1285]
[unused1286]
[unused1287]
[unused1288]
[unused1289]
[unused1290]
[unused1291]
[unused1292]
[unused1293]
[unused1294]
[unused1295]
[unused1296]
[unused1297]
[unused1298]
[unused1299]
[unused1300]
[unused1301]
[unused1302]
[unused1303]
[unused1304]
[unused1305]
[unused1306]
[unused1307]
[unused1308]
[unused1309]
[unused1310]
[unused1311]
[unused1312]
[unused1313]
[unused1314]
[unused1315]
[unused1316]
[unused1317]
[unused1318]
[unused1319]
[unused1320]
[unused1321]
[unused1322]
[unused1323]
[unused1324]
[unused1325]
[unused1326]
[unused1327]
[unused1328]
[unused1329]
[unused1330]
[unused1331]
[unused1332]
[unused1333]
[unused1334]
[unused1335]
[unused1336]
[unused1337]
[unused1338]
[unused1339]
[unused1340]
[unused1341]
[unused1342]
[unused1343]
[unused1344]
[unused1345]
[unused1346]
[unused1347]
[unused1348]
[unused1349]
[unused1350]
[unused1351]
[unused1352]
[unused1353]
[unused1354]
[unused1355]
[unused1356]
[unused1357]
[unused1358]
[unused1359]
[unused1360]
[unused1361]
[unused1362]
[unused1363]
[unused1364]
[unused1365]
[unused1366]
[unused1367]
[unused1368]
[unused1369]
[unused1370]
[unused1371]
[unused1372]
[unused1373]
[unused1374]
[unused1375]
[unused1376]
[unused1377]
[unused1378]
[unused1379]
[unused1380]
[unused1381]
[unused1382]
[unused1383]
[unused1384]
[unused1385]
[unused1386]
[unused1387]
[unused1388]
[unused1389]
[unused1390]
[unused1391]
[unused1392]
[unused1393]
[unused1394]
[unused1395]
[unused1396]
[unused1397]
[unused1398]
[unused1399]
[unused1400]
[unused1401]
[unused1402]
[unused1403]
[unused1404]
[unused1405]
[unused1406]
[unused1407]
[unused1408]
[unused1409]
[unused1410]
[unused1411]
[unused1412]
[unused1413]
[unused1414]
[unused1415]
[unused1416]
[unused1417]
[unused1418]
[unused1419]
[unused1420]
[unused1421]
[unused1422]
[unused1423]
[unused1424]
[unused1425]
[unused1426]
[unused1427]
[unused1428]
[unused1429]
[unused1430]
[unused1431]
[unused1432]
[unused1433]
[unused1434]
[unused1435]
[unused1436]
[unused1437]
[unused1438]
[unused1439]
[unused1440]
[unused1441]
[unused1442]
[unused1443]
[unused1444]
[unused1445]
[unused1446]
[unused1447]
[unused1448]
[unused1449]
[unused1450]
[unused1451]
[unused1452]
[unused1453]
[unused1454]
[unused1455]
[unused1456]
[unused1457]
[unused1458]
[unused1459]
[unused1460]
[unused1461]
[unused1462]
[unused1463]
[unused1464]
[unused1465]
[unused1466]
[unused1467]
[unused1468]
[unused1469]
[unused1470]
[unused1471]
[unused1472]
[unused1473]
[unused1474]
[unused1475]
[unused1476]
[unused1477]
[unused1478]
[unused1479]
[unused1480]
[unused1481]
[unused1482]
[unused1483]
[unused1484]
[unused1485]
[unused1486]
[unused1487]
[unused1488]
[unused1489]
[unused1490]
[unused1491]
[unused1492]
[unused1493]
[unused1494]
[unused1495]
[unused1496]
[unused1497]
[unused1498]
[unused1499]
[unused1500]
[unused1501]
[unused1502]
[unused1503]
[unused1504]
[unused1505]
[unused1506]
[unused1507]
[unused1508]
[unused1509]
[unused1510]
[unused1511]
[unused1512]
[unused1513]
[unused1514]
[unused1515]
[unused1516]
[unused1517]
[unused1518]
[unused1519]
[unused1520]
[unused1521]
[unused1522]
[unused1523]
[unused1524]
[unused1525]
[unused1526]
[unused1527]
[unused1528]
[unused1529]
[unused1530]
[unused1531]
[unused1532]
[unused1533]
[unused1534]
[unused1535]
[unused1536]
[unused1537]
[unused1538]
[unused1539]
[unused1540]
[unused1541]
[unused1542]
[unused1543]
[unused1544]
[unused1545]
[unused1546]
[unused1547]
[unused1548]
[unused1549]
[unused1550]
[unused1551]
[unused1552]
[unused1553]
[unused1554]
[unused1555]
[unused1556]
[unused1557]
[unused1558]
[unused1559]
[unused1560]
[unused1561]
[unused1562]
[unused1563]
[unused1564]
[unused1565]
[unused1566]
[unused1567]
[unused1568]
[unused1569]
[unused1570]
[unused1571]
[unused1572]
[unused1573]
[unused1574]
[unused1575]
[unused1576]
[unused1577]
[unused1578]
[unused1579]
[unused1580]
[unused1581]
[unused1582]
[unused1583]
[unused1584]
[unused1585]
[unused1586]
[unused1587]
[unused1588]
[unused1589]
[unused1590]
[unused1591]
[unused1592]
[unused1593]
[unused1594]
[unused1595]
[unused1596]
[unused1597]
[unused1598]
[unused1599]
[unused1600]
[unused1601]
[unused1602]
[unused1603]
[unused1604]
[unused1605]
[unused1606]
[unused1607]
[unused1608]
[unused1609]
[unused1610]
[unused1611]
[unused1612]
[unused1613]
[unused1614]
[unused1615]
[unused1616]
[unused1617]
[unused1618]
[unused1619]
[unused1620]
[unused1621]
[unused1622]
[unused1623]
[unused1624]
[unused1625]
[unused1626]
[unused1627]
[unused1628]
[unused1629]
[unused1630]
[unused1631]
[unused1632]
[unused1633]
[unused1634]
[unused1635]
[unused1636]
[unused1637]
[unused1638]
[unused1639]
[unused1640]
[unused1641]
[unused1642]
[unused1643]
[unused1644]
[unused1645]
[unused1646]
[unused1647]
[unused1648]
[unused1649]
[unused1650]
[unused1651]
[unused1652]
[unused1653]
[unused1654]
[unused1655]
[unused1656]
[unused1657]
[unused1658]
[unused1659]
[unused1660]
[unused1661]
[unused1662]
[unused1663]
[unused1664]
[unused1665]
[unused1666]
[unused1667]
[unused1668]
[unused1669]
[unused1670]
[unused1671]
[unused1672]
[unused1673]
[unused1674]
[unused1675]
[unused1676]
[unused1677]
[unused1678]
[unused1679]
[unused1680]
[unused1681]
[unused1682]
[unused1683]
[unused1684]
[unused1685]
[unused1686]
[unused1687]
[unused1688]
[unused1689]
[unused1690]
[unused1691]
[unused1692]
[unused1693]
[unused1694]
[unused1695]
[unused1696]
[unused1697]
[unused1698]
[unused1699]
[unused1700]
[unused1701]
[unused1702]
[unused1703]
[unused1704]
[unused1705]
[unused1706]
[unused1707]
[unused1708]
[unused1709]
[unused1710]
[unused1711]
[unused1712]
[unused1713]
[unused1714]
[unused1715]
[unused1716]
[unused1717]
[unused1718]
[unused1719]
[unused1720]
[unused1721]
[unused1722]
[unused1723]
[unused1724]
[unused1725]
[unused1726]
[unused1727]
[unused1728]
[unused1729]
[unused1730]
[unused1731]
[unused1732]
[unused1733]
[unused1734]
[unused1735]
[unused1736]
[unused1737]
[unused1738]
[unused1739]
[unused1740]
[unused1741]
[unused1742]
[unused1743]
[unused1744]
[unused1745]
[unused1746]
[unused1747]
[unused1748]
[unused1749]
[unused1750]
[unused1751]
[unused1752]
[unused1753]
[unused1754]
[unused1755]
[unused1756]
[unused1757]
[unused1758]
[unused1759]
[unused1760]
[unused1761]
[unused1762]
[unused1763]
[unused1764]
[unused1765]
[unused1766]
[unused1767]
[unused1768]
[unused1769]
[unused1770]
[unused1771]
[unused1772]
[unused1773]
[unused1774]
[unused1775]
[unused1776]
[unused1777]
[unused1778]
[unused1779]
[unused1780]
[unused1781]
[unused1782]
[unused1783]
[unused1784]
[unused1785]
[unused1786]
[unused1787]
[unused1788]
[unused1789]
[unused1790]
[unused1791]
[unused1792]
[unused1793]
[unused1794]
[unused1795]
[unused1796]
[unused1797]
[unused1798]
[unused1799]
[unused1800]
[unused1801]
[unused1802]
[unused1803]
[unused1804]
[unused1805]
[unused1806]
[unused1807]
[unused1808]
[unused1809]
[unused1810]
[unused1811]
[unused1812]
[unused1813]
[unused1814]
[unused1815]
[unused1816]
[unused1817]
[unused1818]
[unused1819]
[unused1820]
[unused1821]
[unused1822]
[unused1823]
[unused1824]
[unused1825]
[unused1826]
[unused1827]
[unused1828]
[unused1829]
[unused1830]
[unused1831]
[unused1832]
[unused1833]
[unused1834]
[unused1835]
[unused1836]
[unused1837]
[unused1838]
[unused1839]
[unused1840]
[unused1841]
[unused1842]
[unused1843]
[unused1844]
[unused1845]
[unused1846]
[unused1847]
[unused1848]
[unused1849]
[unused1850]
[unused1851]
[unused1852]
[unused1853]
[unused1854]
[unused1855]
[unused1856]
[unused1857]
[unused1858]
[unused1859]
[unused1860]
[unused1861]
[unused1862]
[unused1863]
[unused1864]
[unused1865]
[unused1866]
[unused1867]
[unused1868]
[unused1869]
[unused1870]
[unused1871]
[unused1872]
[unused1873]
[unused1874]
[unused1875]
[unused1876]
[unused1877]
[unused1878]
[unused1879]
[unused1880]
[unused1881]
[unused1882]
[unused1883]
[unused1884]
[unused1885]
[unused1886]
[unused1887]
[unused1888]
[unused1889]
[unused1890]
[unused1891]
[unused1892]
[unused1893]
[unused1894]
[unused1895]
[unused1896]
[unused1897]
[unused1898]
[unused1899]
[unused1900]
[unused1901]
[unused1902]
[unused1903]
[unused1904]
[unused1905]
[unused1906]
[unused1907]
[unused1908]
[unused1909]
[unused1910]
[unused1911]
[unused1912]
[unused1913]
[unused1914]
[unused1915]
[unused1916]
[unused1917]
[unused1918]
[unused1919]
[unused1920]
[unused1921]
[unused1922]
[unused1923]
[unused1924]
[unused1925]
[unused1926]
[unused1927]
[unused1928]
[unused1929]
[unused1930]
[unused1931]
[unused1932]
[unused1933]
[unused1934]
[unused1935]
[unused1936]
[unused1937]
[unused1938]
[unused1939]
[unused1940]
[unused1941]
[unused1942]
[unused1943]
[unused1944]
[unused1945]
[unused1946]
[unused1947]
[unused1948]
[unused1949]
[unused1950]
[unused1951]
[unused1952]
[unused1953]
[unused1954]
[unused1955]
[unused1956]
[unused1957]
[unused1958]
[unused1959]
[unused1960]
[unused1961]
[unused1962]
[unused1963]
[unused1964]
[unused1965]
[unused1966]
[unused1967]
[unused1968]
[unused1969]
[unused1970]
[unused1971]
[unused1972]
[unused1973]
[unused1974]
[unused1975]
[unused1976]
[unused1977]
[unused1978]
[unused1979]
[unused1980]
[unused1981]
[unused1982]
[unused1983]
[unused1984]
[unused1985]
[unused1986]
[unused1987]
[unused1988]
[unused1989]
[unused1990]
[unused1991]
[unused1992]
[unused1993]
[unused1994]
[unused1995]
[unused1996]
[unused1997]
[unused1998]
[unused1999]
!
#
$
%
&
(
)
*
+
,
-
.
/
0
1
2
3
4
5
6
7
8
9
:
;
<
=
>
?
@
[
\
]
^
_
`
a
b
c
d
e
f
g
h
i
j
k
l
m
n
o
p
q
r
s
t
u
v
w
x
y
z
{
|
}
~
∼
ㄱ
ㄲ
ㄳ
ㄴ
ㄵ
ㄶ
ㄷ
ㄸ
ㄹ
ㄺ
ㄻ
ㄼ
ㄽ
ㄾ
ㄿ
ㅀ
ㅁ
ㅂ
ㅃ
ㅄ
ㅅ
ㅆ
ㅇ
ㅈ
ㅉ
ㅊ
ㅋ
ㅌ
ㅍ
ㅎ
가
각
갂
갃
간
갅
갆
갇
갈
갉
갊
갋
갌
갍
갏
감
갑
값
갓
갔
강
갖
갗
갘
같
갚
갛
개
객
갞
갠
갡
갢
갣
갤
갬
갭
갯
갰
갱
갲
갳
갴
갵
갶
갷
갸
갹
갺
갼
갿
걀
걁
걈
걉
걋
걌
걍
걎
걏
걐
걑
걓
걔
걕
걖
걘
걜
걤
걨
걩
거
걱
걲
걳
건
걵
걶
걷
걸
걹
걺
걼
걾
걿
검
겁
겂
것
겄
겅
겆
겇
겈
겉
겊
겋
게
겍
겎
겏
겐
겒
겓
겔
겙
겚
겜
겝
겟
겠
겡
겢
겣
겤
겥
겦
겧
겨
격
겪
겫
견
겭
겮
겯
결
겱
겲
겳
겴
겵
겷
겸
겹
겺
겻
겼
경
겾
겿
곀
곁
곂
곃
계
곅
곈
곌
곔
곕
곗
곘
곙
곚
곜
곞
곟
고
곡
곢
곣
곤
곥
곦
곧
골
곩
곪
곫
곬
곮
곯
곰
곱
곲
곳
곴
공
곶
곷
곸
곹
곺
곻
과
곽
곾
관
괁
괂
괃
괄
괌
괍
괏
괐
광
괒
괓
괔
괕
괗
괘
괙
괜
괝
괞
괟
괠
괨
괩
괫
괬
괭
괮
괯
괰
괱
괴
괵
괸
괺
괻
괼
굄
굅
굇
굈
굉
굊
굌
굎
교
굑
굔
굗
굘
굚
굠
굡
굣
굤
굥
굦
굧
굨
굩
굪
굫
구
국
굮
굯
군
굲
굳
굴
굵
굶
굷
굸
굻
굼
굽
굾
굿
궀
궁
궂
궃
궄
궅
궆
궇
궈
궉
권
궏
궐
궘
궛
궜
궝
궞
궠
궤
궥
궨
궬
궭
궮
궴
궷
궸
궹
궼
귀
귁
귄
귈
귐
귑
귓
귔
귕
귖
귗
귘
귛
규
귝
균
귡
귢
귣
귤
귥
귬
귭
귯
귱
귲
귳
귴
귵
귶
귷
그
극
귺
귻
근
귽
귾
귿
글
긁
긂
긃
긄
긅
긇
금
급
긊
긋
긌
긍
긎
긏
긐
긑
긒
긓
긔
긕
긘
긛
긜
긤
긥
긧
긩
긪
긬
긯
기
긱
긲
긴
긵
긶
긷
길
긹
긺
긻
긼
긿
김
깁
깂
깃
깄
깅
깆
깇
깈
깉
깊
깋
까
깍
깎
깐
깒
깓
깔
깕
깖
깗
깛
깜
깝
깞
깟
깠
깡
깢
깣
깤
깥
깦
깧
깨
깩
깪
깬
깯
깰
깳
깵
깸
깹
깻
깼
깽
깾
꺀
꺂
꺄
꺅
꺆
꺈
꺉
꺊
꺋
꺌
꺍
꺎
꺏
꺑
꺒
꺓
꺔
꺕
꺖
꺗
꺘
꺙
꺚
꺛
꺜
꺝
꺟
꺠
꺡
꺢
꺤
꺨
꺰
꺳
꺴
꺵
꺼
꺽
꺾
껀
껃
껄
껌
껍
껏
껐
껑
껒
껓
껔
껕
껖
껗
께
껙
껜
껟
껠
껨
껩
껫
껬
껭
껰
껲
껳
껴
껵
껶
껸
껼
꼄
꼅
꼇
꼈
꼉
꼊
꼌
꼍
꼏
꼐
꼔
꼣
꼤
꼥
꼬
꼭
꼮
꼰
꼲
꼳
꼴
꼻
꼼
꼽
꼿
꽀
꽁
꽂
꽃
꽄
꽅
꽆
꽇
꽈
꽉
꽊
꽌
꽏
꽐
꽘
꽙
꽛
꽜
꽝
꽠
꽣
꽤
꽥
꽦
꽨
꽬
꽴
꽹
꾀
꾁
꾄
꾈
꾐
꾑
꾕
꾜
꾝
꾤
꾩
꾬
꾭
꾱
꾲
꾳
꾸
꾹
꾺
꾼
꾾
꾿
꿀
꿁
꿂
꿃
꿅
꿇
꿈
꿉
꿋
꿌
꿍
꿎
꿏
꿐
꿑
꿒
꿓
꿔
꿕
꿘
꿜
꿤
꿥
꿧
꿨
꿩
꿯
꿰
꿱
꿴
꿸
꿹
꿻
뀀
뀁
뀄
뀅
뀌
뀍
뀐
뀔
뀜
뀝
뀟
뀠
뀡
뀤
뀨
뀩
뀪
뀬
뀯
뀰
뀸
뀹
뀻
뀼
뀽
끁
끄
끅
끆
끈
끉
끊
끋
끌
끍
끎
끏
끐
끓
끔
끕
끗
끘
끙
끚
끛
끜
끝
끞
끟
끠
끡
끤
끨
끰
끵
끼
끽
끾
낀
낃
낄
낈
낋
낌
낍
낏
낐
낑
낒
낔
낕
낗
나
낙
낚
낛
난
낝
낞
낟
날
낡
낢
낣
낤
낧
남
납
낪
낫
났
낭
낮
낯
낰
낱
낲
낳
내
낵
낶
낸
낻
낼
냄
냅
냇
냈
냉
냊
냋
냌
냍
냎
냏
냐
냑
냒
냔
냕
냗
냘
냛
냠
냡
냣
냤
냥
냦
냧
냨
냩
냪
냫
냬
냴
냼
냿
넀
넁
넄
너
넉
넊
넋
넌
넎
넏
널
넑
넒
넓
넔
넖
넗
넘
넙
넚
넛
넜
넝
넞
넟
넠
넡
넢
넣
네
넥
넨
넫
넬
넴
넵
넷
넸
넹
넺
넻
넼
넽
넾
넿
녀
녁
녂
녃
년
녅
녆
녇
녈
녊
녋
념
녑
녓
녔
녕
녖
녗
녘
녙
녚
녛
녜
녝
녠
녤
녬
녭
녯
녰
녱
녴
노
녹
녺
녻
논
녾
녿
놀
놁
놂
놃
놄
놇
놈
놉
놊
놋
놌
농
놎
놏
놐
놑
높
놓
놔
놕
놘
놜
놤
놥
놧
놨
놩
놬
놯
놰
뇄
뇆
뇌
뇐
뇔
뇜
뇝
뇟
뇠
뇡
뇨
뇩
뇬
뇮
뇯
뇰
뇸
뇹
뇻
뇽
뇾
눀
눁
눂
눃
누
눅
눈
눊
눋
눌
눍
눓
눔
눕
눗
눙
눚
눛
눜
눝
눞
눟
눠
눤
눨
눰
눱
눳
눴
눵
눹
눼
뉀
뉄
뉌
뉍
뉏
뉑
뉔
뉘
뉙
뉜
뉠
뉨
뉩
뉫
뉬
뉭
뉰
뉴
뉵
뉸
뉺
뉻
뉼
늄
늅
늇
늉
늊
늌
늍
늎
늏
느
늑
늒
늓
는
늕
늖
늗
늘
늙
늚
늛
늜
늟
늠
늡
늣
늤
능
늦
늧
늨
늩
늪
늫
늬
늭
늮
늰
늳
늴
늼
늽
늿
닁
닂
닄
닇
니
닉
닊
닋
닌
닍
닎
닏
닐
닑
닒
닗
님
닙
닚
닛
닜
닝
닞
닟
닠
닡
닢
닣
다
닥
닦
닧
단
닩
닪
닫
달
닭
닮
닯
닰
닲
닳
담
답
닶
닷
닸
당
닺
닻
닼
닽
닾
닿
대
댁
댄
댇
댈
댉
댐
댑
댓
댔
댕
댖
댗
댘
댙
댚
댛
댜
댝
댞
댠
댣
댤
댥
댧
댬
댭
댯
댰
댱
댲
댴
댵
댷
댸
댼
덈
덍
더
덕
덖
덗
던
덙
덚
덛
덜
덝
덞
덟
덢
덣
덤
덥
덦
덧
덨
덩
덪
덫
덬
덭
덮
덯
데
덱
덴
덷
델
뎀
뎁
뎃
뎄
뎅
뎆
뎇
뎈
뎉
뎊
뎋
뎌
뎍
뎐
뎓
뎔
뎜
뎝
뎟
뎠
뎡
뎢
뎤
뎥
뎦
뎧
뎨
뎩
뎬
뎰
뎸
뎽
도
독
돆
돇
돈
돉
돊
돋
돌
돍
돎
돏
돐
돒
돓
돔
돕
돖
돗
돘
동
돚
돛
돜
돝
돞
돟
돠
돡
돤
돨
돩
돰
돱
돳
돴
돵
돸
돻
돼
돽
돾
됀
됄
됌
됍
됏
됐
됑
됒
됔
됗
되
됙
된
됝
됟
될
됡
됢
됨
됩
됫
됬
됭
됮
됰
됳
됴
됵
됸
됻
됼
둁
둄
둅
둇
둉
둊
둌
둏
두
둑
둒
둓
둔
둗
둘
둙
둚
둟
둠
둡
둣
둤
둥
둦
둧
둨
둩
둪
둫
둬
둭
둮
둯
둰
둴
둵
둻
둼
둽
둿
뒀
뒁
뒇
뒈
뒌
뒐
뒑
뒘
뒙
뒛
뒝
뒠
뒤
뒥
뒨
뒫
뒬
뒴
뒵
뒷
뒸
뒹
뒺
뒾
듀
듁
듄
듇
듈
듐
듑
듓
듕
듖
듘
듚
듛
드
득
듞
듟
든
듡
듢
듣
들
듥
듦
듧
듨
듩
듪
듫
듬
듭
듯
듰
등
듲
듳
듴
듵
듶
듷
듸
듹
듼
듿
딀
딈
딉
딋
딍
디
딕
딖
딘
딙
딛
딜
딝
딤
딥
딧
딨
딩
딪
딫
딬
딭
딮
딯
따
딱
딲
딳
딴
딷
딸
딹
딺
딻
딿
땀
땁
땃
땄
땅
땆
땈
땉
땋
때
땍
땎
땐
땓
땔
땜
땝
땟
땠
땡
땢
땣
땤
땥
땧
땨
땩
땬
땰
땸
땹
땽
떀
떃
떄
떅
떈
떌
떔
떗
떘
떙
떠
떡
떢
떤
떥
떦
떧
떨
떪
떫
떮
떯
떰
떱
떳
떴
떵
떸
떺
떻
떼
떽
떾
뗀
뗄
뗌
뗍
뗏
뗐
뗑
뗔
뗗
뗘
뗙
뗜
뗠
뗨
뗫
뗬
뗭
뗳
뗴
뗵
뗶
뗸
뗼
똄
똇
똈
똉
똏
또
똑
똒
똔
똗
똘
똙
똟
똠
똡
똣
똥
똦
똧
똨
똫
똬
똭
똮
똯
똰
똳
똴
똵
똷
똻
똼
똽
똿
뙀
뙁
뙄
뙇
뙈
뙉
뙑
뙜
뙝
뙡
뙤
뙥
뙨
뙬
뙹
뚀
뚁
뚄
뚊
뚑
뚕
뚛
뚜
뚝
뚞
뚠
뚢
뚣
뚤
뚥
뚦
뚧
뚨
뚫
뚬
뚭
뚯
뚱
뚴
뚷
뚸
뚹
뛀
뛌
뛔
뛕
뛝
뛟
뛬
뛰
뛱
뛴
뛷
뛸
뜀
뜁
뜃
뜅
뜌
뜍
뜐
뜔
뜛
뜜
뜝
뜟
뜡
뜨
뜩
뜪
뜬
뜮
뜯
뜰
뜲
뜳
뜷
뜸
뜹
뜻
뜼
뜽
뜾
뜿
띀
띁
띃
띄
띅
띈
띌
띔
띕
띙
띠
띡
띤
띧
띨
띰
띱
띳
띵
띸
띻
라
락
띾
띿
란
랁
랂
랃
랄
랅
랆
랇
랋
람
랍
랏
랐
랑
랒
랓
랔
랕
랖
랗
래
랙
랚
랜
랝
랟
랠
램
랩
랫
랬
랭
랮
랯
랰
랱
랲
랳
랴
략
랸
랻
랼
럂
럄
럅
럆
럇
럈
량
럊
럋
럌
럍
럏
럐
럑
럔
럕
럖
럗
럙
럠
럣
럤
럥
러
럭
럮
럯
런
럱
럲
럳
럴
럵
럶
럷
럸
럻
럼
럽
럾
럿
렀
렁
렂
렃
렄
렅
렆
렇
레
렉
렊
렋
렌
렍
렏
렐
렘
렙
렛
렜
렝
렞
렟
렠
렡
렢
렣
려
력
렦
렧
련
렪
렫
렬
렮
렳
렴
렵
렶
렷
렸
령
렺
렻
렼
렽
렾
렿
례
롁
롄
롈
롐
롑
롓
롔
롕
롘
로
록
롞
롟
론
롢
롣
롤
롥
롫
롬
롭
롮
롯
롰
롱
롲
롳
롴
롵
롶
롷
롸
롹
롼
뢀
뢈
뢉
뢋
뢌
뢍
뢐
뢓
뢔
뢕
뢘
뢤
뢥
뢧
뢨
뢩
뢰
뢱
뢳
뢴
뢸
룀
룁
룃
룄
룅
룈
료
룍
룐
룓
룔
룜
룝
룟
룠
룡
룢
룣
룤
룥
룦
룧
루
룩
룪
룬
룯
룰
룱
룸
룹
룻
룽
룾
룿
뤀
뤁
뤂
뤃
뤄
뤅
뤈
뤌
뤔
뤕
뤗
뤘
뤙
뤟
뤠
뤡
뤤
뤧
뤨
뤰
뤱
뤳
뤵
뤸
뤼
뤽
륀
륄
륆
륌
륍
륏
륐
륑
류
륙
륜
륟
률
륨
륩
륫
륭
륮
륯
륰
륱
륲
륳
르
륵
륶
륷
른
륹
륺
륻
를
륽
륾
륿
릀
릁
릂
릃
름
릅
릇
릈
릉
릊
릋
릌
릍
릎
릏
릐
릑
릔
릘
릠
릡
릣
릥
릫
리
릭
릮
릯
린
릱
릲
릳
릴
릵
릶
릷
릸
림
립
릾
릿
맀
링
맂
맃
맄
맅
맆
맇
마
막
맊
맋
만
맍
많
맏
말
맑
맒
맓
맔
맕
맖
맗
맘
맙
맚
맛
맜
망
맞
맟
맠
맡
맢
맣
매
맥
맦
맧
맨
맩
맪
맫
맬
맴
맵
맷
맸
맹
맺
맻
맼
맽
맾
맿
먀
먁
먄
먆
먇
먈
먊
먋
먐
먑
먓
먕
먖
먗
먘
먙
먛
먜
먝
먠
먤
먱
머
먹
먺
먻
먼
먽
먾
먿
멀
멁
멂
멃
멅
멈
멉
멊
멋
멌
멍
멎
멏
멐
멑
멒
멓
메
멕
멘
멛
멜
멝
멤
멥
멧
멨
멩
멪
멫
멬
멭
멮
멯
며
멱
멲
면
멵
멶
멷
멸
몀
몁
몃
몄
명
몆
몇
몈
몉
몊
몋
몌
몐
몔
몟
몡
몣
모
목
몪
몫
몬
몮
몯
몰
몱
몲
몴
몸
몹
못
몼
몽
몾
몿
뫀
뫁
뫂
뫃
뫄
뫅
뫈
뫌
뫔
뫕
뫗
뫘
뫙
뫚
뫜
뫝
뫟
뫠
뫤
뫰
뫴
뫼
뫽
묀
묄
묌
묍
묏
묑
묘
묙
묜
묠
묨
묩
묫
묭
묮
묯
묰
묳
무
묵
묶
묷
문
묹
묺
묻
물
묽
묾
묿
뭀
뭁
뭂
뭃
뭄
뭅
뭇
뭈
뭉
뭊
뭋
뭌
뭍
뭎
뭏
뭐
뭑
뭓
뭔
뭕
뭗
뭘
뭠
뭡
뭣
뭤
뭥
뭦
뭨
뭩
뭪
뭫
뭬
뭭
뭰
뭴
뭼
뮁
뮈
뮉
뮌
뮐
뮘
뮙
뮛
뮝
뮤
뮥
뮦
뮨
뮫
뮬
뮭
뮴
뮵
뮷
뮹
뮺
뮻
뮼
뮽
뮾
뮿
므
믁
믂
믄
믅
믆
믇
믈
믉
믌
믐
믑
믓
믕
믖
믗
믘
믙
믚
믛
믜
믝
믠
믤
믬
믯
믱
미
믹
믺
믻
민
믽
믾
믿
밀
밁
밂
밃
밄
밅
밆
밇
밈
밉
밊
밋
밌
밍
밎
및
밐
밑
밒
밓
바
박
밖
밗
반
밙
밚
받
발
밝
밞
밟
밠
밡
밢
밣
밤
밥
밦
밧
밨
방
밪
밫
밬
밭
밮
밯
배
백
밲
밳
밴
밷
밸
밹
뱀
뱁
뱃
뱄
뱅
뱆
뱇
뱈
뱉
뱊
뱋
뱌
뱍
뱎
뱐
뱓
뱔
뱕
뱜
뱝
뱟
뱡
뱢
뱣
뱥
뱧
뱨
뱩
뱰
뱽
버
벅
벆
번
벉
벊
벋
벌
벍
벎
벏
벐
벓
범
법
벖
벗
벘
벙
벚
벛
벜
벝
벞
벟
베
벡
벤
벦
벧
벨
벩
벫
벭
벰
벱
벳
벴
벵
벶
벷
벸
벹
벺
벻
벼
벽
벾
변
볂
볃
별
볅
볆
볇
볈
볊
볋
볌
볍
볏
볐
병
볒
볓
볔
볕
볖
볗
볘
볜
볠
볫
볭
보
복
볶
볷
본
볹
볻
볼
볽
볾
볿
봀
봁
봂
봃
봄
봅
봆
봇
봈
봉
봊
봋
봌
봍
봎
봏
봐
봑
봒
봔
봗
봘
봙
봠
봡
봣
봤
봥
봦
봨
봫
봬
봭
봰
봴
봵
봽
봿
뵀
뵁
뵈
뵉
뵌
뵏
뵐
뵘
뵙
뵛
뵜
뵝
뵞
뵤
뵥
뵨
뵬
뵴
뵵
뵷
뵹
뵺
부
북
붂
분
붅
붆
붇
불
붉
붊
붋
붌
붍
붎
붏
붐
붑
붓
붔
붕
붖
붗
붘
붙
붚
붛
붜
붝
붠
붤
붥
붬
붭
붯
붰
붱
붴
붵
붸
붹
붼
뷀
뷁
뷃
뷈
뷉
뷋
뷍
뷔
뷕
뷘
뷜
뷤
뷥
뷧
뷩
뷮
뷰
뷱
뷴
뷷
뷸
뷹
븀
븁
븃
븅
븈
븉
븋
브
븍
븐
븓
블
븕
븖
븗
븘
븜
븝
븞
븟
븠
븡
븢
븣
븤
븥
븦
븧
븨
븩
븬
븯
븰
븸
븹
븻
븽
븾
빂
비
빅
빆
빇
빈
빉
빋
빌
빍
빎
빔
빕
빗
빘
빙
빚
빛
빜
빝
빞
빟
빠
빡
빢
빤
빧
빨
빩
빪
빫
빯
빰
빱
빳
빴
빵
빶
빷
빸
빹
빻
빼
빽
빾
뺀
뺃
뺄
뺌
뺍
뺏
뺐
뺑
뺒
뺕
뺗
뺘
뺙
뺚
뺜
뺠
뺨
뺩
뺫
뺭
뺴
뺵
뺶
뺸
뺼
뻄
뻅
뻇
뻈
뻉
뻍
뻐
뻑
뻒
뻔
뻖
뻗
뻘
뻠
뻡
뻣
뻤
뻥
뻦
뻨
뻩
뻫
뻬
뻭
뻰
뻴
뻼
뻽
뻿
뼀
뼁
뼈
뼉
뼌
뼏
뼐
뼘
뼙
뼛
뼜
뼝
뼡
뼤
뼨
뽀
뽁
뽂
뽄
뽇
뽈
뽐
뽑
뽓
뽔
뽕
뽖
뽘
뽚
뽛
뽜
뽝
뽞
뽠
뽤
뽥
뽬
뽭
뽯
뽰
뽱
뽴
뽷
뽸
뽹
뾔
뾘
뾫
뾰
뾱
뾲
뾴
뾸
뿀
뿁
뿃
뿅
뿌
뿍
뿎
뿐
뿓
뿔
뿕
뿛
뿜
뿝
뿟
뿠
뿡
뿤
뿥
뿧
뿨
뿩
뿬
뿰
뿼
뿽
쀄
쀅
쀍
쀔
쀙
쀠
쀡
쀨
쀵
쀼
쀽
쀾
쁀
쁄
쁌
쁍
쁑
쁘
쁙
쁜
쁝
쁟
쁠
쁨
쁩
쁫
쁭
쁮
쁰
쁱
쁴
쁼
삉
삐
삑
삒
삔
삗
삘
삠
삡
삣
삤
삥
삦
삧
삨
사
삭
삮
삯
산
삱
삲
삳
살
삵
삶
삷
삸
삺
삻
삼
삽
삾
삿
샀
상
샂
샃
샄
샅
샆
샇
새
색
샊
샋
샌
샏
샐
샒
샔
샘
샙
샛
샜
생
샞
샟
샠
샡
샢
샣
샤
샥
샦
샨
샫
샬
샮
샴
샵
샷
샸
샹
샺
샻
샼
샽
샾
샿
섀
섁
섄
섈
섊
섏
섐
섓
섕
서
석
섞
섟
선
섡
섢
섣
설
섥
섦
섧
섩
섪
섫
섬
섭
섮
섯
섰
성
섲
섳
섴
섵
섶
섷
세
섹
섺
섻
센
섿
셀
셂
셆
셈
셉
셊
셋
셌
셍
셎
셏
셐
셑
셒
셓
셔
셕
셖
션
셙
셚
셛
셜
셟
셤
셥
셧
셨
셩
셪
셫
셬
셭
셮
셯
셰
셱
셴
셸
솀
솁
솃
솄
솅
솈
솊
소
속
솎
솏
손
솑
솓
솔
솕
솖
솘
솛
솜
솝
솟
솠
송
솢
솣
솤
솥
솦
솧
솨
솩
솬
솰
솸
솹
솻
솼
솽
쇄
쇅
쇈
쇌
쇗
쇘
쇙
쇟
쇠
쇡
쇤
쇨
쇰
쇱
쇳
쇵
쇼
쇽
숀
숃
숄
숌
숍
숏
숐
숑
숒
숓
숔
숕
숖
숗
수
숙
숚
숛
순
숝
숞
숟
술
숡
숢
숧
숨
숩
숫
숬
숭
숮
숯
숰
숱
숲
숳
숴
숵
숸
숼
쉄
쉅
쉇
쉈
쉉
쉊
쉌
쉎
쉐
쉑
쉒
쉔
쉕
쉗
쉘
쉙
쉜
쉞
쉠
쉡
쉣
쉤
쉥
쉨
쉩
쉪
쉬
쉭
쉰
쉳
쉴
쉼
쉽
쉾
쉿
슀
슁
슂
슄
슅
슆
슈
슉
슊
슋
슌
슏
슐
슒
슘
슙
슛
슝
슞
슟
슠
슡
슢
슣
스
슥
슦
슧
슨
슩
슫
슬
슭
슮
슯
슲
슳
슴
습
슶
슷
슸
승
슺
슻
슼
슽
슾
슿
싀
싁
싄
싇
싈
싐
싑
싓
싕
싖
싘
싚
시
식
싞
싟
신
싡
싢
싣
실
싥
싦
싧
싨
싩
싪
싫
심
십
싮
싯
싰
싱
싲
싳
싴
싵
싶
싷
싸
싹
싺
싻
싼
싾
싿
쌀
쌂
쌃
쌇
쌈
쌉
쌋
쌌
쌍
쌎
쌏
쌐
쌑
쌒
쌓
쌔
쌕
쌘
쌛
쌜
쌤
쌥
쌧
쌨
쌩
쌯
쌰
쌱
쌲
쌴
쌸
썀
썁
썃
썄
썅
썋
썌
썍
썐
썖
썜
썝
썡
써
썩
썪
썬
썯
썰
썱
썲
썷
썸
썹
썻
썼
썽
썾
쎀
쎁
쎂
쎃
쎄
쎅
쎆
쎈
쎌
쎔
쎕
쎗
쎘
쎙
쎜
쎝
쎠
쎡
쎤
쎨
쎰
쎱
쎳
쎴
쎵
쎼
쎽
쎾
쏀
쏄
쏌
쏍
쏐
쏘
쏙
쏚
쏜
쏟
쏠
쏨
쏩
쏫
쏬
쏭
쏮
쏯
쏰
쏱
쏳
쏴
쏵
쏸
쏼
쐄
쐅
쐇
쐈
쐉
쐏
쐐
쐑
쐔
쐘
쐣
쐤
쐥
쐬
쐭
쐰
쐴
쐼
쐽
쐿
쑀
쑁
쑈
쑉
쑊
쑌
쑐
쑘
쑛
쑝
쑤
쑥
쑦
쑨
쑫
쑬
쑴
쑵
쑷
쑹
쑺
쑻
쑼
쒀
쒄
쒈
쒑
쒓
쒔
쒕
쒘
쒜
쒝
쒞
쒠
쒤
쒬
쒭
쒯
쒰
쒱
쒴
쒵
쒸
쒹
쒼
쓀
쓈
쓉
쓋
쓍
쓐
쓑
쓔
쓕
쓖
쓘
쓜
쓤
쓥
쓧
쓩
쓰
쓱
쓲
쓳
쓴
쓵
쓷
쓸
쓹
쓺
쓻
쓼
쓿
씀
씁
씃
씄
씅
씆
씇
씈
씉
씊
씋
씌
씍
씐
씔
씜
씝
씟
씡
씤
씥
씨
씩
씪
씬
씭
씯
씰
씸
씹
씺
씻
씼
씽
씾
씿
앀
앁
앂
앃
아
악
앆
앇
안
앉
않
앋
알
앍
앎
앏
앐
앑
앒
앓
암
압
앖
앗
았
앙
앚
앛
앜
앝
앞
앟
애
액
앢
앣
앤
앦
앧
앨
앩
앫
앰
앱
앲
앳
앴
앵
앶
앷
앸
앹
앺
앻
야
약
앾
앿
얀
얂
얃
얄
얅
얆
얇
얉
얊
얋
얌
얍
얎
얏
얐
양
얒
얓
얔
얕
얖
얗
얘
얙
얜
얠
얨
얩
얫
얬
얭
얳
어
억
얶
얷
언
얹
얺
얻
얼
얽
얾
얿
엀
엂
엃
엄
업
없
엇
었
엉
엊
엋
엌
엍
엎
엏
에
엑
엒
엓
엔
엕
엗
엘
엙
엛
엜
엞
엠
엡
엢
엣
엤
엥
엦
엧
엨
엩
엪
엫
여
역
엮
엯
연
엱
엲
엳
열
엵
엶
엷
엸
엹
엺
엻
염
엽
엾
엿
였
영
옂
옃
옄
옅
옆
옇
예
옉
옌
옐
옒
옘
옙
옛
옜
옝
옞
옠
옢
옣
오
옥
옦
옧
온
옩
옪
옫
올
옭
옮
옯
옰
옲
옳
옴
옵
옶
옷
옸
옹
옺
옻
옼
옽
옾
옿
와
왁
왂
왃
완
왅
왆
왇
왈
왉
왐
왑
왓
왔
왕
왖
왘
왙
왚
왛
왜
왝
왠
왡
왤
왬
왭
왯
왰
왱
왴
외
왹
왼
왿
욀
욈
욉
욋
욌
욍
욎
욐
요
욕
욖
욗
욘
욚
욛
욜
욝
욞
욣
욤
욥
욧
욨
용
욪
욫
욬
욭
욮
욯
우
욱
욲
욳
운
욵
욶
욷
울
욹
욺
욼
욽
욾
욿
움
웁
웂
웃
웄
웅
웆
웇
웈
웉
웊
웋
워
웍
웎
원
웑
웒
웓
월
웕
웖
웗
웘
웚
웛
웜
웝
웞
웟
웠
웡
웢
웣
웤
웥
웦
웧
웨
웩
웪
웬
웯
웰
웱
웸
웹
웻
웼
웽
윀
윁
위
윅
윈
윋
윌
윔
윕
윗
윘
윙
윚
윛
윜
윝
윞
윟
유
육
윢
윣
윤
윥
윦
윧
율
윪
윯
윰
윱
윳
융
윶
윷
윸
윹
윺
윻
으
윽
윾
윿
은
읁
읂
읃
을
읅
읆
읇
읈
읉
읊
읋
음
읍
읎
읏
읐
응
읒
읓
읔
읕
읖
읗
의
읙
읜
읟
읠
읨
읩
읪
읫
읬
읭
읮
읰
읳
이
익
읶
읷
인
읹
읺
읻
일
읽
읾
읿
잀
잁
잂
잃
임
입
잆
잇
있
잉
잊
잋
잌
잍
잎
잏
자
작
잒
잓
잔
잕
잖
잗
잘
잙
잚
잛
잜
잝
잞
잟
잠
잡
잢
잣
잤
장
잦
잧
잨
잩
잪
잫
재
잭
잰
잲
잳
잴
잶
잼
잽
잿
쟀
쟁
쟂
쟃
쟄
쟆
쟇
쟈
쟉
쟌
쟎
쟏
쟐
쟘
쟙
쟛
쟜
쟝
쟞
쟠
쟢
쟣
쟤
쟨
쟬
쟴
쟸
쟹
저
적
젂
젃
전
젅
젆
젇
절
젉
젊
젋
젌
젎
젏
점
접
젒
젓
젔
정
젖
젗
젘
젙
젚
젛
제
젝
젠
젣
젤
젨
젬
젭
젯
젰
젱
젲
젳
젴
젵
젶
젷
져
젹
젺
젼
젾
젿
졀
졈
졉
졋
졌
졍
졎
졏
졐
졑
졒
졓
졔
졘
졜
졤
졨
졩
조
족
졲
졳
존
졵
졶
졷
졸
졹
졺
졻
졿
좀
좁
좂
좃
좄
종
좆
좇
좈
좉
좊
좋
좌
좍
좎
좐
좔
좜
좝
좟
좠
좡
좢
좥
좦
좧
좨
좩
좪
좫
좬
좭
좮
좯
좰
좱
좸
좼
좽
죂
죃
죄
죅
죈
죌
죔
죕
죗
죘
죙
죚
죟
죠
죡
죤
죦
죧
죨
죰
죱
죳
죴
죵
죶
죷
죸
죹
죺
죻
주
죽
죾
죿
준
줁
줂
줃
줄
줅
줆
줈
줋
줌
줍
줏
줐
중
줒
줓
줔
줕
줖
줗
줘
줙
줚
줜
줝
줟
줠
줨
줩
줫
줬
줭
줮
줰
줳
줴
줵
줸
줼
쥄
쥅
쥇
쥈
쥉
쥐
쥑
쥔
쥘
쥠
쥡
쥣
쥤
쥥
쥨
쥫
쥬
쥭
쥰
쥲
쥳
쥴
쥼
쥽
쥿
즁
즂
즄
즅
즆
즇
즈
즉
즋
즌
즏
즐
즑
즘
즙
즛
즜
증
즞
즟
즠
즡
즢
즣
즤
즥
즨
즬
즴
즵
즷
즹
즼
지
직
짂
짃
진
짅
짆
짇
질
짉
짊
짋
짌
짍
짏
짐
집
짒
짓
짔
징
짖
짗
짘
짙
짚
짛
짜
짝
짞
짠
짢
짣
짤
짥
짦
짧
짪
짫
짬
짭
짮
짯
짰
짱
짲
짳
짴
짵
짶
짷
째
짹
짺
짼
짾
짿
쨀
쨈
쨉
쨋
쨌
쨍
쨎
쨏
쨐
쨓
쨔
쨕
쨖
쨘
쨚
쨜
쨟
쨤
쨥
쨧
쨨
쨩
쨪
쨬
쨰
쨱
쨴
쨸
쩀
쩁
쩃
쩄
쩅
쩌
쩍
쩎
쩐
쩓
쩔
쩖
쩗
쩘
쩜
쩝
쩟
쩠
쩡
쩢
쩧
쩨
쩩
쩬
쩰
쩸
쩹
쩻
쩼
쩽
쪄
쪅
쪈
쪌
쪔
쪕
쪗
쪘
쪙
쪜
쪟
쪠
쪤
쪨
쪰
쪱
쪵
쪹
쪻
쪼
쪽
쪾
쫀
쫁
쫂
쫃
쫄
쫅
쫆
쫌
쫍
쫏
쫐
쫑
쫒
쫓
쫔
쫗
쫘
쫙
쫚
쫛
쫜
쫟
쫠
쫤
쫨
쫩
쫫
쫬
쫭
쫰
쫳
쫴
쬄
쬈
쬉
쬎
쬐
쬑
쬔
쬘
쬠
쬡
쬣
쬤
쬥
쬬
쬭
쬮
쬰
쬲
쬴
쬼
쬽
쬿
쭁
쭄
쭈
쭉
쭊
쭌
쭏
쭐
쭕
쭗
쭘
쭙
쭛
쭜
쭝
쭞
쭠
쭤
쭥
쭨
쭬
쭭
쭴
쭵
쭷
쭸
쭹
쭻
쭿
쮀
쮈
쮓
쮕
쮜
쮝
쮠
쮡
쮤
쮬
쮭
쮱
쮸
쮹
쮼
쯀
쯈
쯉
쯋
쯍
쯔
쯕
쯘
쯜
쯤
쯥
쯧
쯨
쯩
쯪
쯰
쯱
쯴
쯸
찅
찌
찍
찎
찐
찓
찔
찖
찗
찜
찝
찟
찠
찡
찢
찣
찤
찥
찦
찧
차
착
찪
찫
찬
찭
찮
찯
찰
찱
찳
찴
찷
참
찹
찺
찻
찼
창
찾
찿
챀
챁
챂
챃
채
책
챆
챈
챊
챋
챌
챎
챔
챕
챗
챘
챙
챚
챛
챜
챝
챞
챟
챠
챡
챤
챦
챧
챨
챪
챰
챱
챳
챴
챵
챶
챷
챸
챹
챺
챻
챼
챽
첀
첌
첑
처
척
첚
첛
천
첝
첞
첟
철
첡
첢
첣
첧
첨
첩
첫
첬
청
첮
첯
첰
첱
첲
첳
체
첵
첸
첻
첼
쳄
쳅
쳇
쳈
쳉
쳊
쳋
쳌
쳏
쳐
쳑
쳒
쳔
쳗
쳘
쳠
쳡
쳣
쳤
쳥
쳦
쳧
쳨
쳩
쳪
쳫
쳬
쳰
쳴
초
촉
촊
촋
촌
촎
촏
촐
촑
촘
촙
촛
총
촞
촟
촠
촡
촢
촣
촤
촥
촦
촨
촪
촫
촬
촭
촮
촴
촵
촷
촸
촹
촺
촻
촼
촿
쵀
쵁
쵄
쵐
쵑
쵕
최
쵝
쵠
쵣
쵤
쵬
쵭
쵯
쵱
쵲
쵳
쵴
쵸
쵹
쵺
쵼
쵿
춀
춈
춉
춋
춌
춍
춏
춐
춑
추
축
춗
춘
춚
춛
출
춝
춞
춟
춠
춡
춢
춣
춤
춥
춧
충
춪
춫
춬
춭
춮
춯
춰
춱
춴
춸
췀
췁
췃
췄
췅
췆
췈
췌
췍
췐
췔
췜
췝
췟
췡
췤
취
췩
췬
췰
췸
췹
췻
췼
췽
췾
츀
츃
츄
츅
츈
츊
츋
츌
츔
츕
츗
츙
츚
츛
츜
츝
츞
츟
츠
측
츤
츦
츧
츨
츩
츰
츱
츳
층
츶
츷
츸
츹
츺
츻
츼
츽
칀
칄
칌
칏
칑
칔
치
칙
칚
친
칝
칞
칟
칠
칡
칢
칣
칧
침
칩
칫
칬
칭
칮
칯
칰
칱
칲
칳
카
칵
칸
칻
칼
칽
칾
캀
캃
캄
캅
캆
캇
캈
캉
캊
캋
캌
캍
캎
캏
캐
캑
캔
캘
캠
캡
캢
캣
캤
캥
캦
캨
캩
캪
캫
캬
캭
캰
캴
캵
캼
캽
캿
컀
컁
컄
컅
컇
컈
컌
컘
컙
커
컥
컨
컫
컬
컭
컯
컴
컵
컶
컷
컸
컹
컺
컻
컼
컽
컾
컿
케
켁
켄
켇
켈
켐
켑
켓
켔
켕
켗
켘
켙
켚
켛
켜
켝
켞
켠
켡
켣
켤
켬
켭
켯
켰
켱
켲
켴
켵
켷
켸
콀
콋
콌
콐
코
콕
콘
콙
콛
콜
콤
콥
콦
콧
콨
콩
콪
콫
콬
콭
콮
콯
콰
콱
콴
콸
쾀
쾁
쾃
쾅
쾈
쾌
쾍
쾐
쾒
쾔
쾡
쾨
쾩
쾬
쾰
쾽
쿄
쿅
쿈
쿌
쿔
쿕
쿗
쿘
쿙
쿜
쿠
쿡
쿤
쿧
쿨
쿭
쿰
쿱
쿳
쿵
쿷
쿸
쿹
쿺
쿻
쿼
쿽
퀀
퀄
퀉
퀌
퀍
퀏
퀐
퀑
퀔
퀕
퀘
퀙
퀜
퀠
퀩
퀫
퀭
퀴
퀵
퀸
퀼
큄
큅
큇
큉
큌
큍
큐
큑
큔
큗
큘
큠
큡
큣
큥
큨
큩
큪
큫
크
큭
큮
큰
큲
큳
클
큵
큶
큷
큹
큻
큼
큽
큿
킁
킂
킃
킄
킅
킆
킇
킈
킉
킌
킐
킘
킛
킝
킠
키
킥
킧
킨
킫
킬
킭
킰
킴
킵
킷
킸
킹
킺
킻
킼
킽
킾
킿
타
탁
탂
탄
탅
탆
탇
탈
탉
탊
탍
탐
탑
탓
탔
탕
탖
탗
탘
탙
탚
탛
태
택
탞
탟
탠
탣
탤
탬
탭
탯
탰
탱
탲
탳
탴
탵
탶
탷
탸
탹
탼
탿
턀
턈
턉
턋
턍
턎
턏
턑
턓
턔
턕
턘
터
턱
턴
턶
턷
털
턺
턻
턿
텀
텁
텂
텃
텄
텅
텆
텇
텈
텉
텊
텋
테
텍
텐
텑
텓
텔
템
텝
텟
텡
텢
텣
텤
텥
텦
텧
텨
텩
텬
텯
텰
텸
텹
텻
텼
텽
톁
톃
톄
톈
톌
톔
토
톡
톢
톤
톧
톨
톩
톰
톱
톳
통
톶
톷
톸
톹
톺
톻
톼
톽
퇀
퇄
퇌
퇍
퇏
퇑
퇗
퇘
퇫
퇴
퇵
퇶
퇸
퇼
툄
툅
툇
툉
툐
툑
툔
툗
툘
툠
툡
툣
툥
툩
투
툭
툰
툳
툴
툶
툻
툼
툽
툿
퉁
퉂
퉃
퉄
퉅
퉆
퉇
퉈
퉉
퉌
퉐
퉛
퉜
퉝
퉤
퉥
퉨
퉬
퉴
퉵
퉷
퉹
퉽
튀
튁
튄
튈
튐
튑
튓
튕
튜
튝
튠
튣
튤
튬
튭
튯
튱
튲
튳
튴
튵
튶
튷
트
특
튺
튻
튼
튽
튾
튿
틀
틁
틂
틃
틇
틈
틉
틊
틋
틍
틎
틏
틐
틑
틒
틓
틔
틕
틘
틜
틤
틥
틧
틩
틭
티
틱
틳
틴
틷
틸
팀
팁
팃
팄
팅
팆
팇
팈
팉
팊
팋
파
팍
팎
팏
판
팑
팒
팓
팔
팕
팖
팚
팜
팝
팟
팠
팡
팢
팣
팤
팥
팦
팧
패
팩
팬
팯
팰
팸
팹
팻
팼
팽
팾
퍀
퍁
퍂
퍃
퍄
퍅
퍈
퍋
퍌
퍔
퍕
퍗
퍙
퍛
퍜
퍝
퍞
퍟
퍠
퍡
퍤
퍼
퍽
펀
펃
펄
펌
펍
펏
펐
펑
펒
펓
펔
펕
펖
펗
페
펙
펜
펟
펠
펨
펩
펫
펭
펮
펰
펱
펲
펳
펴
펵
편
펹
펺
펻
펼
폁
폄
폅
폇
폈
평
폊
폋
폌
폍
폎
폏
폐
폑
폔
폘
폠
폡
폣
폥
포
폭
폮
폯
폰
폳
폴
폵
폼
폽
폿
퐀
퐁
퐂
퐃
퐄
퐅
퐆
퐇
퐈
퐉
퐊
퐌
퐐
퐑
퐘
퐙
퐛
퐜
퐝
퐞
퐠
퐢
퐣
퐤
퐥
퐨
푀
푁
푄
푈
푕
표
푝
푠
푣
푤
푬
푭
푯
푱
푲
푳
푴
푶
푷
푸
푹
푼
푿
풀
풁
풂
풆
품
풉
풋
풍
풎
풏
풐
풑
풒
풓
풔
풕
풖
풘
풜
풤
풩
풰
풱
풴
풸
풹
퓅
퓈
퓌
퓍
퓐
퓔
퓘
퓜
퓟
퓡
퓨
퓩
퓬
퓯
퓰
퓸
퓹
퓻
퓽
퓾
퓿
픀
픁
픂
픃
프
픅
픈
픋
플
픍
픎
픐
픓
픔
픕
픗
픙
픚
픛
픜
픝
픞
픟
픠
픤
픨
픰
픱
픵
피
픽
픿
핀
핃
필
핅
핆
핈
핉
핊
핋
핌
핍
핏
핐
핑
핒
핓
핔
핕
핖
핗
하
학
핚
핛
한
핝
핞
핟
할
핡
핢
핣
핤
핥
핦
핧
함
합
핪
핫
핬
항
핮
핯
핰
핱
핲
핳
해
핵
핶
핷
핸
핺
핻
핼
핾
햄
햅
햇
했
행
햊
햋
햌
햍
햎
햏
햐
햑
햔
햗
햘
햙
햛
햝
햟
햠
햡
햣
햤
향
햦
햧
햨
햩
햪
햫
햬
햰
햿
헀
헁
허
헉
헊
헋
헌
헍
헏
헐
헑
헒
헓
헕
헗
험
헙
헚
헛
헜
헝
헞
헟
헠
헡
헢
헣
헤
헥
헦
헨
헫
헬
헭
헮
헲
헳
헴
헵
헷
헸
헹
헺
헼
헽
헾
헿
혀
혁
혂
혃
현
혅
혆
혇
혈
혐
협
혓
혔
형
혖
혗
혘
혙
혚
혛
혜
혠
혤
혦
혬
혭
혯
혰
혱
혲
혴
혷
호
혹
혻
혼
혽
혾
혿
홀
홁
홂
홅
홇
홈
홉
홋
홍
홎
홏
홐
홑
홒
홓
화
확
홖
홗
환
홙
홚
홛
활
홝
홞
홟
홣
홤
홥
홧
홨
황
홪
홬
홭
홮
홯
홰
홱
홴
횁
횃
횄
횅
회
획
횐
횓
횔
횜
횝
횟
횡
횢
횤
횧
효
횩
횬
횯
횰
횸
횹
횻
횽
횾
훀
훁
훃
후
훅
훈
훉
훋
훌
훍
훎
훏
훑
훒
훓
훔
훕
훗
훘
훙
훚
훛
훜
훝
훞
훟
훠
훡
훣
훤
훨
훪
훬
훯
훰
훱
훳
훵
훻
훼
훽
휀
휄
휌
휍
휏
휑
휗
휘
휙
휜
휠
휨
휩
휫
휭
휲
휳
휴
휵
휸
휻
휼
흄
흅
흇
흉
흊
흋
흌
흍
흎
흏
흐
흑
흒
흓
흔
흕
흖
흗
흘
흙
흚
흛
흜
흝
흞
흟
흠
흡
흢
흣
흤
흥
흦
흧
흨
흩
흪
흫
희
흭
흰
흴
흼
흽
흿
힁
힂
힄
힇
히
힉
힌
힏
힐
힑
힒
힗
힘
힙
힛
힜
힝
힞
힟
힠
힡
힢
힣
％
##종
##필
##계
##에
##달
##해
##버
##렸
##다
##고
##운
##세
##상
##이
##란
##장
##8
##0
##추
##천
##사
##즈
##리
##슬
##스
##익
##제
##보
##교
##는
##무
##특
##까
##지
##낸
##주
##행
##라
##면
##서
##6
##5
##소
##가
##능
##물
##을
##하
##걸
##로
##요
##ㅋ
##먹
##으
##려
##휴
##와
##9
##월
##1
##2
##일
##국
##산
##수
##유
##취
##급
##데
##낮
##엔
##듯
##즘
##은
##었
##좋
##겠
##어
##엘
##b
##r
##t
##들
##여
##니
##더
##습
##크
##림
##등
##아
##돌
##래
##당
##연
##히
##통
##안
##전
##정
##책
##심
##의
##위
##던
##떤
##게
##한
##회
##용
##글
##티
##브
##시
##억
##만
##러
##오
##구
##두
##피
##a
##o
##l
##i
##e
##썹
##거
##술
##뇸
##그
##럼
##터
##3
##단
##슈
##문
##찍
##기
##도
##멍
##커
##트
##끄
##워
##할
##역
##대
##업
##간
##나
##마
##h
##자
##인
##굉
##질
##올
##모
##였
##식
##델
##d
##c
##f
##입
##섯
##녀
##눕
##혀
##윤
##군
##우
##람
##풍
##키
##조
##침
##금
##증
##생
##움
##큐
##담
##께
##g
##n
##렀
##싱
##갈
##토
##중
##손
##바
##닥
##항
##동
##랑
##셔
##년
##실
##같
##린
##카
##타
##부
##머
##맡
##묵
##테
##케
##왕
##경
##품
##견
##육
##격
##민
##젼
##존
##내
##꺼
##빨
##강
##렇
##반
##양
##배
##순
##규
##출
##ㄷ
##량
##성
##분
##7
##쓰
##겨
##져
##있
##쟁
##코
##프
##임
##너
##진
##애
##공
##후
##약
##저
##싶
##벅
##웠
##뿐
##4
##합
##ㄸ
##짜
##디
##캐
##드
##원
##각
##치
##했
##며
##미
##를
##k
##처
##루
##비
##귀
##긴
##닝
##딜
##락
##감
##방
##포
##팅
##둘
##박
##과
##죠
##립
##선
##환
##누
##틱
##작
##점
##예
##족
##레
##핑
##v
##르
##느
##셨
##든
##신
##남
##음
##발
##야
##되
##꼬
##p
##홈
##않
##칠
##싫
##눈
##펌
##때
##적
##형
##욕
##궁
##백
##았
##링
##삼
##절
##냥
##몫
##네
##충
##최
##징
##본
##매
##쥬
##떼
##욘
##빌
##딩
##째
##색
##앱
##센
##옆
##파
##명
##댁
##맞
##베
##밀
##컬
##개
##롭
##봄
##많
##롱
##컵
##줬
##u
##s
##송
##알
##늄
##길
##찰
##난
##속
##쌀
##뮤
##션
##칸
##폰
##볼
##쳐
##뱃
##짐
##콕
##막
##완
##언
##x
##웨
##덴
##률
##콘
##텐
##츠
##폐
##화
##쭤
##봤
##쿡
##탑
##릴
##건
##관
##련
##망
##님
##석
##낌
##친
##줄
##륵
##획
##퍼
##범
##렵
##혼
##협
##쌈
##플
##새
##띠
##체
##직
##펄
##것
##따
##료
##클
##y
##깍
##굴
##벌
##철
##힘
##잔
##차
##른
##랜
##독
##짝
##칙
##멜
##겁
##악
##뚫
##쿠
##왠
##활
##울
##복
##호
##잖
##m
##패
##뺏
##놈
##객
##편
##탕
##깨
##목
##즌
##왔
##봉
##흡
##켜
##w
##샤
##꺄
##현
##픔
##걍
##판
##쁘
##씨
##층
##향
##탈
##잇
##뜻
##좀
##채
##널
##될
##날
##얼
##찌
##봐
##얄
##살
##좌
##랐
##곧
##노
##번
##벼
##압
##섞
##퀴
##착
##륭
##륳
##켰
##캠
##집
##력
##롬
##칼
##싸
##척
##뀌
##ㅎ
##준
##륙
##응
##외
##험
##총
##확
##또
##겸
##영
##냈
##씻
##뿌
##검
##꼭
##놤
##쌩
##쇼
##없
##곤
##황
##병
##법
##불
##촉
##빵
##권
##퀸
##됐
##놀
##홍
##별
##벤
##앙
##된
##렌
##써
##쉬
##골
##팟
##램
##닉
##땀
##옷
##윗
##름
##팀
##랫
##밭
##재
##엡
##꼼
##잘
##잡
##말
##캡
##령
##블
##퓨
##썸
##택
##곳
##허
##함
##춤
##승
##몰
##큰
##z
##숙
##학
##쁜
##큼
##록
##킨
##릭
##돠
##헥
##참
##썻
##틀
##므
##팬
##메
##렴
##런
##쳤
##광
##툼
##평
##콤
##삭
##류
##쪄
##냉
##설
##균
##략
##켓
##창
##밥
##펴
##썩
##뉴
##잉
##갔
##곽
##텔
##옌
##푹
##암
##룩
##받
##갖
##헤
##긔
##떡
##죽
##벽
##접
##슐
##좁
##럽
##농
##욱
##팠
##슨
##념
##빙
##끼
##냄
##났
##액
##릉
##쪽
##표
##젤
##븐
##붓
##콜
##꼐
##칫
##솔
##론
##율
##깔
##맘
##템
##초
##샘
##청
##퇴
##챌
##맥
##밤
##컷
##끈
##뚱
##푸
##럭
##찐
##q
##답
##줘
##페
##맙
##먼
##온
##효
##뜨
##곡
##졌
##겟
##넣
##렁
##변
##흐
##측
##득
##럴
##ㅅ
##얌
##똑
##딱
##쟝
##넷
##츄
##걱
##봇
##쯔
##숨
##춘
##귤
##봣
##곰
##넛
##맵
##섭
##팩
##콩
##ㅈ
##ㄴ
##뷰
##꽃
##태
##컨
##얗
##튼
##끔
##극
##앞
##납
##켈
##틴
##빠
##밍
##흔
##킬
##맨
##툴
##룸
##픈
##슴
##넌
##돼
##맹
##열
##랭
##엄
##킷
##뭐
##즐
##놓
##컴
##늘
##폼
##왁
##눌
##밴
##혔
##깐
##햄
##녁
##숲
##랍
##핸
##댄
##탁
##빈
##샐
##촌
##멋
##칡
##빼
##캉
##탱
##셀
##렉
##삽
##랬
##쬬
##투
##펭
##귄
##샷
##ㅊ
##ㅍ
##ㅌ
##쿤
##쯤
##넘
##밑
##갑
##탄
##찾
##갤
##쳇
##흘
##칵
##샌
##팁
##덩
##켄
##쉽
##김
##맛
##짱
##끊
##쏘
##축
##붙
##덕
##꾸
##닷
##돈
##텅
##쩌
##읺
##ㄱ
##롤
##탠
##딤
##북
##ㅇ
##왜
##랙
##멧
##굿
##끓
##늬
##엑
##웃
##잌
##폴
##몽
##첨
##펠
##뜰
##쇄
##희
##꼈
##왑
##춰
##찬
##씩
##낙
##횽
##결
##킹
##겅
##챠
##냐
##윈
##줏
##릇
##톤
##셉
##염
##풀
##엉
##떠
##랴
##닌
##듣
##근
##뎌
##폭
##혹
##묻
##놨
##멸
##넉
##옹
##닭
##볶
##뇨
##젠
##빔
##껑
##옵
##못
##짓
##끗
##릿
##뎡
##댔
##숍
##쨔
##쟌
##숫
##옮
##겼
##례
##휠
##뗏
##넹
##껴
##겐
##엽
##죵
##뻐
##잼
##j
##랄
##괴
##깃
##샵
##콧
##룹
##갯
##픽
##닫
##엠
##챙
##렬
##녹
##뜯
##빛
##딸
##땐
##엇
##뒤
##땡
##텃
##깥
##쨌
##렷
##랩
##슷
##붐
##숱
##펑
##왱
##떻
##흰
##팔
##앀
##뽐
##뎅
##뤄
##찮
##뒀
##흑
##믹
##쎄
##녕
##캅
##끝
##쿨
##뤼
##쥐
##숩
##섬
##욧
##뱅
##밖
##웬
##뇌
##뻑
##옥
##싹
##뚝
##꽂
##숯
##볍
##꿈
##냅
##닼
##쫄
##벗
##뢰
##칩
##샀
##논
##쉐
##∼
##햇
##밌
##괄
##툭
##롯
##십
##켠
##닙
##솟
##숏
##읽
##숄
##뽁
##흉
##낀
##쿵
##쩔
##톡
##펙
##값
##헐
##멤
##튀
##털
##눔
##썼
##셥
##낚
##쓸
##낼
##룰
##몇
##졋
##눠
##몬
##꼴
##붕
##둥
##덮
##헹
##굾
##톰
##낡
##갓
##캘
##둔
##푼
##젓
##잠
##겔
##껜
##쿼
##꽝
##꺽
##똥
##꾼
##땅
##높
##믄
##넥
##앗
##뜸
##핵
##묶
##튜
##캭
##혜
##쌍
##뿡
##촬
##뽑
##셋
##즙
##엿
##돋
##샴
##쉰
##찔
##릎
##캣
##닢
##싼
##듬
##옴
##꿔
##욤
##쇠
##왼
##욥
##줫
##홀
##줍
##뒷
##융
##듀
##헨
##룡
##쭉
##텟
##짤
##둠
##캔
##뚜
##쉘
##슝
##섀
##빚
##펀
##턴
##헿
##쿄
##솜
##빕
##깅
##됨
##젝
##팡
##갬
##헌
##셈
##칭
##읍
##젊
##릅
##륜
##핀
##뱀
##힣
##힌
##뻔
##혁
##넓
##뼈
##촘
##엌
##늦
##컥
##텍
##굽
##섹
##ㅃ
##첼
##갹
##닐
##긋
##찢
##땜
##밸
##냠
##됴
##쎼
##ㅂ
##깝
##줌
##쬐
##퍈
##뽀
##댐
##뛰
##쪼
##얏
##묘
##훈
##뻣
##쓴
##샥
##룽
##벡
##깟
##괜
##펜
##렐
##앤
##잭
##꿀
##랗
##닦
##놔
##됍
##멕
##옛
##앉
##긍
##웜
##씀
##낭
##쥽
##웅
##봅
##혈
##쪾
##갱
##쩍
##깜
##퉤
##셜
##됬
##됩
##몸
##헉
##넨
##넬
##씰
##숭
##썰
##씹
##샛
##뮨
##퓌
##엣
##잎
##걷
##펨
##펫
##낄
##욬
##풋
##빳
##앰
##퓸
##늙
##찜
##잣
##듐
##깊
##쭘
##돗
##싯
##쨩
##뜩
##덜
##듁
##롸
##쨍
##끌
##훨
##씬
##힐
##짧
##긁
##윽
##멀
##딛
##삿
##궈
##뼌
##휘
##떨
##벳
##겹
##둑
##뿜
##캬
##벨
##킁
##엥
##쌤
##꾀
##괌
##킴
##웰
##핏
##렛
##뮬
##턱
##흠
##밋
##쟉
##및
##텀
##ㄹ
##뎍
##펐
##듭
##걀
##짬
##뽕
##뇽
##겉
##켤
##덤
##뉘
##튕
##헬
##졸
##휀
##굼
##녜
##톈
##첩
##쟈
##탐
##탭
##렘
##겄
##긱
##됫
##팽
##냑
##텝
##덧
##삐
##랼
##녔
##껀
##쌓
##윙
##댕
##멘
##팜
##륨
##헀
##뒈
##퀄
##굳
##밟
##솨
##쫀
##껏
##ㅁ
##꿍
##팎
##꽁
##댈
##탓
##톨
##곱
##씌
##탯
##썬
##쮸
##핫
##줠
##앵
##숑
##탬
##빅
##퐁
##밝
##뜬
##톱
##딘
##퀘
##룻
##딥
##훼
##씽
##랠
##섰
##뎈
##뿍
##얘
##쭈
##틈
##튬
##딴
##겤
##믿
##젖
##닛
##뱉
##뚤
##옳
##윳
##흥
##빗
##쥑
##쉼
##첫
##믜
##큘
##팰
##낫
##겆
##옻
##잊
##뀰
##솥
##귈
##긿
##꽉
##넼
##뫄
##쪙
##뽜
##츤
##겊
##빡
##뭔
##꿰
##롥
##ㄺ
##헭
##죄
##윌
##틋
##닮
##촛
##젛
##슥
##붉
##떫
##댜
##팍
##욯
##쨋
##얇
##뷸
##쑴
##궐
##휩
##퉁
##댓
##몀
##돔
##쉴
##킥
##갼
##밪
##팝
##둡
##룬
##퀵
##뜽
##뻤
##쨜
##뇰
##뀩
##옇
##맑
##ㅉ
##멈
##읏
##깻
##횟
##쩐
##웍
##슘
##꽈
##뻥
##뷔
##얀
##쏟
##쩨
##쾌
##밗
##햐
##눅
##됏
##뭘
##뜀
##싣
##껐
##둣
##깎
##짹
##딕
##씁
##둬
##꾹
##쾰
##쁨
##꼇
##셰
##굵
##뎃
##즉
##흙
##겡
##쩡
##삘
##뮈
##놧
##꼌
##셸
##웹
##꽥
##뎀
##갘
##곺
##샨
##뻬
##잃
##밧
##떄
##즁
##껍
##샹
##홓
##땔
##즤
##볐
##훅
##놋
##챕
##셩
##짠
##덱
##웁
##볕
##앍
##챔
##빻
##솝
##잽
##곶
##낯
##곸
##옄
##켸
##죤
##뎁
##묽
##꼽
##쓔
##긎
##괭
##셑
##튤
##ㄻ
##헛
##귯
##갉
##깁
##닳
##뗌
##껌
##삶
##굶
##띵
##쫌
##핍
##앋
##랏
##쑥
##춥
##탔
##닿
##샬
##텡
##쁠
##틸
##뺴
##휜
##껄
##젯
##쥔
##짖
##뺐
##춧
##힙
##힑
##힝
##췌
##짘
##맷
##혐
##믈
##튠
##낱
##캄
##앨
##횡
##겪
##썯
##욜
##쵸
##솎
##뫃
##좔
##똬
##쏜
##찼
##뿅
##듈
##빴
##늠
##흤
##얹
##꿩
##춫
##얾
##핌
##턀
##퀼
##갠
##찝
##릐
##늡
##뒹
##렙
##췄
##꺅
##뭇
##엾
##헣
##릏
##뭄
##뀨
##깠
##땰
##륄
##왈
##쪘
##맺
##꽤
##쀼
##탆
##뚠
##폈
##쁩
##돟
##탤
##깈
##뮥
##첸
##훌
##쨰
##퍄
##쑤
##밉
##팻
##갰
##흣
##덥
##꿨
##ㅆ
##옶
##겜
##킼
##뿔
##쏩
##챱
##햅
##뾰
##퓔
##쐬
##뵙
##뗄
##땨
##짚
##쫠
##홋
##뺀
##먐
##펍
##뻘
##댱
##앓
##엤
##샜
##찻
##햿
##쒸
##먀
##찡
##꼿
##샅
##늗
##쉇
##깡
##쐐
##뗴
##쎈
##맴
##푀
##팥
##쌔
##헸
##쭐
##냇
##쇽
##킵
##뭉
##믇
##쿱
##늑
##셌
##컸
##믓
##쭙
##엨
##쏠
##옐
##쑵
##찹
##곁
##잤
##몪
##혓
##휄
##갸
##쌋
##짇
##숴
##얕
##짯
##돕
##씅
##낞
##홑
##녘
##왓
##댑
##낵
##콰
##삑
##웡
##섴
##깽
##넴
##툰
##슾
##갛
##넵
##렝
##벙
##멩
##훟
##뤠
##숟
##폿
##쫑
##벵
##탉
##햌
##헝
##벱
##팸
##딧
##퀏
##똡
##쫓
##킅
##쏙
##녠
##밙
##넝
##몹
##긓
##쓲
##슁
##쉨
##픠
##쫴
##퍽
##솬
##퀀
##챤
##돨
##뇬
##쥰
##쏭
##슙
##펩
##컹
##믐
##뭅
##팤
##눓
##핥
##섐
##챈
##슉
##빤
##켯
##푠
##홉
##깢
##럿
##셧
##뎄
##낳
##텁
##쩜
##쳔
##볘
##띨
##웟
##돵
##핳
##텨
##벚
##샸
##븬
##쌕
##훗
##샾
##횓
##쉑
##쫙
##흫
##븍
##힛
##헷
##꿉
##삥
##굥
##괸
##횐
##묜
##쭌
##헙
##팦
##썽
##촤
##띄
##숀
##윕
##붗
##퐄
##냔
##쳄
##늩
##얻
##쫃
##뺄
##툥
##먿
##팃
##뜌
##뱈
##쎌
##딪
##랲
##댝
##턷
##쨈
##윔
##뗘
##턓
##캥
##엊
##틍
##땈
##뾱
##뱔
##둉
##앴
##풒
##긑
##멱
##엷
##핬
##퇄
##렂
##뜹
##셍
##갇
##짭
##묭
##뤘
##뮐
##땩
##밈
##뵵
##퍅
##렫
##갭
##컫
##핮
##챘
##핺
##깉
##붑
##굣
##먄
##졘
##넙
##읭
##괘
##멨
##낰
##쟀
##쭛
##맣
##풰
##뵤
##츨
##떢
##콥
##싀
##젉
##첟
##큅
##쓱
##쿰
##떮
##몈
##쫍
##닺
##빰
##큠
##즇
##슺
##븝
##늍
##죻
##ㄲ
##맟
##픋
##뵈
##듨
##끽
##쟤
##궛
##픜
##챀
##홰
##듦
##쑝
##ㄳ
##톳
##땁
##퇌
##왤
##뉨
##괏
##껭
##텼
##훠
##눴
##얔
##랔
##궤
##씐
##눗
##홥
##폄
##쌜
##떵
##꺾
##쥴
##킈
##뭏
##큭
##껫
##씸
##썅
##짛
##힉
##쌉
##젱
##덛
##쮜
##귿
##웻
##츌
##좆
##핰
##햡
##뗵
##츰
##뎟
##씯
##뚬
##캇
##뀐
##썪
##뢍
##놉
##햏
##륿
##퍀
##똘
##섶
##궃
##짙
##쨘
##콸
##륹
##촐
##땍
##띾
##볓
##돜
##췟
##끙
##눼
##뱆
##떈
##쒀
##씼
##쌌
##렼
##훔
##꼰
##떴
##퓰
##숌
##듕
##튭
##곈
##윸
##ㅀ
##멶
##짗
##뀔
##윷
##붇
##섟
##읔
##몌
##쏴
##줔
##켑
##뱌
##랸
##넒
##쐈
##뤽
##큽
##늉
##엒
##좇
##쳬
##읎
##쵹
##믾
##얐
##핡
##낑
##쾅
##눞
##홧
##궜
##훙
##낍
##윰
##쥥
##둿
##눙
##듶
##쁀
##쾡
##늼
##죔
##듹
##곗
##햤
##뽰
##뚀
##밨
##ㄿ
##랃
##낏
##댯
##앟
##캿
##깬
##럖
##쉥
##봬
##촥
##읗
##맬
##퐝
##얜
##욮
##킄
##춍
##엮
##톼
##삔
##듑
##몐
##닠
##쟎
##휨
##듲
##옒
##꺟
##덟
##짦
##똔
##뙇
##뽈
##뚯
##뭩
##뭬
##엍
##뻗
##쟠
##쥠
##맠
##츈
##롄
##띈
##펼
##쳑
##옿
##넋
##븀
##됙
##훤
##싄
##곘
##렃
##졔
##칰
##얍
##듴
##쏫
##솓
##쥤
##싺
##먘
##슭
##궄
##잦
##깄
##쑬
##겧
##쌰
##졍
##핼
##먜
##슌
##붹
##핟
##횔
##엏
##엎
##롴
##좃
##햬
##껰
##쫛
##잨
##뮴
##펏
##홛
##홙
##죱
##땟
##쉣
##믕
##떙
##쩝
##볏
##춈
##풱
##뀜
##앜
##슼
##솄
##녺
##숮
##뤗
##돤
##젬
##첵
##콴
##쉔
##닏
##룝
##뛸
##즠
##슛
##빽
##몄
##쭁
##뗐
##맸
##켐
##휭
##앚
##풉
##곪
##굠
##왘
##뻈
##켁
##괞
##뺑
##띤
##탸
##큨
##폽
##쪗
##휙
##댣
##잴
##셕
##젷
##챦
##뫀
##끠
##묑
##앎
##뙤
##곜
##떳
##끕
##촵
##핖
##갗
##큔
##빱
##컻
##닽
##껨
##맄
##룜
##촣
##읻
##벞
##뗑
##틑
##찿
##귶
##귝
##퓩
##뽠
##빹
##욌
##곻
##챂
##뇹
##윅
##팧
##욭
##듇
##텆
##뵛
##깸
##픕
##늣
##댭
##젹
##졒
##셤
##봠
##킫
##긩
##툳
##떽
##챻
##챟
##챞
##쳘
##잏
##땠
##짼
##캌
##롷
##쳥
##ㄶ
##덬
##먕
##읕
##땃
##뷘
##겋
##웽
##삳
##뉜
##옸
##빋
##뚸
##밐
##첞
##뤈
##쌨
##귭
##맂
##햔
##줒
##묙
##츳
##젔
##얽
##샞
##쯸
##멵
##빧
##얶
##썜
##툽
##좦
##쎅
##싷
##흩
##샇
##뽄
##텦
##좡
##뱄
##홱
##옅
##쬰
##챡
##꿇
##챃
##걋
##볌
##텬
##뭍
##쫒
##깤
##씈
##됄
##둗
##옙
##꿋
##쫗
##꿧
##돛
##뼛
##윹
##좱
##낪
##뼘
##뉼
##웩
##갚
##넜
##솅
##븥
##쳣
##옫
##읊
##팋
##앸
##쵀
##쭝
##넫
##췬
##엙
##볻
##튿
##쏵
##쑹
##ㄵ
##읉
##숖
##켬
##셒
##똗
##긜
##겷
##쎔
##컾
##쎠
##쓋
##읷
##슫
##뉸
##렄
##냣
##튈
##롹
##밯
##흨
##줈
##팹
##죸
##틐
##겝
##롼
##앳
##읶
##퉬
##츕
##듵
##땝
##뚕
##뱡
##끛
##럈
##겻
##뙈
##웆
##햠
##넸
##휑
##괍
##퉈
##뎆
##쪌
##맜
##덯
##쎗
##쫜
##낲
##졷
##돚
##붖
##똭
##쒼
##툑
##ㅄ
##옂
##쿙
##뺨
##즹
##멓
##헞
##듸
##푯
##쟛
##밎
##틔
##곃
##짌
##읨
##냌
##얷
##읃
##싑
##끚
##왛
##맀
##쥉
##솼
##헴
##뮌
##컘
##깹
##맏
##욚
##쥼
##짊
##큡
##삮
##똣
##짅
##잫
##샙
##짋
##랮
##쌱
##삗
##꺠
##쿸
##쿳
##벰
##흗
##츅
##짢
##옺
##뗸
##귓
##겍
##싲
##웧
##욝
##먁
##롰
##튄
##눤
##뎬
##욛
##봨
##똴
##륑
##뫅
##뒨
##둩
##쫘
##랻
##녓
##쐰
##롓
##뵨
##뫼
##멬
##줗
##걔
##븟
##쨥
##뷴
##횹
##켙
##헠
##넚
##엫
##댉
##섁
##웤
##챨
##횬
##릌
##쉪
##늪
##렜
##펺
##퐈
##쀍
##딨
##닜
##츦
##춴
##놰
##퐉
##뒬
##햊
##궅
##벶
##뵜
##즣
##땋
##쏨
##렠
##뺙
##깓
##쉡
##럐
##뭌
##귱
##쉒
##쒜
##쨕
##잿
##쯱
##컄
##핶
##찎
##죙
##쟣
##됵
##쵼
##첳
##쇳
##굑
##뱨
##룔
##랖
##쥣
##좊
##좭
##텄
##렿
##럅
##쯈
##뎋
##귣
##싰
##퀠
##벟
##멥
##븡
##빝
##왝
##잗
##멎
##즛
##앶
##싳
##엧
##꿎
##놥
##뚭
##힜
##듼
##랰
##꼣
##솤
##휍
##쑨
##뒇
##붘
##땽
##쵝
##슽
##눀
##댠
##샏
##푿
##졓
##춉
##궂
##븨
##톌
##츛
##늎
##컅
##긒
##엪
##쩄
##큣
##찅
##뤀
##쑈
##럲
##맆
##셓
##쬡
##깩
##멊
##봡
##뎐
##뭣
##멛
##줂
##줃
##깆
##졎
##갵
##뱍
##잰
##됒
##얃
##툐
##냨
##곕
##싕
##닻
##봥
##벉
##큄
##륰
##븜
##샂
##랕
##풂
##섲
##휼
##흏
##픙
##쎴
##푱
##킺
##뽝
##쁙
##늕
##씃
##큥
##휸
##읙
##줭
##텥
##갲
##뿟
##딙
##켔
##쿜
##죳
##겯
##껼
##궇
##눟
##읋
##켱
##혠
##셴
##앝
##퓽
##앺
##ㄽ
##씜
##퐨
##촨
##뺭
##쯰
##읜
##쉿
##쐴
##빘
##쓩
##읾
##싞
##튝
##녑
##헵
##젋
##뼉
##콱
##괔
##탹
##떰
##겎
##봘
##쉭
##멉
##흇
##푷
##혛
##낔
##틃
##꺗
##젭
##돸
##훽
##깧
##끅
##떺
##귐
##륏
##힗
##옝
##몟
##곯
##겒
##삠
##싴
##늨
##웉
##뱁
##붸
##핝
##깣
##햑
##긷
##첬
##팈
##갿
##됭
##쪵
##쯥
##럳
##벖
##윾
##줴
##앐
##텧
##탙
##캤
##뇩
##뱐
##긻
##땬
##륀
##죴
##즢
##셆
##쨀
##켭
##붜
##욪
##퓡
##늓
##햫
##쥘
##듓
##섷
##헁
##붂
##쎃
##꼍
##딫
##왃
##넁
##쓤
##욖
##듧
##웕
##얺
##깰
##뭎
##겈
##쳡
##벋
##읈
##핛
##뿨
##짰
##귗
##쫭
##ㄾ
##켝
##넏
##덷
##봏
##쫩
##훕
##윻
##꺀
##홤
##뢈
##쨐
##닸
##댘
##쾀
##즨
##묺
##륌
##쁍
##헺
##텽
##럔
##웦
##퉅
##뷜
##뵐
##뉍
##텈
##촏
##밓
##얨
##퓹
##켘
##핓
##쳉
##챗
##폇
##걨
##얖
##싿
##귕
##솁
##뎠
##앧
##곷
##홬
##꽅
##잋
##쨉
##텊
##둻
##줓
##댸
##횸
##씟
##뺵
##뿁
##졐
##젴
##윺
##픂
##젇
##꿏
##몁
##딲
##툔
##퀐
##륩
##왐
##텯
##띡
##낧
##푤
##밁
##홇
##뷁
##땄
##튐
##좜
##츼
##됌
##뺌
##촙
##킽
##륲
##흄
##뾫
##굯
##룐
##젅
##뛴
##짴
##껃
##흋
##춱
##곂
##돳
##폔
##칟
##즂
##쌘
##랒
##랳
##즏
##퇘
##엦
##볜
##얬
##덖
##셐
##꾜
##뎧
##뽱
##깼
##뽇
##섡
##좩
##몆
##쟙
##쭸
##럤
##햣
##챵
##닞
##풹
##삲
##뿝
##봍
##퍕
##댬
##띱
##뤅
##삯
##믱
##섳
##츸
##쿹
##젆
##띧
##싓
##됟
##웖
##벜
##꽄
##룤
##얭
##긐
##렊
##꼳
##좝
##랝
##앖
##딮
##츋
##쩬
##츙
##귷
##멷
##칲
##냏
##줮
##읒
##쾨
##뗀
##퓻
##럄
##뺸
##뎨
##캰
##녈
##엗
##솊
##컁
##쯩
##뉩
##펵
##윞
##녤
##잆
##펰
##릳
##혚
##쟨
##핕
##딷
##훚
##훋
##뉫
##젏
##섣
##죈
##뜜
##됀
##쩎
##쉈
##솧
##왬
##쳌
##봌
##굄
##씇
##홐
##띔
##뭋
##듷
##늅
##탖
##꺌
##곀
##륻
##쥭
##썍
##뭡
##귘
##컯
##냘
##텇
##괨
##팒
##뚞
##잀
##죰
##죡
##욵
##힠
##죺
##둨
##똫
##풘
##ㄼ
##쉉
##칀
##잜
##뤤
##봁
##춚
##훑
##땧
##횝
##녂
##렦
##걕
##밞
##옜
##녇
##틓
##핱
##겿
##륽
##줜
##놩
##뫙
##윱
##낟
##뽂
##퇀
##젰
##픃
##묹
##졈
##삧
##됸
##뭊
##봈
##몯
##싵
##쯉
##쀽
##롣
##덍
##톻
##뎔
##섦
##뫈
##좨
##풔
##귬
##퉷
##닾
##맍
##똠
##팼
##눵
##놕
##읅
##섵
##곌
##듄
##댴
##켕
##끆
##풜
##멃
##옼
##몾
##믚
##넿
##윘
##졉
##싥
##웥
##굷
##읁
##둰
##궭
##뫠
##앏
##읹
##잍
##엶
##얊
##뉭
##뮹
##듫
##걜
##퓟
##굡
##흿
##띰
##룀
##콭
##뻇
##뗼
##퀜
##젣
##촪
##텉
##쪹
##랂
##롲
##돇
##봔
##퍙
##뢔
##뗠
##몉
##쎀
##닊
##봑
##먻
##뼜
##졲
##톷
##횰
##좈
##믁
##딬
##핪
##뤌
##럑
##쾃
##겢
##큿
##끾
##뺒
##힢
##슶
##쏼
##턉
##귁
##웝
##갣
##둫
##쯘
##읮
##싖
##솦
##뤂
##몃
##햨
##캑
##놯
##힡
##쟐
##덫
##꽆
##쬔
##윧
##푝
##눚
##뽘
##븉
##칞
##뫘
##뵘
##솢
##벴
##졀
##슏
##밣
##렞
##봫
##톁
##쟏
##궉
##뫽
##닯
##뉠
##핣
##굻
##놜
##뙜
##쓥
##핚
##쯕
##빸
##쫚
##돻
##딹
##븃
##읓
##컿
##띁
##쨱
##솰
##솹
##쥡
##귑
##텤
##춀
##긧
##홗
##뱣
##뱥
##릮
##욨
##긂
##뻰
##쩅
##깵
##짉
##룅
##꼄
##싈
##돆
##굇
##슿
##쵤
##겣
##퉆
##솠
##틉
##퉃
##숼
##솀
##갂
##걘
##녖
##얒
##읖
##큉
##뮽
##뜷
##뀟
##읫
##읠
##뻡
##밬
##늿
##굔
##읩
##쯧
##녿
##먺
##뵥
##숔
##롶
##쥨
##꽐
##콬
##퉜
##췤
##눨
##깪
##촠
##햝
##껕
##줕
##춗
##칮
##찓
##찟
##릡
##룓
##턍
##굲
##쑉
##꿕
##쨓
##읿
##쪈
##섧
##겚
##떔
##쒕
##괁
##둦
##겦
##죌
##삣
##읐
##쪕
##꿴
##싨
##쌇
##빶
##췽
##욺
##릍
##펖
##욷
##샄
##즄
##짂
##딯
##럇
##놐
##섮
##즬
##뤡
##맼
##뉵
##뤨
##꼥
##룾
##뭃
##곅
##얋
##톺
##짆
##욉
##츜
##츝
##눹
##꾳
##툇
##갺
##웑
##닟
##쟘
##욈
##칧
##뵌
##싪
##맢
##넻
##칑
##훓
##튽
##댷
##찧
##톽
##쳋
##죃
##욫
##갴
##냡
##뺍
##녱
##뺼
##췃
##봊
##벎
##끜
##뉑
##쩠
##짣
##큳
##옾
##츔
##갅
##넽
##뻿
##늌
##솽
##늰
##쬘
##먑
##숸
##굦
##봒
##샠
##굗
##릋
##뿃
##퐌
##쟜
##찷
##엃
##긃
##섕
##퀭
##웄
##챳
##깋
##컭
##뤙
##맫
##톄
##읪
##텰
##옣
##쎕
##뻒
##캎
##욣
##뜁
##옭
##떱
##큩
##벆
##셛
##욶
##왹
##쮼
##톧
##튺
##낐
##곙
##돐
##홯
##샒
##멐
##왯
##쌎
##햘
##웎
##늫
##훜
##핧
##붰
##쨎
##듛
##밷
##츱
##닲
##즥
##뵀
##쬑
##줨
##쏸
##웂
##랟
##쓕
##킇
##쁮
##긘
##흴
##룟
##죨
##잚
##셯
##좐
##춛
##픍
##뢳
##둟
##퍠
##쟂
##룿
##섥
##얅
##럕
##귺
##헏
##홒
##럮
##꺙
##섿
##뻭
##춡
##휫
##뻫
##귻
##잂
##쬽
##핔
##윪
##핃
##넠
##쎘
##쩰
##쮹
##횻
##샼
##룍
##갃
##뎇
##뫌
##얆
##폋
##엞
##묠
##벝
##홪
##캴
##릠
##뗫
##걈
##흽
##탞
##뵹
##힁
##햎
##놎
##젶
##쏀
##뇔
##쇱
##뺘
##쭬
##뱓
##핻
##쫅
##웚
##췻
##껬
##슂
##읆
##렻
##럸
##썖
##켛
##븣
##멮
##펔
##첯
##짔
##겂
##럾
##헡
##샣
##삡
##걌
##듰
##잧
##돞
##턏
##젂
##뢉
##덪
##즞
##쥿
##뷱
##뻉
##잛
##믽
##렍
##놘
##냬
##픨
##촟
##쳫
##퍞
##탰
##쾈
##좍
##씡
##읬
##꼉
##좠
##꾺
##됮
##퍟
##뚥
##듳
##쬠
##긹
##킌
##멪
##웈
##겫
##찪
##륫
##턑
##쓺
##쉎
##쁑
##튱
##쩓
##얳
##걹
##춌
##펃
##꼔
##웋
##릶
##탘
##랆
##쇤
##쒓
##룢
##옽
##뎉
##룧
##맔
##뭁
##넞
##몋
##헼
##벧
##뽓
##놑
##긌
##뜐
##덨
##뇻
##뢴
##쎆
##둏
##껠
##뼤
##슻
##뎊
##놬
##붅
##갌
##믙
##붆
##삷
##욀
##땤
##샆
##곴
##뷋
##옉
##눝
##좽
##셫
##탇
##읂
##췸
##슀
##넊
##쩧
##흼
##뼁
##쑦
##짫
##풐
##멌
##츗
##먈
##샋
##쐉
##뻠
##혘
##쿈
##욾
##꽊
##륍
##풕
##츷
##턕
##굫
##쫏
##븅
##똒
##낻
##푄
##혤
##롑
##겾
##볽
##퍗
##퓬
##쾩
##뀝
##녴
##퇍
##돱
##묨
##퐐
##픝
##궝
##엋
##쇟
##벛
##숰
##챰
##꼅
##쩻
##쩀
##쩖
##줐
##엯
##떪
##휵
##걳
##쎤
##쎂
##깞
##탴
##늚
##볾
##칻
##뇠
##뢀
##픅
##뻨
##촹
##쵭
##뛔
##닩
##뭥
##쇰
##륾
##긬
##욐
##뭨
##뉏
##춣
##꿑
##뱩
##댛
##얙
##젘
##췅
##앆
##팓
##렅
##훃
##잪
##캋
##뢸
##릱
##떀
##탣
##엳
##돘
##댇
##셬
##꺆
##봴
##굌
##웸
##빢
##탍
##넢
##젲
##힏
##꺵
##늧
##븕
##햩
##핷
##둴
##왴
##볔
##똦
##뚦
##픗
##혙
##맇
##혱
##붛
##쭿
##퀑
##삵
##욿
##돰
##봽
##뜡
##췩
##쒈
##팊
##숳
##쳩
##톹
##뒙
##굤
##뗬
##컽
##퐙
##뷷
##뽞
##걑
##쳦
##쳗
##돓
##쪨
##넑
##둓
##쏍
##줁
##쉅
##겥
##젿
##꽇
##퐅
##뤃
##톔
##묀
##헑
##킂
##핤
##젗
##렾
##귡
##춮
##챷
##댖
##뤵
##꼲
##닡
##흪
##퀫
##셪
##큇
##댙
##깇
##멏
##턎
##롵
##낢
##뱧
##눋
##삤
##줰
##좸
##쓈
##컀
##횃
##뒥
##쳨
##흒
##줙
##쎙
##꿘
##쩟
##뿥
##픟
##묏
##캏
##칳
##쟄
##좉
##찯
##뚧
##쓷
##켴
##츽
##긊
##귴
##횩
##똨
##빞
##욍
##겵
##봗
##뜍
##랓
##껸
##넟
##웣
##쓹
##궹
##쒝
##탶
##탲
##괐
##쁟
##뽤
##댲
##죧
##췰
##맿
##릘
##꽌
##퐤
##룠
##뎜
##낣
##넡
##렆
##뇮
##윶
##짃
##읰
##뤱
##옘
##봦
##쌧
##윀
##렣
##좯
##썡
##딍
##궀
##픞
##귵
##흦
##똧
##죾
##힟
##딖
##묄
##흌
##탛
##팇
##컇
##겓
##옃
##밠
##췆
##괵
##븰
##딋
##롞
##넎
##쪅
##뜾
##듘
##냊
##콯
##맃
##셖
##홴
##쒘
##섺
##굚
##틂
##댚
##쁌
##촼
##흧
##붋
##쳅
##쿘
##뗔
##늖
##쭄
##뙁
##줸
##쩃
##긏
##덞
##쿻
##붚
##텋
##닰
##넀
##헢
##슦
##쌥
##럷
##튵
##쁭
##끘
##픓
##끰
##꾤
##땓
##잳
##쭨
##맅
##벹
##틏
##곬
##훀
##찣
##늤
##뚣
##볋
##륟
##훛
##띙
##몿
##퐃
##룃
##띌
##괬
##뜅
##뢐
##앁
##쮀
##죹
##뒺
##긺
##럥
##숛
##튁
##춭
##냗
##릃
##죕
##냤
##윯
##껓
##뇾
##캨
##큍
##혬
##쬲
##잟
##뫗
##톸
##콋
##뾲
##룯
##춬
##돎
##녛
##댤
##뮘
##갏
##깗
##헜
##랅
##댞
##옞
##쁫
##쿅
##썀
##핗
##쯀
##틕
##뗭
##씆
##뀡
##칯
##뾸
##웓
##끎
##븁
##씪
##넔
##됗
##얂
##텻
##힇
##겇
##짞
##졏
##졶
##챸
##쒔
##뭴
##빍
##좄
##뢌
##홖
##돝
##푶
##쮝
##걐
##뮛
##쪠
##죷
##쑷
##뀽
##쨬
##틘
##뀍
##렏
##긇
##쪔
##냎
##펓
##떘
##밮
##퓜
##귔
##틤
##쟇
##땸
##훞
##풏
##솸
##뎥
##쑌
##옦
##뎦
##끍
##롟
##졩
##맻
##젵
##젚
##왇
##볷
##뿠
##뀅
##텩
##짪
##쎝
##췐
##핲
##챴
##븤
##엵
##밇
##닪
##톩
##먤
##굅
##엱
##윿
##뮦
##녾
##빜
##뽥
##콛
##롳
##뤔
##듡
##콮
##틷
##턋
##컼
##킿
##퓐
##붏
##끋
##숗
##갷
##쓍
##씋
##멂
##짏
##쒤
##횄
##홏
##웊
##욲
##믠
##퐂
##줝
##밳
##븘
##콌
##쳰
##캽
##촋
##쁴
##슩
##쥲
##싐
##뀹
##삻
##릈
##캦
##썃
##엓
##뒝
##됑
##룣
##벍
##덣
##폍
##췈
##탼
##쇙
##웗
##춋
##뮷
##뒁
##뀠
##쓖
##췍
##괝
##촿
##붱
##뤁
##챼
##뿽
##릥
##롁
##샽
##짲
##낛
##릊
##챊
##옠
##뢋
##곩
##캍
##껩
##븓
##쾐
##엩
##굸
##렺
##퐜
##븧
##눱
##벸
##퇫
##앛
##딀
##촡
##곹
##펲
##퐛
##줵
##걉
##롕
##벊
##뿎
##튑
##먝
##롈
##숃
##췁
##괼
##쯜
##쭥
##둭
##멑
##끁
##얓
##럱
##돏
##윜
##꾾
##웇
##댗
##빆
##눰
##헓
##홎
##벾
##굮
##벐
##딭
##퍋
##낤
##걁
##뱢
##쟞
##뱝
##궷
##딝
##뇆
##읇
##뢨
##뎽
##뜪
##힄
##걵
##쨧
##늊
##찫
##젺
##쀠
##첲
##훉
##꿓
##뻖
##롔
##럌
##듿
##앒
##켡
##챜
##봆
##츊
##엲
##넾
##끵
##섈
##됰
##낝
##쥳
##녃
##쀄
##셱
##캊
##꿐
##덙
##웪
##셎
##앦
##둵
##늴
##꽜
##꺛
##웢
##뜼
##괙
##밫
##붵
##굘
##맗
##썐
##긅
##뛱
##싢
##찱
##뛌
##븈
##븽
##졳
##즟
##쉊
##뷩
##뼐
##븻
##좥
##툠
##륺
##퍂
##훵
##좟
##먾
##쨟
##닧
##묰
##궆
##쥅
##긕
##끡
##넗
##벘
##넖
##쨨
##뮾
##쎱
##춸
##뮺
##샊
##뚁
##뺃
##앿
##얠
##섻
##땢
##퉹
##릵
##앩
##꼮
##찤
##갞
##튾
##믝
##욳
##짥
##폣
##퇶
##퍛
##띃
##쬎
##랯
##쎵
##줆
##킾
##섫
##샃
##냫
##꼊
##긶
##겴
##륮
##륱
##쏬
##눜
##꺨
##놃
##앹
##쟹
##뇐
##덝
##혇
##쭊
##묾
##뎝
##뇟
##왂
##렡
##껟
##괂
##럋
##춐
##빩
##슸
##뿓
##탂
##뼝
##빫
##캈
##콪
##붼
##쭵
##뒴
##턔
##믛
##먙
##먋
##휏
##띕
##꽨
##흝
##푈
##잩
##닂
##늭
##밂
##즼
##뿀
##뵬
##뻴
##뤳
##듥
##좢
##빇
##팉
##씾
##폅
##툶
##걓
##뜝
##믘
##쟸
##튓
##췾
##꽹
##놌
##뿰
##멭
##쭠
##엻
##눳
##쒹
##귽
##쇅
##닑
##륶
##촴
##꺉
##췀
##줳
##됻
##늒
##뭓
##왰
##묫
##첱
##꺘
##뺜
##욋
##렧
##얿
##츺
##렶
##츞
##쟃
##둼
##벻
##켲
##릾
##뒸
##툿
##녙
##훝
##꿅
##킭
##솩
##젙
##먓
##쑀
##뵞
##웒
##벫
##듩
##춪
##쿽
##꺳
##캪
##퇑
##좫
##햛
##퍡
##윝
##걼
##뵷
##믖
##릣
##킸
##픛
##뜃
##슣
##샢
##돍
##싟
##걖
##싁
##뛬
##쭭
##뷈
##쫟
##켷
##촊
##첮
##궘
##걿
##뢧
##첰
##괃
##럏
##죶
##윟
##틭
##꿜
##곢
##푬
##걲
##똻
##똿
##홚
##탷
##붔
##댵
##쓿
##얩
##챧
##룦
##껙
##닁
##즷
##냼
##슠
##힞
##혆
##찭
##폘
##돴
##퉥
##슟
##죿
##퐆
##잶
##슞
##졨
##띿
##챋
##뿩
##늇
##앢
##팆
##뤸
##싮
##웛
##낒
##켵
##늏
##맽
##욼
##괺
##탿
##갋
##릔
##쳠
##뽖
##넺
##꺈
##숞
##흞
##됳
##셚
##뻼
##퀕
##듞
##윢
##떧
##쥫
##뀸
##쩘
##킘
##햰
##쒯
##렋
##퀌
##눃
##닣
##춯
##욗
##끟
##쁝
##싦
##뭭
##뫟
##뵉
##븩
##숢
##쭹
##풑
##뉔
##럗
##죗
##빾
##꾁
##킆
##쌴
##쌛
##먆
##놂
##챶
##푳
##틧
##쌂
##쌐
##톶
##퀙
##휲
##혻
##껒
##쎾
##욎
##벩
##둚
##쿧
##딈
##퇸
##곾
##튷
##잙
##솃
##푭
##럶
##깒
##탚
##믻
##펹
##몊
##붠
##썾
##쳈
##꽀
##앻
##겺
##퍃
##눛
##엕
##훡
##퍔
##꺚
##쎳
##웱
##쁼
##헫
##갊
##뷕
##롐
##묌
##슧
##뭰
##츃
##슢
##쯨
##큑
##겮
##숒
##헗
##햋
##뱜
##꺍
##볃
##뮫
##쯍
##츶
##얎
##뚑
##듢
##볠
##폡
##챛
##럠
##냧
##둙
##돡
##쮱
##딳
##갶
##돊
##섪
##툡
##퇼
##샫
##쨴
##봰
##뽔
##놏
##뽛
##팏
##뽯
##샮
##빎
##쨤
##겱
##꿁
##쏰
##땥
##삸
##롮
##줅
##콨
##풓
##됔
##끤
##짵
##숵
##캀
##떯
##츀
##꺜
##쿷
##쾔
##떾
##꾕
##탅
##냍
##쿗
##썌
##쮠
##륯
##냩
##톃
##꺰
##뭈
##쓐
##띳
##옪
##쫤
##냒
##뼙
##핢
##팯
##뷥
##줋
##쩢
##졑
##뉌
##텓
##럯
##앃
##쬭
##툩
##킐
##쓉
##겳
##횤
##욞
##릷
##껵
##겙
##삉
##홨
##탗
##옧
##땉
##텑
##짮
##쇡
##쵠
##썋
##퉇
##팣
##쫂
##숕
##귛
##꺝
##뤕
##뮭
##뱟
##췹
##쮕
##냦
##룁
##꺂
##뤰
##떸
##첝
##낗
##쿔
##틒
##잁
##삺
##뀀
##혰
##틩
##푕
##덦
##횯
##틳
##솘
##빟
##췼
##괩
##팄
##퐇
##쁄
##놇
##툄
##휳
##긼
##풩
##솣
##첛
##냿
##핯
##쬥
##묩
##쳧
##맒
##룱
##엀
##휌
##둇
##혿
##뿛
##괠
##믤
##굈
##켣
##죅
##픿
##줼
##튶
##긤
##펕
##궬
##챁
##쾁
##촞
##칬
##폑
##묳
##먽
##팢
##닋
##쎽
##퉐
##켞
##훻
##꿱
##퉄
##쉠
##줖
##섄
##붴
##뉰
##쎰
##옲
##샺
##쓜
##햗
##귖
##꽛
##즴
##삨
##좂
##닄
##솏
##륐
##킠
##냋
##밲
##퍝
##굪
##슮
##몼
##턺
##숡
##칄
##첢
##섢
##꾐
##칱
##뎢
##퐘
##뫁
##쪤
##젨
##붍
##픰
##횅
##퍌
##괮
##굎
##싻
##왚
##곲
##듚
##깾
##롫
##줚
##폏
##숐
##흊
##핦
##뱕
##씝
##묿
##깦
##멒
##늳
##찦
##랱
##멫
##뎓
##펻
##쨖
##쐼
##릫
##뺩
##먗
##릯
##샦
##쭻
##뒌
##곮
##쀨
##뱋
##쭏
##쇈
##띻
##폯
##퓿
##흖
##꾲
##곟
##닎
##븞
##뒛
##됼
##쒰
##껖
##릲
##졺
##괫
##콫
##뗍
##뼡
##깖
##슄
##쉄
##찴
##꺊
##돽
##뺠
##렳
##흓
##닶
##럆
##먛
##슆
##킝
##흛
##씉
##봎
##맊
##끨
##쐑
##뗨
##쒑
##닗
##슊
##뭗
##꾿
##혯
##쵳
##햍
##쉗
##뤧
##믆
##읟
##쓼
##굊
##흢
##랚
##괗
##둊
##껶
##봋
##긵
##밦
##찳
##꺴
##쎜
##쉾
##핞
##캩
##씤
##쏱
##쒠
##뢩
##쵱
##뗜
##뜳
##윋
##뜿
##쉜
##튣
##꿌
##똰
##믗
##쉕
##듖
##닇
##솕
##뉻
##샡
##묷
##푁
##퓈
##볗
##펱
##뒑
##폌
##쵯
##쬿
##칢
##겭
##좧
##뒵
##뫕
##쨏
##칌
##괰
##앑
##펳
##혦
##귾
##홮
##욹
##챹
##쾬
##헮
##궨
##뵁
##꼤
##톢
##퍜
##뷹
##캃
##홁
##줩
##뾔
##췔
##긄
##멯
##꽣
##튻
##홣
##슅
##볖
##덚
##괒
##춞
##둅
##슡
##쳴
##휻
##튴
##튳
##퓾
##짺
##햙
##궴
##궸
##쌸
##앾
##렟
##즵
##탵
##쪜
##둮
##쩗
##뾴
##훍
##밒
##뮵
##딿
##첀
##껳
##볒
##몴
##헟
##띸
##슳
##녅
##볅
##꺔
##쏄
##걺
##썷
##걏
##틜
##꺖
##쳒
##뇜
##췡
##뽬
##덗
##숓
##죚
##녗
##졜
##챺
##삒
##뼏
##슯
##꾭
##뷉
##윥
##둒
##뭠
##훱
##럻
##뮝
##픁
##퉂
##퍁
##쮭
##젳
##핐
##팕
##뇯
##긪
##웯
##뀬
##귲
##푲
##몮
##긛
##쑐
##릑
##횾
##꺡
##짷
##뷧
##쀾
##뻩
##쥇
##흭
##릸
##욽
##궞
##셮
##엢
##돒
##촑
##뛷
##껔
##왖
##쒱
##씭
##윦
##헚
##갆
##뇡
##쬣
##샟
##옯
##둄
##멁
##녚
##폠
##쮈
##쏳
##밚
##쇨
##툅
##씍
##풸
##븢
##뽚
##쿌
##틊
##팚
##쉌
##럣
##럊
##븯
##씊
##꿥
##꽠
##벷
##퀍
##밡
##쿺
##릂
##꽦
##맾
##찗
##칔
##킰
##슲
##봭
##씄
##앂
##좎
##둧
##앣
##팾
##쬮
##덭
##햦
##챚
##혖
##쮬
##햪
##켇
##켗
##퉨
##뚄
##쏯
##믺
##즡
##삾
##콦
##밊
##땣
##왙
##횜
##엜
##몔
##캫
##샿
##쬼
##폳
##놁
##맚
##왿
##긥
##돩
##뭤
##쩽
##턘
##큗
##엹
##킃
##볈
##똮
##붌
##냪
##똽
##녯
##뉄
##뱇
##붬
##햧
##긲
##쩩
##삱
##혭
##꺤
##툉
##륷
##혾
##퓅
##얉
##읳
##궥
##왅
##슋
##괻
##쎨
##츟
##옢
##쟴
##뇝
##툻
##닍
##쀡
##닚
##큶
##칽
##쑫
##듟
##웼
##끉
##뒠
##럙
##쟆
##냛
##룪
##퉌
##봃
##곥
##홂
##펗
##뿧
##벺
##횢
##깯
##뙨
##픀
##쐄
##잒
##흅
##뀪
##즆
##쁱
##뎸
##렢
##믑
##쓘
##춠
##잓
##쩸
##꿂
##좬
##앇
##즑
##눂
##킧
##쓵
##콙
##씔
##뷍
##쑻
##퇵
##픤
##풴
##꾬
##쵁
##됢
##컈
##랋
##붤
##헲
##춏
##픵
##댥
##룈
##쭴
##쪟
##쓻
##캆
##깛
##썲
##뿼
##셭
##혗
##뽭
##쥄
##떃
##귳
##팖
##솛
##얫
##롢
##뺶
##홅
##븦
##픐
##텢
##녆
##혅
##릀
##뺗
##훎
##꺕
##깕
##쯪
##솻
##큵
##믂
##뢘
##쯴
##흍
##컶
##딺
##뭫
##묮
##첧
##딉
##짍
##붭
##툗
##봂
##뿬
##껗
##앲
##빉
##쉤
##걾
##쐅
##텂
##깂
##뻄
##뭀
##뷀
##췜
##탟
##홝
##낃
##쬴
##폮
##핋
##쨸
##쮓
##궮
##뀻
##뗙
##쓑
##콀
##떦
##픚
##숬
##콐
##괟
##쓀
##큌
##쑊
##뢥
##틎
##퇗
##쇗
##쌑
##믯
##먠
##뀁
##쵄
##뜔
##큻
##쾍
##잢
##셂
##덢
##몲
##볹
##빂
##쯋
##혲
##쫔
##뮼
##믅
##셙
##잕
##렮
##걎
##힒
##쵴
##쌒
##훁
##긯
##폊
##왆
##뽷
##쳊
##맖
##뛟
##챝
##똼
##큹
##돖
##싩
##뒘
##먇
##춝
##쐇
##롘
##즋
##곚
##뷮
##뼨
##츧
##닒
##챎
##싡
##흜
##쉳
##줟
##낕
##쐥
##뚹
##츚
##첑
##쏚
##꺏
##첚
##춑
##먖
##봙
##뉙
##쑼
##뢓
##쇵
##쎁
##쳪
##뒐
##됡
##픎
##훳
##쨚
##볂
##뭪
##햟
##헾
##둌
##쉩
##윣
##흎
##녰
##죘
##눁
##푴
##맋
##늽
##맪
##쒭
##귢
##븾
##킻
##꾄
##쥈
##즅
##뛀
##펒
##끞
##뉀
##쵕
##똟
##봵
##썁
##떌
##뮁
##쵐
##펮
##훰
##뛝
##랇
##퉽
##쟢
##졤
##렪
##뢤
##쐔
##킉
##뼀
##돉
##뵏
##럍
##쫳
##뫂
##튲
##쒵
##잝
##잲
##엸
##젌
##짳
##핊
##푣
##뉺
##걩
##볫
##녬
##숧
##꿒
##홭
##뵴
##뙀
##폎
##퓯
##썄
##뢱
##댼
##턶
##뫜
##숚
##홞
##뽸
##룥
##챽
##뤟
##젃
##꽬
##꿸
##띅
##맕
##뫔
##븋
##텹
##좼
##팑
##퉛
##뮿
##낈
##갍
##뵝
##뫴
##탳
##꾱
##퉵
##윛
##꾈
##컌
##헳
##꼏
##혃
##빷
##첡
##쩼
##큫
##곫
##뫰
##괓
##곣
##걤
##몱
##뙄
##둁
##첌
##똵
##곦
##몡
##똏
##땹
##턻
##볊
##젾
##쿕
##늜
##뻅
##풎
##둽
##웘
##낋
##밅
##빪
##쪰
##뗶
##졵
##쎡
##쬈
##헒
##큪
##졿
##뭂
##쒴
##뇄
##좰
##캼
##옩
##퀩
##윚
##밢
##뿤
##둪
##엂
##븸
##짿
##횧
##왉
##띀
##젎
##뺫
##뜛
##궏
##랁
##쉙
##녻
##쀵
##훘
##텣
##싧
##퐠
##꽏
##칚
##옰
##믉
##턿
##퐑
##퉉
##혂
##츩
##벦
##꿯
##붝
##럵
##퉴
##웞
##젒
##뀄
##혴
##넄
##꿻
##횁
##먊
##뎤
##봀
##눊
##룄
##뻍
##쌯
##낶
##엺
##곔
##잞
##씥
##싘
##텸
##뜟
##쒄
##핉
##뗳
##퐢
##퐀
##굨
##틇
##튯
##쨪
##벭
##뿕
##늟
##뾘
##맓
##죦
##혷
##쵺
##섩
##붊
##쪱
##헕
##쐘
##퓍
##첻
##셏
##뀯
##뷤
##켚
##쳏
##홟
##뱎
##쩁
##흟
##뽹
##뮙
##쁰
##뙬
##췝
##촷
##촫
##먱
##뜮
##뫝
##핒
##떗
##둯
##촺
##휗
##븠
##븖
##뭑
##겲
##찠
##뭕
##듪
##굧
##쵬
##꺢
##궠
##굩
##뱽
##츹
##깳
##퓘
##녭
##뵺
##쭷
##슒
##봿
##쒬
##뉬
##멅
##쏌
##싚
##턈
##숝
##컺
##졻
##녊
##싇
##쌲
##툣
##릁
##폵
##뚷
##촢
##댰
##흕
##냴
##돾
##혽
##볿
##눍
##갳
##걶
##껲
##츻
##쇌
##븗
##쐤
##틁
##촸
##쀔
##뚢
##끐
##솖
##솈
##툘
##쀅
##뭦
##뮉
##샻
##죂
##앷
##렽
##뚴
##첣
##쬤
##썱
##꾝
##핆
##녝
##귥
##븹
##쾒
##똄
##벏
##놊
##붯
##퍤
##캵
##칝
##쫆
##덈
##풤
##꺑
##믬
##뽴
##훪
##륆
##쏐
##꽴
##촭
##졹
##괕
##땎
##폁
##쑁
##늮
##뢕
##묯
##딻
##짒
##끏
##뫚
##퐥
##뙑
##밃
##훬
##쉞
##놄
##퐊
##떥
##뺕
##쓳
##꺓
##찥
##뙥
##뱊
##쫬
##쫁
##땆
##챆
##앫
##붎
##멲
##뛕
##벓
##늛
##헽
##셊
##셟
##둤
##퐞
##꽘
##쇘
##찺
##겏
##괯
##쾽
##빯
##쵿
##뗗
##쮤
##헍
##폥
##쵑
##럂
##믌
##즜
##힂
##훣
##쭗
##촻
##큲
##틥
##쒞
##퀔
##볇
##쑘
##킛
##꿹
##쪻
##촎
##쭞
##댧
##춢
##싾
##꺒
##뺚
##훒
##똇
##쭕
##짶
##헋
##왭
##쟬
##훯
##쩹
##썝
##뷃
##떅
##퐣
##뒫
##궼
##뎰
##똈
##헦
##뱰
##쐽
##쏮
##뜲
##쐿
##흚
##뮻
##찖
##뙹
##칣
##춟
##똉
##쌃
##쑛
##퇏
##섊
##쫫
##꿃
##칏
##볆
##핅
##꼻
##뻽
##뀤
##죟
##똷
##뎩
##뀼
##윁
##됝
##쀙
##핈
##밹
##쫨
##쑺
##풁
##멝
##볭
##꾩
##쐭
##쭜
##챪
##뚨
##뫤
##갢
##섏
##뻦
##녋
##꽙
##풖
##풆
##맦
##붥
##쬄
##짾
##씿
##쫰
##샔
##쿭
##뙝
##똙
##뙉
##탊
##똳
##캢
##헊
##솑
##꿤
##맩
##훏
##컙
##쐏
##퉝
##뚛
##펟
##갡
##곞
##꺋
##괱
##엛
##픱
##삦
##쵣
##쬉
##뭼
##밆
##냕
##쌏
##핾
##큮
##쮡
##꾑
##밄
##맧
##묍
##몣
##꺎
##칾
##똯
##씺
##쓧
##쐣
##퀉
##큷
##촦
##왡
##촮
##쫐
##섓
##니다
##으로
##에서
##는데
##어요
##하고
##습니다
##하는
##지만
##하게
사용
있는
##다고
##이라
##네요
##이다
있다
##해서
##아요
##들이
##까지
##어서
##했다
##면서
##입니다
##었다
##에는
##00
제품
##리고
##다는
아이
너무
##더라
##구요
생각
##에게
##렇게
##하기
들어
##부터
##적인
아니
많이
때문
ㅋㅋ
##적으로
##합니다
만들
##보다
20
사람
우리
##에도
##들은
하나
##아서
좋은
그리고
##세요
그래
##지는
##이나
##으면
하는
##하여
ㅎㅎ
##한다
##기를
구매
정말
##하면
##기도
있습니다
하고
##에요
다른
때문에
##라고
좋아
##기가
##리는
가능
같은
##더라구요
그런
##답니다
##하지
##인데
함께
##대로
경우
것이
정도
##되어
이렇게
##다가
10
느낌
바로
사이
##지고
사진
##기에
가격
##니까
##들을
맛있
##처럼
##는데요
있어요
필요
##시는
피부
##이는
대한
시간
같아요
##들의
##리를
##해요
##고요
많은
있었
그러
##스트
한다
시작
##레이
위해
오늘
이번
##도록
##하다
##이라고
조금
##리가
좋아요
##되는
201
##거나
##자인
있어서
##에서는
하지만
19
##기는
가장
그래서
따라
##라는
이런
부분
처음
##이고
다시
##가지
마음
만들어
##았다
있으
##해주
이제
합니다
사실
배송
있어
모두
지금
제가
##이스
##시면
##있는
다양
주문
없는
이상
되어
##이트
한국
이용
지난
##이지
한번
##시간
다음
##해야
디자인
저는
아주
그냥
##이에요
##이가
##였다
문제
##었어요
모습
것이다
여러
##하면서
아니라
않고
자신
##해보
##었는데
##했어요
준비
요즘
##려고
##er
있을
구입
##지를
것은
않는
##라이
효과
나오
##하며
역시
진짜
아직
만족
##주는
같이
##르고
##부분
추천
##가는
200
##다면
것을
##랜드
진행
##했는데
통해
있고
선택
##기로
##들도
특히
12
##없이
아무
것으로
##정도
##더라고요
다양한
모든
##에서도
했다
프로
되는
보고
확인
##장을
저렴
없이
##예요
##으며
##이크
##들에게
##성이
##이라는
직접
##스러
##in
##자가
##었습니다
사이즈
계속
##보고
설치
괜찮
30
##스를
이유
##사를
중요
어떤
##장이
##어나
위한
깔끔
엄청
##시고
또한
엄마
보면
보니
아닌
보여
##지도
해서
여기
방법
나는
100
있는데
##더니
물론
##으니
선물
##했던
작업
컬러
건강
##되고
일반
##ㅋㅋ
기능
상태
11
##자는
##지가
##on
내가
##스크
안전
모르
판매
완전
15
설명
찾아
부드
##성을
입니다
##력을
##았어요
하루
있었다
##드는
##겠습니다
먹어
먹고
##마다
이후
##로운
친구
이미
##제품
미국
사용할
##인지
소개
스타
##보니
##스럽
최고
##었던
된다
##랍니다
떨어
넣어
돌아
##분이
저희
##력이
##리스
서울
##주고
##장은
##상을
얼마
들어가
##이어
상품
먼저
더욱
자연
일본
세계
##an
아래
##리에
않은
##거든
##들과
여름
##트를
##된다
##전에
오래
가지고
작은
##하니
그렇
##감이
이야
##만원
올라
##정을
##이를
있다고
지역
그래도
공간
사랑
항상
대해
얼굴
기본
아기
이것
00
운동
하면
제작
그러나
현재
화장
됩니다
##거든요
상황
##지요
전문
어느
##동안
기대
대표
좋을
없다
이어
자주
##인이
추가
##셔서
보내
##정이
거의
##했습니다
고민
##리어
해요
구성
것도
일단
활용
않았
말했다
있다는
좋고
느낌이
##or
##식을
수도
##만큼
국내
살짝
브랜드
##상이
이름
어떻
##화를
개인
##수가
##ar
관련
##마트
사용하
중국
##라서
내용
##해도
전체
보이
##라인
##가능
여행
##제로
포장
어떻게
근데
알려
지나
포스
##지막
##스타
그런데
기존
해야
연결
##같은
##스로
##을때
##자를
##이블
쉽게
그렇게
##르게
##운데
18
##중에
도움
##도가
지원
느껴
위치
##이었다
##at
##까요
##en
청소
##사가
아침
만나
등을
##하는데
결과
관계
##겠어요
##졌다
간단
해주
그는
받아
##시에
##하지만
##겠다
##이랑
##져서
알아
##스가
##르는
제공
매우
##게요
만든
자동
사회
먹을
##리지
먹는
촉촉
##al
어려
##워서
##자의
그것
어디
##크림
##0년
##드를
##양이
##는지
예쁘
착용
겨울
약간
최근
무엇
마지막
방문
나온
##아지
가지
동안
##나요
힘들
##겠지만
##es
제일
##시키
않아
완성
고객
확실
기술
##르면
##어도
##하세요
여성
않을
건조
##으나
전에
##머니
##도를
##ed
##이지만
관리
##구매
##주의
오늘은
정보
##이드
최대
깨끗
발생
참고
가족
있지만
##장에
자세
##학교
##리아
##려서
##라도
새로운
이거
차량
인터
관심
걱정
정부
커피
##문에
마음에
자체
기업
사업
##지않
했는데
필요한
포스팅
어린
##으로도
위해서
나타
##치를
교육
##인트
나와
좋아하는
제거
제품을
##겠죠
비교
머리
블랙
언제
게임
스타일
##번째
##이며
##감을
사용하는
##스는
부담
##개월
##나는
##인데요
##장에서
따로
감사
##해드
16
쓰고
높은
##오는
##도로
냄새
유지
있도록
##물을
그대로
##치는
##그램
원래
좋습니다
시간이
##스러운
##구나
영화
있으니
시원
##주면
##데요
##물이
바람
##원이
##수를
##시켜
##하나
##하였
알고
그림
##립니다
에어
##사이
크게
유명
##심히
기다
##있어요
50
##므로
##하시
대부분
##하시는
색상
활동
하지
집에
고급
제품이
결국
제대로
##주세요
생각보다
음식
모델
되고
싶은
##어가
##인가
포함
충분
##만에
##대를
나왔
내려
또는
서비
14
이러
##하네요
생활
##렸다
##서는
##보다는
정도로
올려
좋네요
13
불편
만큼
하는데
분위
##10
##it
스트
자신의
25
운영
##제를
##ㅎㅎ
작품
##었고
해도
위에
##통령
적당
이건
##ic
같다
##스터
그럼
저도
사람이
넣고
보통
##는다
##았습니다
##식으로
연구
보다
##사는
올해
없어
##아이
상당
##거리
##래도
##적이
스마트
##하다고
계획
자기
예쁜
##할때
비슷
모양
중요한
##이션
##혔다
##원을
개발
##한테
정리
맛이
도착
신경
생각이
##요일
있으며
어울
있게
보관
##트로
매일
##것도
##보면
기억
대통령
들고
이동
표현
다니
기준
열심히
##스템
없고
맘에
##님이
##나라
보호
##용으로
##줍니다
##같아요
##았는데
주는
바닥
의미
##점이
##보는
경제
같습니다
소재
재미
##00원
##시아
당시
특별
부드럽
##테리어
##장히
##지지
학생
##기의
보이는
전혀
17
종류
일이
환경
##20
가져
##어야
조절
카페
꼼꼼
기록
##st
충전
##자기
결정
##상으로
##군요
제품은
##cm
##사의
꾸준
때는
주변
##되었다
##분에
##디어
##이터
마무
좋다
사용하고
##이기
##점을
##여서
따뜻
훨씬
남자
우선
있답니다
할인
부드러
편리
24
장착
저녁
휴대
##때문에
이번에
없어서
날씨
등의
움직
내부
편안
##료를
궁금
출시
간편
있던
##리로
##있어서
##니당
##잖아요
교체
국가
쓰는
##트가
발라
빨리
굉장히
##진다
사고
##인다
가능한
##사용
밝혔다
##하신
챙겨
##레스
이게
되었
##됩니다
##이죠
행복
느끼
##치가
##놓고
혼자
어렵
##하기도
뭔가
여자
삼성
지속
##업을
생산
가는
##일이
커버
안에
##봤는데
##거운
국민
남편
##대가
예정
가까
화이트
블루
##됐다
성공
기분
인간
##로그
세탁
잡아
##전거
##메라
때문이다
##라운
얼마나
일부
##위를
대신
나서
40
하기
##용품
참여
필수
앞으로
##너무
프리
부산
그녀
##인의
이벤
적용
##el
존재
학교
##장의
##스틱
##했고
##한다고
역할
있기
그리
##지에
평소
확실히
해결
th
경험
##음을
살아
미니
##이면
미리
부족
##만한
집에서
눈에
시공
되면
대해서
다녀
##개를
##ou
##자마
나오는
강아지
##이라서
##밖에
되었다
가운데
그의
##위원
##함을
##들어
##명이
##mm
인터넷
형태
배송도
##이라면
자유
##로는
##스의
##선을
현대
이를
##트는
귀여
##드가
##구를
이야기
이해
모습을
##겠다고
##et
나가
##우는
받고
베이
가볍
그런지
##스럽게
##제가
오랜
##되지
사람들이
##식이
자극
##디오
##더라도
다만
등장
##이프
문화
##일을
##같이
이러한
##대에
보는
말씀
있는데요
전기
소비
수준
199
##하였다
가방
##께서
받은
##수는
이날
크림
##함이
경기
빠른
수가
하면서
##라면
좋아서
분들
만드는
##자마자
맞는
촬영
##지로
##향을
수분
##인을
아마
자리
##드로
회사
##위에
성분
꾸준히
##ol
##가락
나무
공격
아이템
해당
방송
물건
마련
하니
##8년
문의
사용해
핑크
##없는
영양
별로
##어난
이쁘
지난해
정확
가득
##했지만
오른
맞춰
##하던
다이
##자로
##센터
이곳
##수록
##되었
##기업
이루
갖고
##드리
프로그램
##하실
마스크
##쪽에
##질이
음악
케이스
##하려
##하다는
고정
않았다
순간
##다니
달라
포인트
인테리어
있으면
##량이
##했다고
하네요
사용하기
구조
과정
전화
##치고
비해
##기와
##ing
##와서
발견
##원은
##나무
분들은
체험
마무리
##한데
핸드
자동차
##회의
##기만
분들이
여기서
##으면서
##하시면
##성비
##리즈
장난
메뉴
##전을
도시
살펴
제주
않아서
##어를
##우스
아이가
오후
##프로
빠르고
후기
라고
##as
따라서
##가를
아쉬
물을
에서
부모
실제로
시스템
중심
등이
대학
하다
##개의
정치
집중
향이
천연
##만의
##아주
대구
먹기
주방
##가가
우리가
##le
유아
##회를
##봐야
##대의
##5년
##7년
##두고
중간
아이들이
것이라고
##사이즈
##봤어요
없을
21
##re
검색
##롭게
말을
좋았
아이들
달리
##기고
##걸이
##명을
##ac
##히려
사진을
##소를
업체
##상의
정신
##구가
##리의
자전거
경우가
편하게
두고
안정
어린이
##나게
##품을
##스에
##동을
##ml
주고
원하는
##먹고
##50
##9년
선수
##가격
##비를
##으로는
해외
찍어
##상에
바라
##하거나
##려요
가격이
부분이
##질을
바디
##화가
##사진
##한다는
넉넉
##린다
##관리
##환경
아파
서로
##6년
##om
##었지만
##배송
맛있는
인해
효과가
주말
믿고
아름
##이크업
##이도
투자
했어요
##페이지
가을
이에
##연히
지방
증가
##내는
##준다
##원의
헤어
##임을
##품이
리뷰
##나고
깔끔하게
##수도
네이
다르
올리
고양이
사건
##장고
23
시즌
재료
수납
##면에
##인은
저렴한
문제가
강화
##릭터
한다고
가성비
무료
##프트
오히려
재구매
조립
##이네요
##해지
피부에
입고
00원
전자
tv
신기
쇼핑
##부를
버튼
발표
오는
가서
않게
##is
사라
##장으로
##가루
22
##하자
카메라
##우고
하게
좋다고
하여
플레이
예약
그때
다이어
##로나
특징
꺼내
신발
##방법
##am
아니다
사무
중에
##드릴
없었다
말이
라는
##포츠
혹시
위험
도움이
전국
오일
튼튼
##리도
주로
##교육
않는다
##4년
##거라
상당히
맛있게
다들
##계를
기름
##과는
##이에
##했을
in
타고
안심
시켜
##ion
라이
시간을
완벽
##있고
##업체
##퓨터
##쪽으로
기간
동시에
##2년
결혼
고려
##정한
##대는
##께요
##도의
유리
후보
구경
아무래도
##움을
감독
##도는
충분히
##났다
##겠다는
##타민
블로그
매트
무게
스티
캐릭터
이는
##되면
잘못
덕분에
제조
오픈
실내
##향이
##렌징
##세트
뚜껑
흡수
##이라도
아버
##있어
주의
##길래
혹은
##서를
파우
##줘야
북한
##기간
아빠
벌써
각종
피해
남아
##해진
연출
무슨
##왔다
우리는
유통
당신
st
국제
캠핑
##셔야
##할수
##걸로
##면을
실제
일어나
선생
노력
##셔도
##님의
##있다
해보
있었는데
경쟁
하이
##3년
##가서
성장
##어진
가격도
각각
노래
##원에
무엇보다
빠르게
##워요
##라마
받을
스스로
##il
많아서
하며
60
2개
맛있어요
##이로
##문을
##겠네요
##였습니다
피부가
the
예상
워낙
만들기
##바로
요구
분리
##일에
전시
하시
상대
##1년
새로
##생활
많아
밖에
##케어
##별로
##트에
전용
##피부
예뻐
같아서
담아
나름
##어보
##리기
##번에
저렴하게
성능
##지역
강력
##내고
플라
상담
타입
다행
##들로
1년
주인
가끔
아니고
##ot
##나서
화장실
공개
##금을
인천
넘어
##듯이
##음이
가벼
달려
있네요
##갔다
보기
##점은
영상
행사
금방
보인다
서비스
##이니
후에
일을
개선
가진
##안을
##제는
대비
##리면
바이
드라이
##러스
번째
여러분
으로
같아
와서
##려면
##다보니
##박스
세척
##단계
완료
현실
유명한
##아가
##지게
##단을
가정
##지의
도와
나중에
절대
사는
##기능
곳이
나라
골프
드러
추진
##사업
단순
##셨어요
##명의
좋았어요
##색이
이전
강조
규모
작성
호텔
수업
##들에
이유는
##였어요
따르면
하늘
테이블
##회가
말고
##과의
##보드
갑자기
인정
주차
배우
평가
보습
있었어요
그동안
맛도
##의를
##좋은
신청
##먹는
거실
분석
컴퓨터
되지
잠시
스마트폰
점점
최소
괜찮은
차지
##더군요
##봅니다
이벤트
##로우
##로도
했지만
공식
경찰
##감도
놓고
##다운
먹으면
##ro
수영
민주
##안에
전통
##사지
쿠션
외국
안녕
역할을
시장
메이크업
##부는
##해주는
자꾸
것입니다
##있습니다
있다면
한다는
산업
했습니다
한편
택배
500
##비가
##전히
생각을
마치
##터를
분명
못하고
28
가능합니다
##이었
샴푸
테스트
##리티
맞게
함유
5월
##있게
##기한
##원에서
도움을
요리
대형
생기
##어주
26
동일
체크
##리카
##움이
lg
그린
##았던
카드
미세
아닐
안되
비타민
마찬
##고기
사람은
개인적으로
나의
없어요
##이예요
##여행
너무나
홈페이지
부드러운
방향
없습니다
바다
공부
여유
않아요
유럽
##30
##드립니다
비롯
제외
받는
비슷한
##피스
공연
3월
게다가
##드시
마찬가지
##보기
##가고
안내
27
가죽
못한
##이란
##어져
중앙
변화
효과를
##성과
10월
공급
기분이
비싸
느낄
목표
##량을
##하다가
지금은
차이가
##지와
비용
눌러
##조건
##ig
##상태
##커버
샤워
##성분
아쉽
알게
##것이
##으로써
요렇게
까지
##공간
주장
예전
사용하면
정책
6월
##리와
지켜
우리나라
led
##해주세요
앞에
붙여
##이너
##시죠
##맛이
조사
냉장고
방식
물에
온라인
##다른
렌즈
둘러
##스토
시리즈
이때
##관이
프랑
##물로
양념
us
4월
##가요
##장님
어머니
시민
정상
직원
역사
주요
조선
##면이
적극
자신이
##시장
9월
우유
과거
코로나
##권을
김치
198
공동
타이
가슴
##kg
무선
매력
##가의
클렌징
작년
##ec
스테
##자에
바꾸
미래
스크
##느냐
반응
##도에
연락
스피
발전
##자와
섭취
##시를
11월
##이의
개봉
그려
##사로
##국의
바르
처리
배터
노트
금융
##으니까
뿐만
##하도록
##문화
##봐요
생겼
다가
인증
##차를
아프
##에선
부탁
신랑
##오일
분야
자랑
친절
##효과
##였는데
등에
사용해보
##만을
주민
귀여운
많다
##부가
##하면서도
공기
손으로
##러블
이웃
의해
##주시
##ad
은은
설정
##이야
신선
어려운
##놀이
남은
동물
##수의
독일
스킨
전망
7월
원단
프레
클릭
제품으로
어찌
8월
외부
인기
강한
광고
##집니다
교환
스토
12월
레이
수입
들어간
of
지금까지
##히는
##어로
##저귀
했던
##운동
##id
##바닥
경우에는
외출
느낌을
생긴
들어서
적이
깔끔한
물이
##소가
손잡
있었던
같네요
##이렇게
##아야
##하셨
치료
최초
라인
##정보
##어버
대체
바꿔
가구
##상은
이야기를
스포츠
##였던
손에
않아도
걸어
때도
빠져
박스
예쁘게
얘기
심플
##시가
싶어
솔직
##지면
패션
변경
어깨
##자들이
관계자는
바랍니다
##은행
드는
세트
바뀌
조합
앉아
##으신
나도
##제거
##상품
하나씩
많고
##대한
##심을
##시설
##bs
##관을
우수
마시
최고의
##유의
##청소
사서
방지
크리스
치즈
않습니다
쓰던
가게
것처럼
##많은
##약을
##든지
70
본격
맞추
작업을
글로
없다고
##로부터
기념
같은데
거기
차단
부착
##님들
##졌어요
동생
어제
300
##자리
롯데
##력은
그랬
투명
##산을
소리
연습
##바이
아무리
##성은
등등
##억원
상승
케이블
전부
힘을
오전
##드렸
프리미
편하고
만족합니다
작동
##이기도
네이버
##해지는
마음이
##등학교
녀석
있지
돌려
영향을
즐길
##사람
곳에
옆에
앞서
에너
##었을
왼쪽
유용
귀엽
엄마가
매장
스티커
그럴
##산업
##하더라구요
##수로
##도우
인생
가격에
레드
샀는데
##점에서
클래
구매했어요
##했다는
##에게는
##개가
##추천
##면서도
브러
않을까
##us
완전히
손을
부분을
조금씩
가격은
##매트
중고
가볍게
##연구
예방
업무
##하려고
꼼꼼하게
양이
##력도
관광
받았
##놓은
누구
##느라
귀찮
##니스
##까지는
29
##니아
##ay
##거같아요
스프
조직
##시키는
간식
마음을
부드럽게
나머
않다
한달
용량
80
여기에
확대
조심
##카드
##한다면
##os
속에
소개해드
언니
기초
부분은
드라마
##아도
깨끗하게
힘든
지하
뿌려
##nd
##위가
주세요
##장과
단계
도전
불구
##와의
사용한
있죠
전달
##컬러
##지기
선정
매번
구멍
건물
에어컨
##플레이
지적
대한민
몸에
##학생
나누
반대
판단
따뜻한
이제는
시절
##이랍니다
##이라며
1월
잡고
오랜만에
그가
##사에
부터
##적이고
아들
##성에
##ow
드디어
색깔
부드럽고
##하죠
##품으로
여전히
##건데
가면
이용해
##른다
등으로
입장
반드시
36
없다는
맛집
패키
욕실
##대비
##od
내년
되는데
주인공
아니면
##에서의
##로서
때마다
오른쪽
헤드
냉동
뒤에
관한
남성
다이어트
열어
침대
##오고
여러가지
흔들
##하기로
##일까지
이사
##전자
근처
그게
구워
사용이
##이자
##체를
패턴
전쟁
공유
바르고
줄어
##되었습니다
##기술
##지털
특별한
고기
좀더
##왔어요
확보
일주
다리
목소
##모차
##19
마을
##시피
##판을
##체가
##던데
실패
##위로
브라
좋더라구요
요즘은
기능을
슈퍼
##선이
비싼
민감
만들고
지도
아파트
과일
평균
##때는
당연히
##세를
##만이
시험
##하였습니다
맛은
##기관
대전
##운드
##회에
위해서는
##문의
##사와
##주로
##데이
선보
신고
pc
##보세요
필요가
##주를
있었습니다
##거에요
냄새가
##스티
##ch
아가
않도록
그만큼
넘나
유기
##정말
##세계
책임
##받은
2월
영국
##격을
못하는
##정에
넓은
기타
프리미엄
표시
쓰기
아니지만
1일
이쁜
통해서
풍부
과학
않으면
##지어
스파
202
반려
다음에
##사항
##에만
최대한
두번째
출발
동영
##이상
책을
모습이
자체가
##ent
##스카
##스와
##분들
우려
장점
향도
점이
입을
뛰어
##감은
노동
사람들은
제품입니다
선거
몸을
닦아
갈아
반복
간단하게
실시
화장품
##있는데
##가기
되었습니다
2년
입술
가까운
나눠
##부의
sk
불안
##다며
된다고
##소한
만약
불구하고
아는
메인
사무실
두피
있어야
따른
##것같아요
##티슈
사과
품질
보조
##어용
##그레이
##크를
##리트
##을까
듣고
무조건
경기도
35
##리콘
하나의
날씨가
행동
##보호
안전하게
아침에
다르게
장소
스위
##작업
트러블
친환경
적은
멋진
요청
않지만
##ip
크기
예술
##었다고
입구
에센
##시다
거예요
종이
##션을
눈이
높아
##냐고
##키는
##패드
붙어
##적을
##시킨
##계가
##나마
선호
##구마
##미가
3일
##느낌
없지만
##문이
##쓰고
##가구
노트북
##하러
안녕하세요
사이에
샘플
둘째
이불
##씨는
##정은
디자인이
자세히
##아니
등록
영어
##되면서
속에서
##스테
어른
인사
깔끔하고
전문가
언급
전략
어울리는
언제나
usb
고무
싶어요
31
정도의
##려는
넣어서
##냈다
계란
##ag
경영
관심을
##랐다
하시는
1인
들어요
남겨
보시면
피부를
찾는
이상의
다양하게
화려
지지
필름
왔다
자연스럽게
##원으로
젊은
건설
싫어
핵심
##미를
##카페
이하
##시로
시설
##쇼핑
음료
##웠다
##라스
##일리
위생
나를
##용량
##성도
누가
멀티
소리가
##좋아요
##회는
반찬
건강한
시원한
마감
보이지
담당
##ut
베이스
광주
엔진
잠깐
간편하게
메모
경우는
그레이
##물에
수는
비닐
##op
일상
전원
##율이
점심
##12
디지털
허리
##프레
30분
요거
생겨
##좋아
분위기
##회에서
##르기
가로
나면
3개
##형을
두께
무난
조리
수밖에
재질
##니터
##임이
##끄러
왔어요
##하시고
운전
출신
##em
길이
##번호
싶어서
##고가
필터
##개발
##친구
최종
관심이
##만족
야채
##80
참가
##드의
잘라
나올
그릇
불러
감사합니다
거래
마지막으로
세상
배송이
있음
##im
영업
정보를
##법을
##타입
조건
위로
날이
##곳에
거치
장비
##ur
너무너무
##렌즈
이번에는
간단한
##화된
거리
채워
##형이
흘러
싶다
참고로
90
금액
전체적으로
##목을
출산
##트의
기존에
가능성이
맛을
##뿐만
설계
##물은
파워
제시
힘이
더불
##져요
데이터
식사
##것같
##주문
2차
##냄새
##일은
예전에
##증을
감소
##케이스
이뻐
브라운
##나면
##외선
봐도
나이
있는지
들어가는
##력과
목욕
워터
##고는
먹으
##전이
줍니다
##치로
3년
이와
하더라구요
##렌지
위치한
포기
##iv
아름다운
##건지
##ap
##경을
인식
유일
##신을
진정
낮은
아예
만에
취향
##생각
##학년
문제를
##받고
대박
##한거
문제는
장난감
저렇게
샀어요
회복
스페
##란다
식당
모자
눈을
가입
누구나
시도
재밌
한참
손가락
##려구요
손이
1개
프린
의원
##주가
개념
지퍼
##커피
마이크
아까
##그래
##저것
일으
나와서
사실을
유니
시작했다
것과
마사지
거품
##먹을
비가
시행
##했네요
조명
두개
코스
197
더불어
열린
중에서
ch
##으로서
##세대
##시길
식물
##로를
빨간
약속
고객님
펼쳐
어쩌
오늘도
우리의
##웨어
단단
때가
##와는
유통기한
##ir
반면
##받아
프랑스
##보자
다음날
##차가
먹어도
##라며
가르
##도시
짧은
##성의
상세
##위는
자리를
의견
듯한
##기기
나온다
산책
아동
##씨가
##되기
학습
얼굴에
##줘서
유모차
실리콘
뒤집
즐거운
상관
소중
멀리
##전문
기저귀
성분이
##리오
##단에
전투
오랫
일정
##일부터
플라스틱
고생
자세한
##이와
발색
방법을
대한민국
##텐데
매출
낚시
선물로
부모님
사은
핸드폰
기능이
##되서
고양
됐다
모공
선생님
무릎
강력한
베이비
것에
글로벌
##으로부터
처음으로
돈을
##인치
##달러
늘어나
집안
##니까요
편의
##나가
예정이다
##리그
가고
##었네요
##치지
##분을
##리게
##대표
반영
경우도
원목
대중
도입
##ct
##실을
사이즈가
검은
출연
##11
##시기
들어오
추출
희망
##드리고
케어
기계
##마을
분들도
##화점
사람의
포장도
끈적
##면은
##크로
제한
2층
하나로
부분에
파악
며칠
해주는
##비는
아닐까
하셨
##어지는
사용하지
##거같
쉬운
보내주
아직도
바탕
##집에
사례
옷을
하나하나
##통을
가벼운
##석이
바른
다운
##조절
들어있
##용이
보여주
만들어진
이름을
하는데요
이번엔
##들고
뛰어난
인한
단체
##이즈
높이
##저기
적당한
좋지
색이
거부
가능하다
##역시
##40
우승
##고를
##용을
오염
심지어
물어
##자들의
아이스
효율
45
할수
##자들은
수출
저장
##테일
스키
##활동
##화장
강남
언론
예민
이유가
##형으로
##름이
크고
공간이
어쩔
보유
각질
##건강
대상으로
##가능한
##심이
개최
##사한
##관은
홍보
어디서
사람들
세련
특수
##그룹
골드
근육
##구는
이걸
즐겨
비밀
##행을
##서가
계절
마시고
저의
##가에
##경제
소금
##트리
32
있더라구요
성격
##드려요
이젠
회원
훈련
##조차
##등을
요건
##증이
다소
추억
##부에
##식품
##하셔서
##어지
제품의
##자고
##한게
##쿠션
과정에서
통합
나머지
아닌가
어떠
행정
드리
##산이
##가로
##해주고
설탕
좋은데
써보
##실에
안쪽
10년
퀄리티
가루
##60
##는게
sp
역시나
대상
##색으로
수익
##텐츠
연속
활성
##단이
엄청난
하다가
##었는데요
받았다
그러면
##모델
##달라고
앞에서
이것저것
그것은
조성
##중이
굳이
와인
##네용
새벽
보일
곳에서
곳은
신뢰
익숙
##un
기반
##었답니다
사용을
나쁘
스탠
비판
시청
지워
조용
하겠습니다
##저는
사진은
한번에
마침
##ter
야외
##건조
##방에
검찰
내용을
적합
모니터
하얀
항공
##단의
수술
##시킬
프로젝
적절
올리브
혜택
유치
맞춤
보면서
전환
놀이
파우더
##주얼
처럼
현장
커플
몸이
##음에
##머리
종종
동네
##단체
##100
##도와
##한지
세일
글을
##되며
##엄마
중심으로
신생
##말로
사람을
##투스
처음에
드릴
##더욱
##0년대
기획
##겠지
1층
모르는
##색을
애플
##시트
계약
##하기에
##어내
즐거
##해볼
세정
##하답니다
##그리고
##해지고
수상
올라가
형성
##지원
된답니다
사망
몰랐
봅니다
깊은
##렸어요
##래요
처음에는
##선물
무척
오빠
양도
##십니다
들여
코디
하나는
배경
##침대
보이고
적당히
그렇다고
일찍
##제작
종합
식품
##어는
무려
##oc
현지
##쳤다
##bc
기사
양파
##렸습니다
점을
##안전
##비스
지인
있구요
교통
대부분의
##된다고
비행
##부터는
보니까
모르겠
##간에
대단
느껴지
주택
##포장
##히고
은근
##70
식탁
아내
##받는
##갑니다
이끌
어두
일은
사용하여
##시켰
한쪽
반짝
초기
가야
기자
임신
구매할
##카오
구분
브러쉬
달달
문을
##셔츠
##재를
##드에
이용해서
새우
코팅
손목
##지않고
차례
##트에서
수정
스케
통과
주목
바닥에
축구
##다리
겁니다
거기에
콜라
##듯한
착한
훌륭
미술
##옵니다
##스럽고
점은
색상이
##치에
장애
의료
##마리
좋아해서
구매했는데
##제의
모발
마찬가지로
거쳐
뒤로
계신
내내
작가
출처
##간의
생각하는
##구니
셀프
살균
대응
파는
##그러
##보단
##면에서
##하긴
가까이
측정
가기
대충
##짜리
##바일
한데
왠지
##림픽
노출
제품이라
아시
밀착
풀어
##했으며
소프트
1차
방식으로
나오고
한정
미세먼
독특
아닙
접근
알아보
모르겠지만
참석
##게임
##유를
솔직히
편한
되었어요
실용
통한
이것은
먼지
##ab
위에서
열고
커서
모아
##천원
##물의
같고
초반
제2
크기가
소설
추가로
소품
##마스
##우리
배치
늘어
##으실
우리집
느껴지는
못했다
##식은
머리를
저렴하고
진출
휴대폰
심각
소속
it
손님
##습니까
상상
안나
쉽고
sh
차가
##동산
적혀
보험
장기
구축
자신을
##방을
전반
##점에
##튜브
인상
뜨거운
##세가
##해보세요
답답
유산
시계
##속에
##자동
##감과
골라
구매한
자료
##분들이
그나마
거울
##름을
##류를
##것을
##ul
예쁘고
##까지도
것만
독립
##명은
그만
은행
##후에
on
나왔다
##리며
도로
마이
인기가
메이
##시오
##디자인
싸게
##인과
##화에
가격대비
시트
##거리는
불과
되니
예를
톡톡
애니
안전한
육아
새롭게
설립
확인할
울산
##국이
붉은
##베이
사항
즐겁
노란
##때마다
하나가
운동을
여기저기
2015년
##림이
두가지
##아버
고소
과연
기존의
논란
##학과
##um
찍은
갖추
들었다
이미지
##동이
수리
##주시면
소파
##구의
아이폰
##인들이
사진이
온도
##ia
오랫동안
디자인도
##회사
가려
생리
재생
스카
시키
##직한
두꺼
만한
배터리
당연
주문했어요
기준으로
된다는
꼼꼼히
##터가
상태에서
끝에
많은데
##시간이
졸업
수행
##자도
맥주
가볍고
길을
##길을
지정
밝은
옛날
##워크
##쉽게
중인
편안한
섞어
##규모
섬유
##시키고
터치
##보이는
떠나
되어서
교수
스트레
소독
빨래
유기농
되게
##난다
그립
##재료
##15
방수
댓글
먹은
걱정이
##간다
강추
시켰
병원
특유의
말한다
##운데이션
중소
생각하고
다행히
파티
##한번
사회적
##마토
얇은
레몬
그룹
차이
과정을
##줬어요
일어
방법은
그건
##주기
오프
음식을
##일까
가스
쓰면
##끼리
촉촉하고
상처
##르지
건축
대해서는
내구
있었고
##자에게
to
상태로
합리
##ation
대로
않았지만
즐기
##라이트
##체의
10분
입맛
일주일
이뤄
친구가
2020년
지급
신생아
의사
##라가
##판이
쉽지
정확한
##이게
고추
특성
##호가
##식의
##버스
구체
있다며
러시아
비누
##신이
페이스
##콤한
##모양
배가
##좋고
이탈
##서도
없었
모래
상황이
##함과
기관
##습니당
##먼트
##처리
##방지
샐러
##파크
3d
살고
##경기
저희는
##모습
##만들
위원
##하니까
##정도로
방법이
부정
얼굴이
400
##디션
##력으로
트레이
배달
2014년
느낌의
196
먹어야
외에도
하나도
4개
되기
프라이
공간을
##바람
모바일
##률이
인도
##화의
영향
하드
하자
아시아
##아노
목적
##샴푸
그저
##티브
에너지
##준비
오늘의
안되는
위의
최저
좋게
성인
##if
2016년
2018년
효과는
데일리
장점이
책상
되요
로션
장식
토너
##쓰는
부품
소화
##장도
연주
##th
끓여
맛있어서
때까지
##려야
어느정도
##프리
칫솔
##점으로
담겨
이유로
쇼핑몰
유해
소리를
적응
들어가서
설명했다
##살이
##대요
대기
충격
스피커
##체에
##금이
복잡
끌어
##호를
마늘
##겠지요
##and
##많이
계시
55
여름에
옮겨
아이를
안심하고
첫째
3가지
##일로
##안이
##라요
##ew
불가
하루에
보였다
##했답니다
발림
수많은
어떨
##명한
150
##혀서
##으시
안에서
##대학
서랍
##해졌
자외선
1시간
화학
미국의
공공
##구에
바퀴
##ce
##석을
##계의
이용한
##세척
이외
발매
관련된
잘먹
##미는
##프를
주기
이용하여
##책을
멤버
동작
##분의
있을까
##링을
제품이에요
활동을
오토
수요
##김치
시각
as
##당이
그거
##여름
이것도
알았
돼요
##이브
##때도
모습입니다
일반적인
##천히
##하우
누군
되어있
서비스를
##지면서
분양
##거래
아이의
##종의
없네요
2019년
##오늘
계획이다
특히나
##정의
알았는데
내장
##역을
기억이
의한
네일
화면
준다
갔다
사료
2012년
##중인
##소에
세워
##정으로
걸로
깨끗한
실험
그녀는
##해준
##주택
개별
##사에서
##세기
지난달
##해져
##위의
버튼을
보다는
결합
5년
##지방
분들에게
행복한
##av
뷰티
맞아
보세요
시작한
시대
##ns
사용해서
사용해도
시기
탄생
##화는
직장
거야
조각
평소에
전면
할머니
배출
##는데도
밝혀
하실
33
아기가
말하는
달아
사장님
##답게
##할까
촉촉한
제1
안경
시원하게
단지
크로
##가족
##봐도
듬뿍
and
##ps
인물
쓰레
풍성
양말
02
##군의
제기
##수에
업그레이
앨범
편해요
##케팅
물티슈
분위기를
좋겠어요
##구로
단백
##인듯
##시스템
싶었는데
세팅
##트라
조금만
조작
1회
결론
대용량
대답
##정부
오르
수원
강원
이래
휴대용
2017년
계산
##가지고
##드와
이유식
놀러
사야
##금은
얼른
사전
감싸
분이
##주에
##리한
계열
포토
무서
##인으로
##km
##그래도
출근
##줘요
##진짜
##였고
편안하게
청년
떠오
##수한
##소재
구성되어
특이
써야
준비해
##다시
이틀
그를
##물질
##트와
##하는게
후반
주문했는데
불가능
했고
2013년
만족스러
##풍기
그것을
al
바람이
##ak
인스타
##화로
오렌지
매년
차를
무시
구입한
천천히
##25
##판에
조정
동영상
##버린
##으려고
선발
##과학
##하고자
##드릴게요
하나만
hd
2010년
감각
세월
이중
##류가
그다
##시의
형태로
듭니다
##마저
기울
##되어서
세안
들어있는
##하구요
##분들은
사실상
지키
많았
1만
마법
##부분이
앉아서
인공
라이트
얼굴을
010
들어갈
누르면
이리
점검
##프라이
##카락
특정
##판매
##빠르고
중간에
생각해
시간에
아쉬운
프레임
끼워
유행
##을수
##누리
안타
한글
5일
추석
##아리
딱딱
보입니다
##단은
##수기
그걸
보드
##위원회
철저
##단으로
코코
머리카락
##브랜드
만들어서
아닙니다
그들은
그렇지
##개로
젖병
예뻐요
##우면
머릿
치킨
##동물
돌아가
둘이
맛있고
무지
##티지
확장
고속
##로가
볼륨
파란
##보험
##국수
몇번
##구조
##모가
파운데이션
초록
##스팅
남편이
아이들은
앞으로도
초코
##90
만난
든든
비비
것보다
##력에
링크
##기지
##것은
##계획
구매해서
들었어요
정도는
이들은
아르
상황에서
##방울
상징
데려
진한
들어갔
##네여
발달
##사랑
부르
##군이
##던지
봐야
복합
들려
길게
있었지만
##적이다
좋지만
사이즈는
만드
반죽
##레이크
##비에
##해를
##사고
그녀의
스트레스
개의
안보
##스코
본인
레시피
가능해요
예산
수유
##주신
매운
아이스크
성과
블루투스
정품
정부가
##력의
미용
머리가
월드
##량의
걸쳐
필요하다
써보고
선택한
편이
##방송
다섯
요런
##복을
바람에
당장
다음과
모양이
##필요
구석
주면
##셨습니다
손톱
하였다
##봤습니다
2011년
##등이
일반적으로
그날
##외로
이용할
##자극
첫번째
밑에
밥을
내일
집으로
##형의
##스에서
##에게도
위하여
근무
##하겠다고
최적
기본적으로
산뜻
떠올
##하겠습니다
##치의
##제도
나고
되네요
치아
##함으로써
2일
##대학교
달러
##해보니
##다란
##하우스
나갈
좋다는
제법
##ep
바깥
이라는
##위해
##하루
방법으로
흔히
##트롤
##ess
끝까지
뚜껑을
벗겨
로즈
##리라
신규
##레인
떨어져
센스
6개월
##집에서
##아래
사용하던
##럭시
에스
아웃
만날
##제에
싶을
야구
건조한
##이지요
칭찬
##베리
바탕으로
##웠던
말이죠
##사회
대회
경남
##실에서
##가방
##세사
점에서
##매일
무한
##볼까
제품에
넘는
무겁
##왔습니다
논의
그것도
##18
떨어지는
##빛이
대표적인
오리
쏟아
관리를
##전에서
자녀
그렇다면
##그런
모여
먹어보
오버
##리터
아우
부족한
이정도
이름이
##est
##잖아
여행을
##겼다
##집을
##두면
더블
보장
##색의
##차는
이라고
##다보면
##기때문에
태양
맞이
보도
사랑을
닥터
su
깜짝
##관계
##등급
뛰어나
##서에
베스트
##품은
##마를
고구마
차별
집어
소유
곰팡
그들의
트렌
1위
가공
피곤
종교
단독
민주당
못해
회전
##핑크
##세탁
##소는
bl
약간의
없애
##스타일
담은
##무원
한잔
면역
암튼
##니깐
싶네요
네트
디자인으로
##섰다
##그냥
벗어나
##ore
수면
##만으로
##하려는
왜냐
스틱
##통이
부여
좋은거
##고루
아이라
검토
##tv
말에
인쇄
곳을
is
뭐가
포켓
청와
변신
클래식
떨어진
제품도
##ov
모르고
##바지
생일
##하라
사람들의
##실이
##테이블
4일
##치즈
##og
이들
##어의
결과를
와이
고장
##릅니다
##는거
##니가
감동
##특별
자격
건강을
향해
34
##마스크
주신
##로드
120
미안
##프라
be
통신
부동산
리얼
##눈썹
물리
서서
선크림
아무튼
##과정
##스킨
##스키
##가며
탑재
##성으로
##율을
03
##함에
##전의
아버지
##버튼
다닐
똑같은
##웠어요
되는데요
씨는
좌우
속도
손상
인제
##대에서
2주
##웨이
##들여
받아서
이내
포스팅을
이른
향상
##수있
##산부
38
2번
##어지고
것이라는
카카오
느꼈
##공원
의자
##량은
##길이
압박
##소리
힐링
관람
연기
수제
생각합니다
감자
찍고
아이스크림
##마켓
한국의
주식
무너
찾고
다니는
보실
없으면
##봤다
갤럭시
구매해
소스
얼음
인근
##200
키우
효능
소개해드릴
그러니까
처음엔
사장
거품이
본체
##형은
칼로
##500
있어도
어릴
##모를
아마도
파괴
괜찮아요
이럴
종류가
어플
##학을
그것이
못할
완벽하게
어찌나
명품
회의
건너
상큼
##진이
완벽한
##클래
무기
슬림
##곳에서
전동
##기름
디스
생명
투입
말할
등은
공항
##리면서
올리고
늦게
첨가
집을
지구
삶을
##튜디오
##하더라고요
##했었는데
##지에서
##필름
은은한
밖으로
##기준
##서의
##결이
사태
##셨다
많아요
인터뷰
로봇
2008년
때에는
##대와
싱크
##공사
##소에서
절반
특허
뿌듯
##선의
##트남
없는데
드립니다
꾸며
사람도
당황
##렸는데
요새
##동에
것이었다
에센스
##공항
풍경
빼고
##있던
지식
##싶은
##시즌
디자인을
##스런
##소독
##하기가
##인트를
데리고
##키로
pr
크리스마스
이것이
ar
직업
사랑하는
엉덩
##따라
##표를
날아
눈으로
키즈
##몬드
##후기
가습
##당한
5분
한마
퇴근
인간의
##해져서
심한
##해질
그리스
##없고
##경우
##체험
단순히
립스틱
해주고
결제
이론
세균
우주
##가장
유튜브
##cc
지금도
놀라
민족
있겠
마음으로
##ers
##방향
##게도
놓은
바를
검사
겨우
##기까지
청소년
##있네요
배송은
취급
##렀다
실버
##세서
2009년
##다이
##차피
kt
소중한
신경을
바삭
게시
그중
먹었
장갑
##병원
검정
##님은
동일한
##자면
자리에
##했는데요
스킬
스팀
##겨울
말이다
앞두고
했더니
쿠폰
##리스트
마스카
고급스러운
보았
##프가
영상을
입력
600
간단히
##세용
탁월
##했으나
마케팅
상황을
아무것도
비교적
제주도
준비되어
센터
##그릇
협력
생각하면
주름
실천
지배
버스
tr
선반
사용중
대표는
상태가
즐기는
화려한
소음
이쁘게
창업
##진을
##나봐요
달고
##수수
##로에
you
##본다
##인거
생기는
딸기
##감으로
##전기
미끄
편이라
폭발
그림을
대화
하락
소비자
통일
구입했어요
공사
##지라
##16
##igh
읽어
무리
##ist
디테일
준비를
컬러가
##마의
명의
번거
양쪽
##볶음
캐리어
10일
##쳐서
기회를
##권이
타이어
다루
불법
##까봐
##로로
빠른배송
##무를
비롯한
제안
평생
업그레이드
가격으로
##내가
괜히
기술을
##관에
본격적으로
허브
국회
cl
나타났다
바르면
등급
##설명
##가면
입은
다크
##플러스
or
물건을
어마
##라우
에이
소개해
면도
것들이
감성
195
좋았습니다
##정책
한가
한두
##단지
##결을
혁신
자고
##면으로
오면
엘리
패키지
##파우
받지
예비
그렇지만
달성
민간
의심
아이들의
알려져
마치고
클럽
강조했다
원칙
분위기가
함유되어
곳으로
내고
느낌으로
포스팅은
흰색
그에
##호텔
##에서만
옵션
토요일
##13
갖춘
당일
색상은
##치게
대여
두번
적어
##에어
##마가
인형
거죠
##인데도
상황에
유산균
3번
아닌데
남녀
분해
콘텐츠
나타나
먹었어요
##산물
대략
자동으로
더운
느낀
정부의
컨셉
쪽으로
실행
저처럼
눈썹
분류
##산화
키워
누워
##해졌다
영역
식기
##선으로
##하지않
##두는
부러
##르르
소형
질문
주머니
출력
##해주면
##24
놀랐
기회
##발을
마실
받으
##명으로
내용은
보며
이다
한번씩
골고루
혹시나
##종일
의원은
아이디어
##제품을
##타임
주행
전부터
##었다는
베트남
넘게
##해보고
고민이
오래된
확정
가치
##했기
##브리
일본의
사은품
##소로
작용
re
##군은
좋겠다
어쨌
편집
밤에
매트리스
대리
##제와
pro
수학
불리는
##살을
싱글
##메뉴
라면
많습니다
되면서
##수와
삶의
도서
소녀
오고
##주니
고마
##종이
후회
문학
##방이
얻을
##권의
##함은
물로
##기에는
먹었는데
아직은
##님께서
넣으면
주변에
두려
근거
맞춰서
외국인
##근혜
연장
감안
금지
##으므로
제출
들어오는
수사
소요
##조가
살이
유저
여기는
동그
리더
어차피
않기
##전은
살펴보
##리나
취업
##포트
전했다
##아기
추천합니다
해석
com
베이지
주문한
접착
분들께
##는가
방향으로
방어
최초로
한다면
우드
##터는
에코
좋겠
최소화
정의
마주
##조사
삼각
덧붙
매달
할때
##14
호흡
##나다
나에게
##통신
있으나
가능하고
밀어
##눈에
채널
좋음
풍부한
ex
##로션
알아서
##식에
상품을
##비아
##나나
뉴욕
사업을
끝나고
보라
레벨
원피스
오븐
중이다
막아
이탈리아
독특한
##바디
##gb
신문
1번
사실은
정기
초등
##렸던
수록
##art
강아
수건
토마토
하던
##되요
쾌적
사이트
##리너
판매하는
##pu
내는
분사
보여주는
##온다
남북
합의
##미리
##포를
최신
그런가
좋았다
권장
##더라구
##오면
피아노
중단
무늬
자연스러운
모두가
자본
##배추
작아서
##선에
사진으로
시간은
살려
왔습니다
원하시는
않았어요
가리
식으로
황금
발휘
5개
##였지만
하려고
강의
접어
기능성
제목
나쁜
코너
약한
없으니
입주
##정리
향후
사람들에게
##라의
##데이트
##되는데
7일
어렵지
용품
내리
뿌리
커다란
##민주
##하지는
##조금
##르트
##아웃
##화와
먹으니
##결과
##치료
다이아
##대회
37
줄여
##분은
느낌은
##파이
194
##장갑
세상에
정부는
중에서도
티셔츠
##크가
했다고
48
나니
정확히
베개
##이불
##상도
심심
##자연
##부모
무거운
평범
보게
용이
새누리
소재로
##러가
세종
모던
탄산
##수리
##플라
국정
긍정
당첨
능력
대통령이
손쉽게
지속적으로
##면의
관절
고개를
##가슴
높여
좋더라고요
마이크로
저희가
하더라도
넣은
고용
##선거
##지니
하나를
##거예요
손잡이
얼룩
이익
##메이션
75
않나요
되서
작업이
단백질
국산
내용이
##등에
##ack
들이
이전에
##위치
충분한
봤는데
짱짱
그래픽
작고
패드
아이들에게
주도
말은
동료
##바른
수용
공감
##라리
인기를
최근에
##all
##림을
##에겐
박근혜
##보를
끝난
##아파
##야말로
감상
아토
볶음
ip
원료
하니까
##라피
##부분에
##시공
먹어요
딱히
##ang
##조를
##설치
기회가
있고요
발효
fr
제품들이
외에
am
어두운
지니
di
플래
##카메라
증정
이미지를
나가는
##견을
##ell
##당은
실망
##어울
3개월
끝내
아쿠
파일
플랫
끌고
설명을
대출
포장이
##말고
##갈비
이처럼
빠진
추구
##둥이
백화점
##선은
보수
##어질
##지나
2시간
##루미
주소
2007년
넘어가
예뻐서
스프레이
많이들
for
일회
아메
자라
거라
찾으
메시
##투자
##호박
끝나
테이프
변화를
##통에
##돌이
범죄
기본적인
보지
##란히
##된다는
아들이
##다양
변호
##복지
순정
공정
자는
##집이
##셔요
막상
토끼
##았지만
들었
표준
싶습니다
##러를
##반찬
염색
180
프로그램을
보내고
없음
신혼
단점
답변
고고
##거지
pl
##쟁이
파우치
##먹어
초콜
##당의
매끈
##랑이
때문입니다
세련된
##낸다
입에
##아트
신체
4년
재활
구매했습니다
##ts
##시대
하죠
39
전날
일요일
컨트롤
##해줄
임산부
당근
정확하게
주시
했을
##보관
만족스럽
하더라고요
생길
헬스
##술을
분유
애견
아이는
느끼는
쿠키
이쁘고
##구입
블러
나지
참조
즐겁게
마사
초대
만져
발언
구매를
##했더니
결코
보러
맛있네요
토론
##이제
co
사각
디자인의
##어졌
중소기업
없었던
##어마
혈액
꽤나
할까
##페이스
넣을
go
##스푼
경북
##았고
##금융
##로마
게임을
리본
##드린
때부터
화사
##세제
##셨는데
편리하게
리모
피로
##되었고
빠르
15일
kbs
##법이
탄탄
얘기를
저기
ap
##부로
담고
처음부터
##시티
##항공
트리
##청정
##실로
보온
##그래서
한동안
부담이
마르
듀얼
품절
드네요
담긴
비롯해
##계에
걸려
기다리
##부와
고민을
방침
이어폰
2인
명절
어머
##었더니
케이크
발을
군사
다음은
##물과
ss
##여요
바르는
찾을
##메이드
비상
##차게
추정
신제품
싱싱
##이든
매치
돼지
인지
연말
좁은
보인
하시면
규정
##보이
##받을
믿을
창조
되더라구요
##라를
an
##보리
##인테리어
##관의
신상
사이드
cd
혐의
##배를
##전화
##레인지
42
##용도
한개
샐러드
간장
##자이너
##골프
촉촉하게
미친
획득
99
##환이
비록
##밥을
##겨서
##연합
##법은
추운
##건설
##미터
##스턴
크기도
타임
지나면
올림픽
유발
##ine
느낌도
##하려면
##먹으면
con
##기구
##하라고
체결
미스트
완화
열리는
복용
부분도
##보다도
##저분
en
올해는
우수한
반대로
활용할
안으로
##스프
능력을
후기를
수강
물질
##부분을
잔뜩
임대
비치
이뻐요
##도어
20일
##분간
##분기
##되네요
스펙
마시는
##오래
치약
말해
신나게
바지
형태의
상태를
##주셔서
##다보
애용
합격
속눈썹
합성
먹던
##즈를
##주년
호박
##류의
들어가면
출판
같다고
사상
종류의
말도
오리지
모드
차량용
제공하는
초보
##어링
##감에
빈티지
페이지
아랫
거짓
포도
##먹기
##국을
가깝
마우스
##시나요
##량으로
주지
든다
따뜻하게
사용해야
폴리
##이번
##재로
##할지
##ard
##모로
민감한
그렇고
쟁여
내놓
써서
de
좋아해요
##린이
##시한
65
##하진
후에는
알려진
무료로
국회의
##호는
##입을
##스러워
##해가
##듯해요
##촬영
##ra
대하여
잊지
기다리고
사진찍
제3
만들었다
아름다
속이
엄청나게
애들
것인가
밸런
오디오
채소
##치기
마스크팩
도망
le
사운드
주문해
##하는데요
##추가
##유리
버전
소득
##평가
타는
작품을
사용할수
번에
지하철
자기가
##끄럽
##쪽은
좋으
##수건
본인이
관객
잠을
좋았던
800
##예술
##야지
건전
리그
상대적으로
##관에서
sns
개정
상쾌
국립
##팩트
상대로
등산
##유가
드리고
##질러
##봐서
대통령은
찾기
정식
##만은
##나와
좋구요
##하구
어디에
들을
##잡고
##면도
##시험
하신
##왔는데
wh
신축
향수
달라고
상호
아래로
자유롭게
##인들의
바쁜
사용되는
##하이
공구
두껍
있긴
컬러로
태어나
드레스
##하지도
##리얼
일도
의혹
##음에도
높다
##드려
##선수
스트랩
쓰러
##조리
아트
이상이
44
##냐는
조절이
위협
저녁에
채용
##서비스
저런
##되었어요
줄어들
##부분은
닿는
도시락
흐르는
어떠한
포함한
버터
어우
비즈
##재가
##어에
매직
정성
##병을
추워
운행
##계절
본다
##이익
쓰지
튀김
가라
##하자면
관찰
해준
슬리
생선
얇게
여러번
같기도
##플러
나쁘지
하였습니다
선명
향은
떨어지
증거
강하게
아이들과
비율
##서로
두꺼운
허용
않네요
신용
##비로
##석은
핸들
##체육
외교
##조의
##자동차
사이즈로
##pc
가만
##이버
선언
##센트
튜브
##조합
몇개
드라이버
날짜
심플한
초등학교
않으
웨딩
활성화
아무런
밴드
월요일
##모두
##바퀴
조금은
먹어보고
유용하게
250
##하였고
경험을
##이런
##반기
no
극복
##봤지만
이로
요소
급여
많지
생각한다
고르
##버리
##포인트
미끄럼
분은
##체는
스노
알려졌다
없기
##연을
##렉스
##만간
##동생
햇빛
##님께
오징
##어여
끝이
혼자서
##17
그러한
목걸이
더러
재정
##장한
부담없이
되어있어서
모를
##이팅
지닌
마리
##관광
진심
사람들을
제도
##시까지
##곳이
아저
있더라고요
디자인은
데뷔
돈이
##렸을
좋겠네요
발생하는
##프는
시크
창의
만두
샌드
베란다
배변
여론
쫄깃
아님
커피를
쓰레기
##스레
##인것
전체적인
같았다
심리
##볼게요
##스파
하단
생각에
저희집
애기
프라
##실한
옆으로
보냈
나오지
브레이크
의뢰
좋을것
더더욱
응원
차분
##주차
일자
##해보면
나이가
포인트를
개운
##한국
홍콩
편인데
물고
##환을
피자
정도가
말로
##할게요
맨날
세제
할지
다를
##적이지
주문해서
##형태
연예
빛을
주시면
##팔찌
신경쓰
다녔
##인에
그릴
진주
이지
리필
판매하고
대선
교수는
공장
기여
되도록
생각했는데
실현
옆에서
##터리
##비의
거주
애니메이션
머물
##자전거
##브릭
의류
넉넉한
##목이
아크
명이
선물을
둘다
##납니다
많았다
무언
##완료
미디어
읽고
진행하고
##여러
포함되어
##사이트
##대도
올린
어쨌든
##te
전에는
준비한
물론이고
##으론
##주시고
##ill
##종을
고등
여름철
sm
레이저
##코리아
##적으로는
##코드
##만으로도
메모리
##권은
##고추
광택
근로
##겁니다
##상담
카톡
##비용
6일
체계
맛있다고
통화
블록
디저
##중을
제외한
##졌습니다
05
##구석
연계
로고
건강하게
신선한
그러다
##씨의
대기업
서울시
취미
관리가
##손으로
##니티
국물
##당을
넣는
정규
선택할
이라
43
훌륭한
##추출
계속해서
구입할
받게
전남
키보드
##드라이
편리한
미끄러
14일
죽은
##적은
해소
200년
갈라
정착
##ass
인수
500원
확산
일부러
##까지만
미세먼지
##구역
##국은
걸린
승리
모르겠어요
푸짐
##필터
지내
##코팅
##양을
##들만
확인하고
##미니
포근
##학적
내에
##에서부터
##네일
##ok
명령
나선
손질
##액을
##사무
견고
마트
배려
아이들을
##소의
##매를
##영화
즉시
##ta
##드리는
아픈
##스도
##원과
업데이트
##가격에
##었거든요
##무게
##타이
천안
##스텔
수월
깊이
##무늬
활발
원래는
생존
청소를
##말이
투표
뮤지
##버렸
20분
거듭
겨울철
##가게
수시로
냉장고에
가득한
씻어
저렴해서
한가지
##로의
##라운드
네트워크
무엇을
##시간을
걸리
ph
캡슐
냄새도
이름은
##심한
쫀쫀
##경이
##해서는
푸른
##협회
벽에
##신의
뽑아
금요일
진입
급하게
종료
모집
위주로
노하우
##대체
구간
##피가
번역
진정한
##망을
아니었다
이르
by
뜯어
가이드
##법에
##cd
파스타
25일
8일
있다가
이야기가
개혁
##스포츠
##사실
조카
섬세
##볼까요
별도로
##차례
적절한
의외로
##왔던
입체
바쁘
보충
용도로
일체
받았습니다
생각했던
부위
감염
아이들도
유일한
##구이
이걸로
##십시오
등에서
되지만
메탈
올리브영
보안
##제한
모른다
##작은
생활을
음악을
밖에서
원두
오프라인
바닷
내게
##우기
있으므로
my
흡입
가져다
##클럽
이용하는
트위
출전
과자
##산의
mbc
아무도
탄력
먹어서
있으니까
##랄까
한마디
##받침
##일러
##등록
특별히
##피언
##률을
피해를
했었는데
##겹살
맞은
유도
##낚시
##드러
##테크
##아무
##이었던
직후
기운
번호
이것만
예정이
국민의
##충전
긴장
불을
바나나
있거든요
거라고
그러니
크다
##있을
문자
변기
생각도
것이라며
##이크업을
점차
##밴드
것이고
특성상
##아는
엄마는
없었어요
##아의
전개
##iz
##하겠
바라보
##맞춤
올릴
아울
구입해서
베이킹
30일
##줬다
이상으로
분명히
금속
##비누
지역의
어마어마
조만간
현상
신세계
교과
순한
보완
##치도
##국에
입는
건데
소모
합리적인
만화
##방의
득템
발이
얻어
##맛을
하셔서
한층
구현
창원
2018
모양의
##글로
친정
편이다
하거나
##발이
##링이
어려워
괜찮을
방치
하루종일
장만
선글
많을
않았는데
##냉장고
##하겠다는
마스터
되었고
현관
감기
건강에
ad
걱정했는데
나만의
꿈을
##질의
##워시
관광객
계획을
##임에도
##말을
##인원
까다
##돌아
점도
##토리
지저분
12일
취소
매입
2006년
정치적
##ive
아시죠
순수
볶아
상자
고통
마른
다리를
적극적으로
구글
애매
현금
겨울에
##하셔야
##시간에
스튜디오
파손
굿굿
##중에서
9일
언젠
잃어버
##ue
스웨
##보다가
치고
어린이집
##케이크
싶은데
11일
있지요
##세정
중국의
기다려
대통령의
##바구니
보급
##가스
소통
친구들
탈취
바이오
간식으로
##백을
나옵니다
단순한
똑같이
중요하다
##라테
언어
도톰
커튼
텐데
하였
컬러는
클리어
##수있는
##스트를
##격이
전화를
세상을
##ity
명칭
똑같
10시
나오면
평화
##기사
자석
##인들은
##았을
해가
##브러
##니는
저항
##자들
우연히
스며
좋은것
사진과
그들이
상의
사로
지갑
잡은
부부
##시작
디자이너
되니까
양을
구비
##ate
적합한
ma
시내
##도에서
지상
팔찌
근처에
위치를
올라오
##중간
정비
필요할
##미술
##인증
식사를
##산은
예측
193
##군데
맞지
##었죠
색상도
망설
##300
자리에서
의미가
동반
만났
것이라
설명서
24일
##장애
버리고
사이즈도
세로
환경을
세면
##지네요
##려나
공통
않았던
하세요
##앞에
##기면
49
컬러를
26일
들은
##해주신
신속
##찌개
2가지
##지구
##초에
세트로
##케이션
만남
이모
싶다고
입장을
최선을
아니라서
##권에
사기
있기에
사용가능
##재인
창문
같지만
짜잔
16일
##박이
완성된
별도의
##다니는
##시계
놀고
아카
##마는
구성된
움직이는
사실이
로드
##셨던
버섯
기기
넉넉하게
##치와
맑은
불편한
피지
복지
나은
재미있는
모임
가전
진열
가치를
##을때는
보이네요
일이다
재판
17일
지난번
심하게
들어있어요
##르신
모양을
##연이
아이와
##물관
##드라
희생
13일
##풍이
##하게도
때의
매장에서
##편이
##사도
셈이다
##과도
전후
깔아
부지
##나이
흥미
다르다
관계를
##기에도
##di
##교통
##하셔도
##함께
##시리즈
안고
멈추
##세로
갖추고
매력적인
23일
제형
얼마전
나아
같다는
##나물
##실히
알파
##루미늄
##명에
27일
주셔서
한복
##줘도
요가
18일
입학
21일
나뉘
재배
22일
un
브로
##차에
현상이
##중앙
2만
해먹
확실한
유연
있었는데요
##bo
우측
se
##하시길
살살
달린
##렉션
예민한
회장
친구들이
레이스
##저히
주말에
##소득
무상
고맙
쓰다가
섀도우
도쿄
의무
##블랙
것인지
있음을
업계
법률
안좋
미션
초콜릿
##케이
미네
선사
##딩을
모르게
여기가
포장되어
맞고
##시스
이번에도
호주
##블러
어우러
##때가
수업을
모기
적립
##크는
##버터
아쿠아
남는
28일
부어
보낼
##입니당
재료를
몇년
##요리
##전용
간혹
주관
##셨나요
모습으로
힘들어
##자들을
시간도
도어
소매
##서야
구두
##진은
##ik
##인지라
##입고
뒷면
47
##하기는
4가지
같더라구요
신랑이
해보고
페인트
염려
감정
이상한
##스피
##보실
##되어야
향을
##바라
##군을
자극이
변화가
##mw
근본
스탠드
##차로
빠질
##료가
공주
몇몇
##pl
제품들
01
이렇
##공을
분노
##해줍니다
페이
패스
작아
커뮤
한창
##브라
달콤
19일
표기
타일
##법으로
##망이
##교체
활약
부문
할아버
사람에게
동의
경우에
들어온
보증
등과
##자들에게
용기
부담스럽
##했다가
크기는
##다음
기업의
##내기
##브라운
700
받았어요
20년
대규모
##득한
본격적인
##저리
##메이크업
##란드
장미
가족이
스텐
스토리
실질
뿐이다
##문학
몬스터
말아
무거
싶다면
##감의
##막이
46
플로
##등의
경험이
수수
않는다는
시골
##우가
아이라이너
좋아할
뜻을
데이트
##추럴
것들을
해피
모터
정당
##들어가
사용합니다
교육을
오리지널
상당한
게이
비주얼
왜냐하면
물놀이
##고리
집이
##차량
##포가
##오니
##루션
동원
아끼
부르는
##연의
대책
불어
컬러의
축하
##으로만
##다양한
가수
어렵다
주장했다
먼지가
##아이가
##넣고
역대
##유럽
공을
원인
마다
알맞
달걀
##레드
호기
목적으로
키우는
떡볶
모으
물러
##좋게
니트
dv
sc
##막을
##성분이
##활동을
##푸드
일회용
지성
트리트
노래를
시스템을
거친
##것보다
사면
52
##식과
라이프
탑승
더워
안쪽에
찾은
크레
##ie
생성
질병
간편하고
##영양
##지갑
##메가
감독은
좋아용
싸고
봤어요
##테이프
장면
##의자
날은
사이에서
수십
85
이곳은
##해주셔서
##월드
써도
구속
스크린
체육
64
주어
출입
##판은
현재는
끼고
##일보
무사
속옷
확실하게
##가죽
왔네요
좋아하는데
전력
##조림
##백화점
스테인
##되니
아래에
제외하고
1천
밀크
애들이
##할인
창출
##훈련
효과도
있겠지만
마스카라
잘어울
##각을
##이었어요
느끼고
지원을
##드름
적게
##선택
연령
일러
최초의
##렌저
덜어
차에
규모의
다리가
엄마의
발행
심각한
붙이고
보여주고
##ight
at
없게
아빠가
##동의
그럼에도
지휘
##거죠
생각은
##저희
new
잘못된
반가
위반
만족해요
##곳을
배송빠르고
레스토
##스포
##깔끔
뚝딱
기어
하이라
상품은
자가
##상과
##발전
복귀
대변
데이
연휴
2회
평일
보낸
확인해
##실은
설치를
##러리
코로나19
##위에서
접촉
정작
독서
##블루
사진도
##밀리
평가를
한나라
##임없이
##부장
용량이
술을
운영하는
트럼
녹색
생겨서
단일
##아니라
##대신
마세요
공기청정
디스플레이
##사인
무리가
##부들
늦은
담백
하하
##텍스
친절하게
공간에
소장
이들이
노력을
3층
##해진다
비난
##치면
상위
먹지
##이면서
난다
당선
앰플
해주세요
66
디자인과
적어도
크리
신중
##단다
##pg
##음식
하트
고기를
넘치는
진공
오브
일산
##코스
##타를
br
에어프라이
발랐
먹는데
주문을
포항
라디오
죽음
알루미늄
##되게
왔는데
해주면
갑니다
요리를
저에게
있는게
느낌이에요
##양의
2017
##놓으면
장시간
2005년
##파를
은은하게
##처음
한결
상관없이
티켓
이케
도구
탈모
연간
##조는
측면
가능하며
가격을
셔츠
사용하실
개인적인
##버렸다
씨가
월드컵
보았다
조언
작게
하기도
노인
영화를
##팅을
듣는
##인터
##디에
##었다가
섞어서
속으로
##ver
##아빠
난리
##종류
##편에
이유를
##선생
##꺼번에
##우니
향기
##만들기
##레이션
기호
진동
##광역시
수영복
파트
소년
측은
##뷰티
##미널
##이유
선배
여긴
##님과
팬티
사용하게
##뉴얼
드래
곳곳에
덧붙였다
너무나도
펌핑
해줄
구매하고
##이용
기부
##프린
사이의
##씨를
국토
##마루
빛이
##요즘
하는지
##ith
컨실
##학습
우아
오늘날
일어난
##학원
말려
냉장
이루어
양치
프로젝트
##시켰다
준다고
소고기
당신의
보존
나오는데
##비와
대해서도
환영
영웅
##것만
적고
보시는
파라
최소한
연합
갈수록
마라
의미를
마카
##했는지
입혀
제로
방해
손바닥
이란
간다
튼튼하고
모유
##도도
했답니다
사용방법
발사
##안은
스크래
시그
열면
모습은
##성장
col
사용하는데
발목
소식을
맛나
매주
##파티
##기념
국내산
기록했다
썰어
2020
녹차
쌀쌀
좋겠습니다
##달을
생태
##웠는데
이태
잡는
##센스
땀이
떨어뜨
가만히
##승을
실시간
소니
등장하는
##맛집
한국에서
두툼
없죠
파인
나왔어요
##정과
넓게
##고객
##즈는
##음악
스포
##롭고
먹여
아이에게
구성이
전체를
접속
모서
출시된
59
##반짝
건지
##경찰
분들을
im
학생들이
시작하는
2배
어색
불리
하나인
복원
혼합
어려울
챔피언
원형
##졌고
골목
된다면
##소스
밀가루
유닛
##시와
길에
세탁기
##억원을
강원도
##대문
900원
그야말로
##건을
##이었는데
쓰게
스펀
56
주니
개방
수납공간
##베이스
물어보
배를
먹음
##로지
10개
아니에요
수준의
보자
출고
##가면서
이후에
명확
##길에
있으신
탈거
데미
휴가
불이
버블
##수업
##용은
##주시는
리조
##확인
떼어
한눈에
95
이후로
전년
닭가슴
그러므로
##age
04
자율
##거리가
##줬는데
들어와
작년에
##이구요
슬라이
보건
케이
##음료
##대화
##이긴
자랑하는
튀어나
매일매일
좋겠죠
벌레
소식
bo
##헤드
##마크
##온이
cm
vs
미백
##하므로
먹게
들었던
한꺼번에
54
지적했다
그러고
괜찮네요
성능을
신경써
##했을때
구강
지루
기대가
용인
거대한
기쁨
틀어
##완전
##작업을
##경영
된장
##금액
사진에
통하여
##드리겠습니다
##들이다
##자체
플러스
퍼즐
비벼
##인줄
언제든지
##속에서
##상황
어울리
보시
놓여
##노트
있겠죠
입어
보상
##들에게는
up
1호
문서
튼튼한
##이었습니다
동아
궁금하신
부천
##골드
마친
꾸미
렌탈
집단
찾아서
선진
참고하세요
2019
여기까지
##파우더
진단
##블릿
노는
가방에
고향
##로만
원인이
부서
가시
해양
부작
당신이
la
뽀송
새누리당
##버거
안먹
있나
수확
이슈
양배추
##매장
##반지
테스트를
기다리는
철거
##언니
얻은
체중
이벤트를
되며
검증
##색은
##바이오
도대체
##eo
사진처럼
거에요
되었는데
단점이
##거야
에피
선호하는
##관련
##국제
##선물로
##22
문재인
안방
안맞
꺼내서
깨끗이
경계
슬슬
체인
고급스러
압축
국방
도착한
좋답니다
마구
##보가
이마트
##클렌징
##마일
##신청
09
가능해서
탈출
찍을
내에서
결과가
길이가
##오프
전신
규칙
경기를
민트
어느새
영원
레스토랑
전주
##질은
##차단
원활
방에
##어와
않았습니다
##타운
##봤는데요
어르신
볼수
제작된
전공
타이틀
##민이
몰려
무더
##타는
cpu
말한
시기에
재단
6개
##세의
##ub
사로잡
간의
더욱더
문제로
##가리
##기에서
아메리카
소문
##캠핑
반려동물
##민의
이달
않았고
눈치
나들이
##안으로
##발라
##약한
부드러워
##르몬
##이라니
억제
##기저귀
캐나다
협의
각자
##려고요
때에
좋을듯
고등학교
비교해
털어
머리에
대처
위치해
올바른
##상에서
공포
##너지
달콤한
시장에서
보송
씻고
그녀가
##per
거칠
구멍이
학원
출장
##미의
침구
##led
잘라서
공무원
자전거를
바뀐
##에이
않는다고
##직원
원작
##해주시면
af
##겠다며
##근데
수능
gr
관련해
##어리
성적
시작합니다
평범한
바늘
he
김영
반응을
하구요
불량
컨디션
수도권
06
다름
##스티커
박스를
본래
##35
디스크
패널
마셔
발송
20대
##장치
##준다고
##만두
젤리
반려견
괜찮고
양면
만들었어요
한답니다
라벨
##듭니다
먹었다
갔다가
나아가
투명한
##나의
파리
##성능
자원
##효과가
##시원
저번에
상단
##피아
돼지고
##님을
##sp
##자리에
등도
보아
원을
그러면서
거리가
감탄
오직
몰라
##중입니다
##론을
배고
대학생
농업
##가와
저한테
배워
##사들이
저번
##엄청
구입했는데
능력이
##쪽이
골랐
유사
##간식
off
##ect
청와대
##세는
##그린
고를
##놓을
##프의
거기서
15분
##셨네요
구성품
예정입니다
비디오
메이크업을
##만원을
바꿀
세포
내린
뉴스
정말로
##약이
부딪
들면
길고
어울릴
무섭
##용으로도
설레
트레
##마사지
사이즈를
색도
내세
이웃님들
무대
##얼굴
##립을
소환
명예
##저렴
##거라고
##시간은
##이던
생각한
다녀온
쓰는데
차이를
192
보내는
색을
##하의
애정
탁월한
환자
했으나
채택
안하고
과정이
##박한
##인에게
싱크대
##분들도
1분
##히지
콜라겐
##제품은
##빨리
전망이다
##이기에
클린
##파가
190
위치에
깨끗하고
그라
##문제
최근에는
박스에
##아침
##프로그램
똑똑
속도가
난방
연극
##조각
모양으로
본인의
발생한
##답니당
##페인
담배
반지
##보내
보여서
##날이
함께하는
24시간
이들의
봉사
29일
##스케
이상을
수비
시원하고
넘넘
시작으로
순서
저를
색감이
##터치
##구리
증명
##노동
테마
영혼
회장은
강제
간이
압도
##파는
숨겨
##주지
새겨
쪽에
낮잠
일명
톤업
##만큼은
우울
##냐며
높고
재미있게
플랫폼
갔는데
팔레
##힌다
##담을
접수
목숨
##one
한강
행동을
##속으로
2004년
미사
##케이블
##구멍
##시에는
한번도
##졌다고
허벅
##전으로
나와요
이명
만들었
곰팡이
들어있어서
시술
##유로
##타고
스타일의
##건가
못한다
추천하는
##긴한데
질환
만나볼
##벌레
기술이
1도
나섰다
공략
신호
악세사
싶었던
##개는
현장에서
혼란
##색상
올리는
##생산
카드를
가능하다고
유래
##돼서
귀엽고
흘러내
별도
철학
열쇠
지금부터
행사를
먹을수
일에
중반
중독
워크
##직을
음식물
##닐라
한반
##독교
성남
##보습
이것을
##해드리고
이곳에서
방안을
취향에
스페셜
가질
##치만
공부를
튜닝
매장에
요금
쿨링
말끔
##수영
##21
##으시면
동봉
크기로
묻어
통증
##비도
로마
차이는
안성
바로바로
윈도우
유일하게
홍삼
##역에서
장관
##지않은
죽을
밀려
배추
바꿨
비빔
##합니당
저지
하는게
생생
##클래스
58
##크림을
##트도
fl
설득
못해서
시장에
##숭아
시작된
아니라는
##생활을
쌓여
의식
쌓아
몰아
구매하는
##율은
기대를
발생할
##se
웃음
##간단
##재는
좌측
빌려
정수
되었네요
##당에
부활
##mi
점이다
화가
바르기
우린
좋아하시는
##리다
느끼게
모르겠다
조그
정체
카운
##형에
작곡
임시
부들
찍는
전송
900
투어
안될
시나
액션
기원
##청은
패브릭
피부톤
떨어질
소송
전복
사용한다
##쥬얼
##관리를
스페인
끝났
문구
##모르
오징어
##았다고
미네랄
목표로
##맛도
##안의
##질로
9시
필요없
노릇
##거는
##끈한
##구성
##있으니
##았는데요
일시
챙기
##둘러
치열
두부
순식
파이
보유하고
도는
gs
##디아
혜택을
##하는지
가동
##거리를
논란이
##ex
못하게
재미가
널리
나갔
##르크
맛있었어요
플라워
자금
##질도
넓고
책임을
뒤집어
안정적인
세번째
문질러
교회
의견을
주거
##하거든요
##개선
충남
소량
##전부터
##디스크
##국에서
나누어
카라
경제적
푹신
쓰이는
##았네요
반도
아로마
바로가기
차가운
##일까요
매콤
빠져나
##일랜드
활용한
양산
응답
런던
각각의
넘어서
기가
과감
고른
##진의
버리
차라리
지역에
거기다
제품들을
##장난
레인
인구
인스타그램
##쉬가
따져
무렵
안에는
고민하다가
##저녁
조기
##닉스
과도
##이미
새끼
11시
칙칙
식초
##매가
첫날
포스트
##류는
폭풍
서비스로
처벌
##타워
활용해
자료를
##데기
장점은
구입해
탓에
##놀이를
##렸지만
세부
개성
##라미
앞뒤
보았습니다
셀카
##라이프
##또한
오지
해줘야
##모드
들러
##팩을
##나니
빼앗
얇고
맛있다
맛과
77
유분
##튀김
##지않게
품목
만나는
제품인데
이름으로
mar
돌아오
후원
##아파트
없다면
코스트
망고
##포터
클리
다음에는
부인
가보
제품과
베베
##시키기
매니
물기를
미루
분홍
빵빵
##않고
##격한
##ib
구름
##갈때
포트
나타나는
##수분
##방에서
눈물
##ant
##지않아
##고속
준비하고
보리
마지막에
가정용
말았다
돋보
개인의
태어난
##머신
110
청결
##던가
1억
늘어난
무역
그에게
올라오는
키가
잡을
##었음
모르지만
비용이
주제로
##렬한
기본으로
노폐
써봤는데
지원하는
53
가라앉
넣어주
발바닥
외관
아이도
##이므로
##지금
이기
지금의
움직임
주력
수분을
야간
시킨
있는거
시야
최강
삼성전
귀걸이
##바를
향기가
3분
믿음
##겠더라구요
##베이터
모른
제발
납니다
던져
##본부
액세서
여성의
규제
심장
##것처럼
전설
연상
알레
빠지
설명이
숨어
##조끼
필요하다고
텔레
##안에서
상담을
짧게
##텐데요
것들
역사를
추천해
제거하고
##우드
욕조
서버
분들이라면
인터넷으로
분당
잠이
들지
##헤어
스타일을
몇일
싫어하는
##ob
코드
걸리는
시작해
##러브
동양
스토어
예전에는
현재의
방향을
형광
생각할
##일반
고소한
나요
##메이
##하느라
##체로
말하고
다이소
방식을
갖게
눈길을
상품이
후드
##하자마자
같았어요
낮아
##서울
수집
##되었던
##보았어요
주었다
리모컨
미러
트렁
##라니
찰떡
##되기도
##맛은
구석구석
나눔
##병에
##명과
퓨어
대우
포인트가
##증권
경고
충족
했는데요
필요합니다
좋아하고
보여요
뮤지컬
유의
마루
##구려
행위
소방
봤을
봉투
보스
경주
이어서
장르
운영하고
4대
어쩌면
아니라고
이루어져
조화
건성
자신에게
많지만
마크
언더
##유아
보정
##문은
단어
일행
먹으러
블로
자리가
##터로
##까진
##건이
##무는
먹기도
깨달
부대
아프리카
만만
##내에
곳도
아깝
선택을
##특별시
한입
##ma
##야구
받아들이
후에도
##해드립니다
유독
결승
잠재
버티
주의사항
cj
줄이
여수
감이
##검사
번들
##함도
##이건
축제
온갖
먹고싶
계단
못했던
갖춰
스틸
57
순하고
했다는
##호의
##시지
##락을
집행
책은
블러셔
##쇼핑몰
거리를
라운
스타일링
##식당
일하는
보시고
올랐다
##23
정보가
부상
##률은
##세에
인체
북한의
하시고
소주
스윙
##일드
##되었으며
##투어
##으러
2016
동기
##계는
##병이
날씨에
거슬
##버리는
잇몸
아리
##그네
공격을
짐을
상업
##감독
시선을
반응이
##바다
임금
항목
대만족
삼성전자
배울
삼겹살
##이니까
안전하고
빠지는
정돈
##이거
들어가지
##블리
깔고
##즈의
##질환
없었는데
내부에
진행하는
당신은
##공급
콘서
무엇인가
촉진
##행사
##식사
색상으로
홀로
##평을
발굴
코리아
##산에
그닥
##이어서
맞춘
운용
오피스
##자주
구체적인
ms
쿠팡
작성한
클래스
말하면
장마
뜨거
리뷰를
대만
종목
국내에서
편해서
독자
들어올
보여드릴
사용자
차원에서
##욕을
죄송
몰라도
##가도
기능은
시장을
줄을
번씩
테크
성분을
##셨으면
꽂아
##년간
되어있는
방울
달달한
##으면서도
##스토어
뒤를
##공예
곳이다
비해서
털이
3대
##아직
전형
##곳은
찾게
벌어
덕에
##만원대
##함으로
##가능합니다
##자치
통통
##하여야
착용하고
높게
네가
닭가슴살
방영
하얗
바람을
스커
##ice
만든다
크지
받침
##유연
참으로
##들어요
돼서
막을
3만
진보
순식간에
스푼
의하면
회사에서
##점의
변형
##했다며
아직까지
배수
곧바로
##ure
그렇다
pd
취득
##해온
태어
않다는
태블릿
사먹
##기나
잉크
사람들도
##드레
세대
한장
스테이크
그다지
옷이
뿌리고
버려
##ry
바구니
괜찮아
시킬
다음으로
두루
##라이너
##28
기독교
원내
돌려서
조금이라도
이왕
세럼
전원을
색상을
##다녀
없던
ds
녹아
정도면
아크릴
추천해요
제품들은
무게가
주부
대화를
##연한
##채널
##의원
##ge
bmw
##반을
##보들
의존
수동
360
##터의
엄지
##ick
증상이
보이지만
##었으나
속의
##종합
아기자기
다짐
제어
##주어
물품
습관
2002년
김정
환불
높이는
지났
욕심
먹다가
##콜라
긴급
##움과
추천드려요
사용하시면
서울특별시
##치마
사용해보고
창작
##자재
돌아온
평상
##26
##저도
자체는
많다고
##올림픽
아이돌
그렇기
요기
대사
사용하면서
유선
##가에서
한화
##스트로
##하시기
일종의
##미노
##공업
팬츠
제이
##와도
즐기고
이너
받는다
방식이
놀라운
##our
입문
치료를
유효
##화학
사다
##했으면
갖는
먹으려고
숫자
##차의
일자리
체력
##여기
목소리가
주문하고
자켓
##대상
##미로
##때까지
연료
대법
##밀한
3시간
##마이
##화장품
##중고
이승
않으니
싶다는
레이어
대량
이런거
디자인에
무엇이
그와
##액이
잡아주는
바느
편리하고
##우유
##있으면
찾아보
맛나게
##즈가
중요합니다
날려
맡아
##시절
##으려
마켓
제공하고
160
##풀이
무난하게
여겨
들더라구요
지니고
싶었다
##27
이어지는
묻어나
부들부들
이천
##받이
선택이
라이브
양은
느낌이라
대장
후라이
키친
방법도
하이브리
친구들과
컨실러
맛나요
캐논
패배
싸움
들어갔다
몸의
기반으로
봐요
##편의
보들
진지
##벨트
한우
##hd
내지
드레
대상이
마스크를
##효과를
사이즈의
집은
한국에
잘되고
고대
##더를
튼튼하게
##라지
시작한다
쇼파
##판으로
##ast
숙박
전세계
연어
3종
속도를
인데
입장에서
88
얻고
배운
도와주는
믿음이
데일
사용해보니
말랑
브리
##줄을
##체인
에피소
##피부에
##하듯
다음엔
1위를
2003년
발라도
보여준다
돌파
반짝반짝
화장솜
지나가
##야겠어요
페이스북
드럼
##시킨다
##순환
sbs
##이식
만족스러운
##강아지
취임
브랜드의
##줄이
클로
영양제
중에는
듯하다
깨닫
부채
이끌어
회사의
알아보고
##방으로
떨어져서
##새우
사용전
##되었다고
티비
칼슘
스타벅
간지
4번
##였다고
재능
##ix
문제에
##여자
생강
나타난
이해가
스프링
나란히
시장의
##장비
최상
비추
##다닥
##하길
##ha
체온
##감사
##소와
##짐이
식감이
##할것
##섬유
끊임없이
색깔이
지불
dvd
##루프
그림이
해운
양의
3회
커버를
소개합니다
##퍼를
삭제
##웠습니다
안전을
원데이
##이요
어지
놓치지
##걸레
폭신
자세를
걸음
선풍기
아담
부각
포르
것이며
옥수수
찍어서
돌아가는
##커스
##mb
##45
균형
제작한
##고의
만들어져
마트에서
##이사
제모
##고민
##물도
먹었습니다
상하
복잡한
어둠
##때문
결과는
##이네
배우고
##운영
이외에도
들었습니다
김밥
잘쓰고
##하는거
위기
칼라
지붕
##부착
##미디어
포함된
단축
최우
모델은
##부담
숙성
휴식
##워터
안드로
없더라구요
유용한
##중에는
사냥
##늦게
기아
없어도
읽는
안티
더해
##렸고
##속을
텐트
##에게서
도저히
반발
##좋네요
엉덩이
지름
방문해
올라가는
모르겠네요
인사를
믹스
써봐야
꿈꾸
##친다
귀찮아서
보이시죠
여의
당분간
가능성을
##자나
솔솔
블라
신설
하러
있잖아요
비정
온몸
##ort
##셨을
테두
유치원
##서와
반사
##아닌
##할듯
세가지
자몽
##달록
하우스
다니면서
세미
##ind
적을
팍팍
##돼요
##랑은
여름이
데코
##보로
종일
견과
라인을
버릴
##ong
with
놓아
크로스
자칫
##마늘
예고
이루어진
##인도
색감
발견한
카메라를
##직접
통제
대체로
미역
여튼
진행되는
##달라
절약
##주도
묵은
##실의
아티
##록달록
자산
##중의
말라
도장
##베개
맛잇
너희
짜증
돌아다니
##꾸미
기재
먹었던
##시코
씨앗
김해
심사
그래야
##전쟁
생각해요
육성
##ath
성과를
아름답
##토록
빛나는
다듬
해당하는
##하기에도
##올라
몸무게
주시고
바꾸고
남자친구
##에어컨
부추
언제든
일제
대폭
##목걸이
가량
선을
##ree
##예정
##해지면
컬렉션
##터에
##소리가
ps
##교를
간편한
흐름
##청소기
##치킨
도심
ok
me
부위에
##었으면
달라붙
##코트
##들에게도
하도
주먹
세계적인
##북도
생각했다
위치하고
##소다
방사
권한
##페이
내추럴
트러블이
캐주얼
##36
##서비
납품
받으면
잠들
##열이
거는
껍질
말씀을
가능하다는
1주
##지며
여유가
덮어
공룡
##인들
녹음
서브
##층에
집게
집에서도
08
##화에서
궁금한
가치가
사용후
##복합
텍스
살펴보면
ai
##없다
생략
##더스
디테
##협의
헌법
동생이
##모션
이재
##있음
목이
이리저리
우리에게
##하신다면
없으며
매력이
면이
##소개
않다고
도포
##선에서
장치
면접
물었다
##패를
##ock
오이
##녀석
타입의
아울러
볶음밥
3단계
##pe
중의
해변
사랑스러운
청주
낮추
빨라서
사용하시는
##int
나가서
청구
기업이
식물성
2호
발급
호환
붙이는
인데요
했네요
면에서
위험이
주입
물과
되어있어
휴지
빨라
##활성
쓰여
부담을
차량을
되더라고요
##패션
##침을
올랐
##스라
보여드릴게요
브라질
##분야
##주면서
정신이
수준으로
##때부터
시장이
##계약
어딘
더이상
##경은
줄이고
최악
부탁드립니다
음식이
극대화
하기로
올려서
지어
2015
보관할
복숭아
싶지
번도
##고에
크루
구운
열이
뚜렷
잘나
7시
##pt
띄는
무관
쳐다
중학교
##선과
이니
각도
없었습니다
##영상
##산성
장례
##단과
##졌던
어떨까요
날카
없었고
부츠
끝나면
목에
할까요
생기고
##그림
##워진
기둥
효과적인
##나를
내리는
##디가
소재를
배우는
순환
않더라구요
공모
그러다가
네이비
##반의
써본
사건을
##역에
관계로
가방을
매력을
1조
디저트
정도를
서구
할게요
유니크
##전과
찝찝
규모가
##기계
세라
정리해
사람과
프라이머
촘촘
꽃을
누르
공원
##쓰던
##베이비
##해주시고
즉각
##하기를
학부모
제습
lcd
##펜션
소변
##ial
자체를
안산
첨부
달래
오일을
##소음
비용을
##ite
##ade
시장은
발표한
별다른
##필요한
새콤
타서
시작해서
피부의
이른바
되어있어요
어묵
##비게
편이에요
김포
##디언
핫한
추천드립니다
맞추어
130
sd
오셔서
장비를
교정
나네요
크기의
##전략
않으며
##테인
유통기한도
##기엔
묻혀
냄새를
##클리
##남도
받쳐
인삼
빨아
제품이다
립밤
##손에
주얼
홈쇼핑
셋째
##설을
있을지
후보는
##생을
받아야
코코넛
일어나는
없지
오메가
##pm
이만
여드름
시대에
카카오톡
##연구소
되어야
사용했는데
해줍니다
맛있습니다
##첨가
##었기
아버지가
##물질이
그늘
몰라서
타이밍
##제품이
당연한
적지
유지할
지는
차량에
목표를
전까지
드실
한참을
아삭
코스트코
편의점
홈런
여러모로
하고요
6시
도달
##내서
##하더라도
##판의
##하였으며
와우
##수유
맛난
보편
최적의
플러
##지인
패딩
##덕션
필요로
uv
##금으로
시중에
사건이
카시트
냄비
객관
##주었어요
조절할
##end
비트
##방식
응용
뻑뻑
다녀왔어요
있는가
부속
울트라
성능이
개발한
##400
당뇨
대학교
적당하고
기능도
##피를
언니가
직전
누군가
##자리를
차량의
##구와
갈등
생각해서
##순간
꽃이
##오리
##긴다
##사카
##티를
조용히
##사진을
가난
##분으로
이웃님
가르쳐
셋팅
트렁크
되구요
수치
##스톤
##버리고
연필
동남
관계가
##시민
맡고
만나게
여름에는
온수
트리트먼트
촬영을
핸드메이드
화성
어려움을
만원
대부분이
걸고
##격으로
무엇보다도
감지
면세
##쪽을
나사
시켰는데
파트너
글루
공기를
증권
청정
1박
이겨
##했구요
남지
받기
줄일
##생이
서서히
지역에서
해상
##600
we
지나치게
설치되어
미국에서
##지거나
##받아서
만일
##저런
##타올
평창
질문을
되겠습니다
##하에
경상
마냥
바닐라
마땅
병행
신기한
갖다
남편은
##경에
뮤직
놀아
사진입니다
충청
##았답니다
음성
아시겠지만
단골
3차
자아
##화이트
흡수가
근대
##타일
스캔
##냄새가
항균
형식
살인
일러스트
##따로
날개
##부지
시공을
내어
##ff
스트레스를
사계절
##람회
서양
싸서
아쉽네요
가습기
##대책
사러
부지런
대고
실크
잘하는
##라테스
있을까요
아저씨
##하라는
듯이
거북
##ust
비행기
러브
##관과
##부에서
비하면
히히
오신
어쩜
가능하니
표정
들어갑니다
동화
4인
##겠어
드래곤
조아
##해주시
2천
가능하답니다
간절
41
##닝을
레슨
유지하고
bb
##페라
단추
소재의
지혜
같은데요
한끼
##부츠
여부를
정원
깜빡
여러개
수립
여야
메리
구미
##여성
힘들다
이상은
싶었어요
쉬는
이명박
이용하면
직구
8시
폭이
데이터를
이나
##와이
##숙한
다양하고
이곳에
신발을
폐기
비즈니스
아실
필요는
화사한
평이
어둡
식기세척
알록달록
샀다
말린
묘사
모델을
열을
강릉
##프리카
스타일로
의도
쫀득
준비가
실수
sl
지우
효과적으로
발표했다
이케아
냉동실에
##계열
##조정
나오기
끈적임
종로
봄이
##쾌한
거절
일주일에
계곡
07
##것으로
초청
물은
바스
개막
문지
63
정교
##페어
물고기
##거니
차려
제품인
##까지의
##세포
##대기
소프트웨어
아이보리
세차
비슷하게
지나고
##백이
와이드
##하네
##스쿨
입증
멸치
##만들어
있었다고
##쪽에서
사탕
##정치
##신은
뜨겁
절대로
대한민국의
##달아
세계를
버리는
수분이
##바이스
##층이
##탄을
저와
임명
사용법
##복이
##들인
##진흥
생물
펜션
강사
##현이
대나무
은근히
hp
좋을거
되기도
쓰려고
오자마자
다이아몬드
지향
2단계
##위기
##색과
하루를
##주인
결정을
##년에
비린
또다시
##방문
##시켜주는
단호박
##주며
맡겨
##그리
##했으니
온도를
##모델링
##ld
노랑
##펙트
도덕
살아남
버린
준비하는
의해서
한방
수백
냉각
충돌
##염이
##로워
출범
안써
##전시
코트
모노
##의사
필리
##가야
##었는지
제품이라고
엄마랑
##봐야겠어요
다니고
제공한다
특이한
망가
나름대로
##자료
신부
업무를
##없어요
이슬
##님도
##후의
싶으면
구매하게
진하게
표현이
안좋아
##즈니
합류
생겼다
드림
차지하는
걱정을
시에
##칫솔
전해
인간이
헬멧
않나
##배가
pa
##봉투
돋보이는
##있지만
안양
실력
##음파
정신을
##졌는데
##먼저
진작
일정한
놓으면
판매를
누워서
맞을
##비게이션
##관으로
##na
##나도
한때
삶은
상큼한
한다며
계실
##령을
##더러
드라이브
##자원
##난방
은퇴
##내요
보았어요
그녀를
돌고
##진행
돌돌
##하겠다
##ame
걸어서
##ly
마음의
라인이
##도서
##진않
예상된다
##tr
신을
있거나
오가
사양
##800
수영장
뽁뽁
##그대로
10여
##카를
풍성한
구별
##베르
위험한
##김이
100만
포인트로
아나
트랙
모습이에요
##가득
펌프
채권
하기에
참기름
맡은
##께서는
보이시나요
엄마도
##유산
현미
호두
신형
호소
첨단
##하지요
손등에
##라이스
힘들고
##내용
##꿈치
##한답니다
##들었다
만족하고
30대
##하늘
추세
미래를
보들보들
시점
와이프
후기가
살까
필링
후면
무난한
잠금
##꺼에요
틴트
##일단
재고
##인지는
참치
저가
배드
넣어도
##대전
안타까
물려
주제
##김없이
우리를
##능력
##건축
홍대
사랑의
저자극
후기입니다
만들어주는
##더라는
이정
##퇴근
10만원
##러지
아이언
##개혁
##주머니
온도가
중입니다
나머지는
초등학생
리퀴
부분의
##쯤은
모델이
아메리카노
초과
장을
한미
숟가락
선생님이
부과
##혼자
계약을
마련되어
뭔지
채로
##위와
줘야
에게
##했다면
##사리
마침내
담아서
솔로
##싶다
포지
마시면
##리거나
고위
운동화
손님이
꼼꼼한
힘드
축소
교사
신의
##공기
##오를
잔여
나이트
##사건
##봤더니
조개
나간
이르는
시범
질문에
##있다고
이자
공연을
선물용으로
##제일
우려가
##절로
ac
id
목록
배송비
##움은
진화
몇가지
##통은
##셔널
정보는
##조명
아래의
연애
점프
어렵게
익혀
경향이
방침이다
dr
지은
딸이
숙소
ssd
##데미
##버섯
팔고
##출을
##되었는데
기도
땅콩
국회의원
편백
어머니가
정지
diy
어서
바이올
바라는
시달
보석
##랗게
최애
구입을
행운
트럼프
##청이
정답
##거에
병원에
##하잖아요
수분크림
##열을
##같은데
공중
##이신
##ea
##섀도우
빨랐
생각으로
##제품으로
여섯
로고가
하이브리드
##었을때
##슈즈
##부족
##시마
좋은지
많더라구요
##놓는
##예약
2014
아이디
전자레인지
농구
사용자가
자식
##인형
##테스트
##발로
편입니다
엑스
##장판
##조직
몰라요
sw
고소하고
##티드
못했지만
##수하고
코랄
모델로
##근한
오기
##주민
때에도
폐지
##방은
작업은
안쓰
찾다가
##집은
##수입
##해드리
##사각
책이
이야기는
fe
##위한
##려도
안쪽으로
##지않는
좋으면
##걱정
필수품
##재의
판매가
전문점
수세
##수준
##지는데
##hz
##여도
정책을
설거지
##려니
로얄
슥슥
##겠습니까
##29
거지
##fc
##성한
혐의로
에서는
구멍을
부처
조종
중간중간
그러자
일본에서
##해졌어요
유입
##했죠
##드렸는데
##시도
##년이
사용해본
무료배송
서울대
##다나
사용했던
##ud
140
색상의
국무
지속적인
넉넉히
##영업
두근
##배우
일어나서
5만원
##하겠죠
올인원
반해
##회담
##없어서
보기만
실외
뚜껑이
평택
##모자
장점을
##구에서
##토를
1단계
##무침
남자가
놀이터
##지마
묶어
좋았을
##공장
무서운
로켓
환절
##ss
있을것
시대의
시작하면
##해본
열었다
막걸
살림
개입
겨울이
가상
아기를
걸릴
불꽃
##교환
##기록
홈페이지에서
일상생활
아이템을
남아있는
것인데
카본
충격을
나노
두면
미소
cc
##채를
##했어
높이가
배제
수박
링크를
##기능이
줄어든
##게티
공기가
설치된
##과를
될것
남기고
태국
남양
##키니
붙은
예수
##스트라
##해보는
거치대
반품
##민턴
허니
장애인
##플라워
성분으로
벚꽃
##키즈
##속의
적극적인
이에요
벗어
없다며
재활용
의원이
유난
추측
막기
##라떼
많으
수평
갈비
청량
저거
메가
이해할
##뚜껑
##령이
굴러
##국민
많았는데
##군에
연관
입기
재현
국내외
##살짝
있었답니다
박사
##수욕
여자가
벨트
들어가고
촉구
물씬
##모리
선수가
스무
통기
##액은
밥도
알리
럭셔
그랜드
등장한
척추
어리
하던데
##식탁
히트
몰래
좋으네요
위와
##고양이
방안
매각
먹이
불편함이
세계에서
외장
기록을
통상
계기로
해볼
ㄷㄷ
존재하는
액자
돌리면
빨강
##계로
##여야
##기본
조금더
늘고
고기가
고급스럽고
단단한
로맨
쾌적한
##가을
##되지만
##비타민
공산
찾아가
기자회
3단
##했음
##식물
춘천
선글라스
사은품으로
자세하게
##ms
##팬츠
특성을
67
알지
데다
한국인
브랜드를
##mg
잘맞
목소리를
##키가
데스크
전북
차지하고
##개인
프린터
카레
갈색
사회의
기대하고
안되서
스노우
##다닐
걱정은
식빵
##리조
국물이
시는
보람
##컴퓨터
##드렸습니다
주최
##소비
드셔
##석에
아쉽지만
##어떤
일으키
합쳐
##블럭
적정
시작할
메르
드리는
##샤워
미치는
속상
데일리로
##수납
분야에서
##할때는
##수화
화분
귀가
##31
측면에서
반갑
##쪽의
상품평
마니
##히면
됐어요
##역이
미드
노후
지연
##해주시는
##법인
사이로
환경에
샌드위치
ed
이성
사고가
191
궁금해
글씨
용산
농촌
정리를
##이더라구요
저작
스코
보이게
##채로
나비
##봉을
##애플
케이스가
##면과
넘겨
##포로
종류도
##쿠폰
진료
민주주의
##들보다
아기띠
선착
##해드릴
간식을
미세한
84
스킨케어
도중
같지
살해
바라보는
패러
발가락
##주스
대다
주사
해방
인하여
##먹은
잘먹고
wor
언젠가
최고급
복사
##ga
##라인을
계량
고양이가
##배터리
군데
적도
않은데
티슈
##등으로
##과정을
31일
##언제
마음껏
##우며
##업계
68
블로그에
##학의
선택하는
있었으면
것이죠
늘려
전체가
##진다고
굵은
##인가요
##무지
재주문
##조에
##딩이
오바
서류
작지만
##오늘은
대단한
각질이
일어날
##우지
##미와
##고로
##퍼스
남을
싱가
수신
##촉촉
##신다면
햇볕
개편
말입니다
바래요
저랑
##넣어
##춧가루
파스텔
진행합니다
철저히
색칠
##ace
공천
##있었다
당초
스트레칭
당사
간접
문이
##벤더
##그라
##qu
수저
감독의
목을
소련
형제
베어
밝힌
좋았고
##트레이
하긴
가위
물건이
거두
라운드
##왔네요
##키를
##더기
##아이템
와중에
##ign
##코올
사전에
##브로
시키는
우산
##시나
간만에
##들로부터
시그니
발레
카테
##거리고
새해
거품도
법을
숨을
정도만
브랜드로
##골을
개통
악화
관측
주변의
무광
리뉴얼
다진
치명
안드로이드
그리하여
가슴이
##무버
팔을
##영이
##음은
확인을
되었다고
##심의
##기간이
##우면서
나라의
전세
또다른
##너스
귀여워
안나고
##대고
소지
증상
당당
틈새
작가의
푸석
이마
안된다
##테니
잡지
##안내
##ctv
##량도
##날은
나서는
##기다
##됐다고
##프터
조사를
동시
개를
##르륵
김성
2001년
##해봅니다
착각
소음이
유익
포함해
샤오
비로
히로
맞춤형
##종은
플레이어
불교
색다른
##미용
상황이다
부하
##하다면
통증이
##취를
선택했어요
상가
##이들
##시하는
투자를
일단은
석유
모듈
중요하다고
안되고
대표하는
간에
먹어봤는데
후방
##바스
싶지만
긍정적인
고전
추천하고
용량도
바꾼
##장인
실적
mp
##너를
##스티벌
할로
대표팀
산뜻한
바빠
##닷컴
원산
사이즈에
입소
재산
##바늘
내구성이
##운동을
##사서
구입했습니다
선두
##치며
느낌입니다
교체를
벤츠
##해준다
포장을
드시
곤란
티가
tip
3만원
버튼이
가자
##에다
전반적으로
##인터넷
텀블러
찹쌀
고집
##보게
##킹을
바라며
##용품을
##들어서
##운전
##적으로도
나이키
알로에
##료는
그리는
10만
베네
올라와
ceo
신비
사용시
가능할
점유
##층의
주시는
##ime
세계의
달라요
올렸다
부실
베르
##백에
3인
구매합니다
회색
##시장에서
잔디
맛있어
76
인권
시간과
개설
##더라고
청소기
유사한
설치해
##통합
아이패드
##주와
가성비가
비중이
확인이
신한
식구
빨간색
철도
도착해서
두산
빠져서
정밀
##조선
##포먼
힘들게
카페에서
않는다면
모두들
##공이
2만원
환상
##거리며
바비
예약을
##국가
보자마자
all
들었는데
##들과의
먹이고
차로
##박스에
자극을
볼까요
##링크
##옷을
##언이
고르는
김장
신이
체리
설치가
##구청
전체에
직장인
##타로
선고
##했거든요
펜슬
감정을
##티가
작품이
요구하는
##오가
너는
일치
일일
##계속
지리
출마
cr
되었답니다
사장님이
##보증
형태를
##ian
사우
넣지
헷갈
서둘러
주황
동해
##하곤
보이는데
##끄러운
무사히
표현을
영광
##졌다는
도자기
유전
방식의
##거울
자격증
신선하고
보행
##신발
묻는
짐작
클립
주저
선풍
ev
##지능
##신문
삽입
태풍
중성
해체
아일랜드
소개할
받자마자
##특히
##결제
가지는
사장은
##신고
자리잡
##동으로
경찰은
부분에서
##다이어
##제조
##있지
알아야
화재
해결할
스위치
그런거
동글
접이식
##화한
살아있는
##봉사
타사
240
급격
##든가
좋아지는
한나라당
백팩
입구에
슬로
산모
하수
하늘을
한숨
누리
냠냠
##무가
계시는
##블링
하시네요
눈물을
검은색
각질제거
쓸수
메이저
갑작
절로
간호
##공방
나뭇
##느냐에
노란색
##포르
5천
##점과
악기
##타가
패밀리
##워드
되찾
사운
먹으면서
good
내리고
강아지가
보다가
##심하게
##듯합니다
##칼로
최저가
거실에
골든
이주
어떨까
##dr
연습을
효과적
방학
##포시
sy
탈락
##져야
##역으로
안정적으로
수성
승리를
설치하고
자살
##묘한
##보면서
순금
##되거나
영입
수령
69
기구
##ef
##졌을
워싱
다가오는
짙은
##하셨습니다
테니스
##반이
##졌지만
##냅니다
때문인지
벌써부터
빨라요
선명한
##보며
##자금
번거로
손잡이가
##받았다
경우에도
절감
세운
부엌
내외
##피는
##ory
##님들이
이대로
길어서
가끔씩
##미세
방문한
솔루션
형사
라떼
##되어있는
친절한
차고
떨어지고
##었나
##중이에요
새싹
다용도
##보조
인조
##고급
##분도
디퓨
##나지
##았다는
분산
유엔
##느낌이
##카드를
##핸드
그로
한국은
##해두
리퀴드
먹어본
##얼마
선도
먹을때
일일이
액체
흔들어
수요가
근접
구조를
##라우드
씁니다
자제
단기
사용했어요
파견
##보았다
침실
규격
그릇에
이런저런
다녀오
화장을
##회장
##정도는
##연구원
오로지
발라주면
수요일
##러는
익숙한
생리대
특징을
헹궈
##디스
자부
##700
일어났
뭐든
옐로우
떡볶이
##진한
없도록
놓을
진행된
아래와
스타일이
##긴하지만
벨벳
온천
주차장
뒤에서
51
포스코
마음은
##론이
석류
##지다
박정
나왔습니다
조치
잦은
##ft
오래오래
##받지
공화
##안녕
활용도가
말라고
##터에서
##처를
##ash
발동
섬유유연
##48
보내주신
##ens
이민
170
세월호
##석의
##으니까요
언덕
##어져서
가벼워서
79
##태를
올라온
팝업
성우
##일의
귀에
크기에
트레이닝
표면
감독이
만들어야
##표가
##편하게
##지사
천장
회사가
쭈욱
드시는
공간으로
##형과
##연습
향한
##디다
##비교
##더가
##공단
##째로
##경의
##악한
쏘옥
고유
##었으며
##도그
인증을
마우
##재단
car
떠오르는
아니야
고객의
##거의
대세
##는다고
##로서의
하나님의
남기
겪고
##축제
##분양
##례를
애초에
보여드리
최상의
##조심
부드러워서
김태
##레스트
##조로
발에
젓가락
아이스팩
머릿결
##창을
둥글
예외
지난주
##커튼
##내면
po
gt
반으로
op
입맛에
마운
돌아와
넓어서
식용
노무
입으면
유난히
보여준
##먹어도
푸드
대표가
##크의
후추
##여행을
썼다
주유
##슬리
사실이다
목요일
용량은
면을
##보드를
성공한
자작
2개의
거다
##리즘
건립
만들면
##연필
##아들
##ish
고수
뭐야
5가지
2시
블렌
파란색
##자유
타격
##브러쉬
##소파
##디는
fa
작품은
##팬에
상태에
동그란
알려주
찾으시는
피어
전화번호
##요미
빠지지
치는
##편이라
풀고
밝아
정권
##사업을
장수
갔을
얇아서
엘리베이터
##초를
늘어나는
돌리
속도로
경기가
지친
통에
루프
있었기
##지수
고스
##축구
선박
원단을
시카
아마존
##순이
지고
저하
하얗게
나왔는데
않음
##포도
##곡을
멋지게
스텝
투수
있었을
캘리
자국
만나서
##으라고
늘어나고
##스탄
흡착
알았다
##해야겠어요
##리에서
##레이터
mm
입장에서는
##깁니다
지나가는
동일하게
##로써
지난번에
pp
이뻐서
범위
인상을
모습에
생각나는
업소
국가의
안주
##오픈
##벤트
주문할
##클로
좋아하네요
##33
##했었다
##근육
##적의
대륙
레깅
입금
안의
##패키
##농축
##미스트
진행되고
##글을
##중한
##이거나
라이딩
그치만
방금
##어느
##쁘게
안좋은
##유래
##구용
##철도
##55
모티브
입점
용도
##오지
##영은
누르고
닦고
유혹
매장을
사용하기에
아침부터
충전이
계기가
걸레
##파워
센서
그들을
취약
성장을
미만
루이
리폼
써요
썼는데
##구여
움직일
##텔레
진행할
방송을
벽걸이
장면이
의미한다
이집
몰랐는데
후보가
달하는
필립
예뻤
##블록
피부도
케이스를
보강
세금
서민
##모든
자극적이지
2013
디즈니
넉넉하고
바이러스
멀쩡
##양말
##진다는
요즘에는
##착용
##uc
##폴리스
시가
5g
성향
클렌저
##동은
북한이
순천
이제야
##문으로
##라인드
##원들이
##있었는데
정수기
##io
담을
##톤의
다닌
5시
맛에
커뮤니티
끌어올
##패턴
열매
98
2분
##기자
##머스
##보송
초점을
양성
모습도
연결해서
이상하게
##미한
72
재밌게
형식으로
##기획
되세요
so
##레오
##포함
##없어
##맞은
자세로
##약품
어댑
제철
퍼프
원단으로
택시
코튼
자이
가능하게
##럽게
##ey
스폰
슈즈
섞여
인텔
땀을
아라
##니를
확률이
자연의
다니기
##두기
콜라보
다른데
북미
그들
큐브
입이
항산화
봤다
##일지
사용하다
말아야
잡혀
입원
##분해
쓴다
유대
골라서
궁금해서
들어와서
##갈이
무의
바이크
스타벅스
2012
거론
##해보이는
목숨을
220
##협력
가열
수강생
않았을
때로는
어쩔수
아니더라도
##ach
6년
##ome
##클린
거품을
표정이
##찍한
드물
권력
##값이
텔레비
말고도
구조로
거리는
한계가
브랜드가
나한테
말하자면
싶으신
##두근
##할때도
블루베리
##허브
쉽다
더워서
경기에서
해본
시의
고가
자수
되겠죠
싫은
입어도
필요하신
회사에
웨이브
편안하고
있겠다
이래서
##전도
##간을
우와
알겠지만
적어서
호불
탱글
정해진
어디서나
힘으로
눌러서
##한잔
5만
##레스테
자신들의
##하고도
돌아오는
##아이스
얼마전에
생기면
남의
무게를
단점은
다운로드
##니즘
##지않아서
발로
퍼포먼
밀폐
금새
##음으로
장착되어
하반기
장소를
꼬마
개조
무인
무엇인지
런칭
학교에서
발톱
먹일
토지
##밥이
휴식을
훼손
##블로
보통은
에너지를
##송이
뭐라고
학교에
##분께
##대행
분들의
##아이들이
초음파
자네
샀습니다
74
장바구니
##클리너
자치
찾아볼
안아
##집으로
야생
##달에
어디로
여태
학생들의
모험
있나요
##고도
##대사
사진에서
##군과
친구는
한가득
영국의
기준을
##점도
짜서
##쁩니다
추구하는
읽을
의지
상세보기
##걸이를
많은데요
##치약
김종
초보자
##세트를
##샀어요
그래요
일체형
이혼
피부로
##있답니다
붙인
두어
##해용
##세이
가져가
사용설명
신앙
##팅이
##미러
##만하면
##주방
##비치
##프레임
주위
##데이션
다른거
##대서
지출
카트
남긴
걸러
사내
매매
##쓰면
프로모션
##하셨어요
개인적으로는
##판과
한일
##의가
상반기
발전을
##틱한
##창이
리스트
좋아하시
고령
##활용
##급의
야마
블로그를
안타깝
av
스카이
기장
부스
요게
재무
진하고
허락
##국으로
담그
스티커를
결심
보였
##움에
##니의
##엑스
않는데
유로
원내대표
뒷면에
무방
맞아요
박스가
##된다면
약을
구동
화살
##오빠
산소
옷에
##왔고
대립
##로서는
##먼지
먹거리
하단에
방법에
다해
##큰술
스냅
북유럽
화요일
쏙쏙
만나고
괴롭
피규
보일러
떠난
##수거
삼아
특징은
헤헤
중형
발열
어렵고
##더라구용
##속이
될까
매끄럽
해물
예쁘다
##내지
실무
이정도면
고교
##괜찮
토대로
##예방
겁나
구입하고
머신
들어보
번갈
주변에서
기차
결국은
높아서
##32
20여
##워지는
대접
젖은
취재
살아가는
##층을
라벤더
배드민턴
연결하는
##브로우
연동
##있었어요
##냐면
스위스
프린트
그니까
##베베
느껴질
##믹스
좋아라
##맞이
가도
##쓰기
되겠
도착했어요
뒤에는
5번
##느냐고
##용기
##일수록
##법의
뜨고
##디를
78
흔한
손수건
문의는
급증
필요도
제품이랍니다
봐서
주무
다수
연한
##정도의
차량이
##가입
예능
8개
하려면
그간
아니라면
##남자
분리가
##슬립
기름이
좋아여
##긋한
후배
mc
위대한
기상
동부
3시
##레벨
3천
##201
##하고요
기간이
##린다고
트랜
##백과
싶었지만
##보카
렌즈를
많았어요
좋아보
재미를
훌쩍
##관절
어째
인증샷
알뜰
중요하게
서초
##체크
만만치
거나
정리가
도마
온가족
일대
의하여
등장한다
영상으로
준비물
허리가
반신
생각하지
##되도록
##아를
관련한
커버가
전작
겨울에는
후속
##이들이
곱게
바닥이
##기보다는
소개해드리
내렸다
막내
다시한번
오해
컨텐츠
융합
앙증
문화를
잘되어
맞아서
추억을
상장
시작했어요
해주셔서
제정
해보니
함유된
##하다며
필리핀
##생각보다
인하
##티비
구할
사고를
낚시를
서포터
스피드
병원에서
여기에서
받아들
지역을
소재가
붙일
주기적으로
수석
수험
발색이
프렌
꼬리
설치할
앉은
gl
잡기
해제
##달이
하나에
##살균
문득
악세사리
##양은
따뜻하고
정도에
떨어지지
부담스럽지
사람들과
고려해
강요
현상을
유통기한이
것들은
시티
##설탕
잠실
신라
##나이트
##일도
뜨는
수직
##베큐
##크림은
드리겠습니다
##바르
수고
시중
수딩
제격
스타트
기름을
광역
윤기
견적
레버
실용적인
연결이
##레스테롤
잘안
89
추적
##질에
##기능을
반도체
그래서인지
##왕의
##거림
위안
##스라엘
종류별로
##창업
3주
##ove
##부부
팀의
##프레소
액정
사용은
개그
받았는데
nc
##주었다
의견이
ro
걷는
놀랬
판결
##이루
법정
하려
전략을
곳이라
##만큼이나
지시
쉬고
고속도로
객실
컨디
둥근
##해지면서
##하길래
내야
##연금
식이
키우고
##항상
유동
##모터
##공학
네모
##유는
##퍼가
마찰
##색도
노조
어렸을
에이스
##스프레이
##리안
자존
##되자
먹는다
피가
허벅지
달라서
##야마
예전부터
##과자
사라지고
##무역
##목으로
좋아하지
팀이
##af
놀이를
##봉지
중요하지만
연결된
냈다
##등은
하는거
두는
스톤
넣어주면
이스라엘
비대
##내내
귀족
밝고
##투명
가요
간을
공방
##짐을
빨대
##진에
위생적으로
가지를
2위
거리에
부가
2개를
퀄리티가
알코올
3번째
얹어
##77
비율이
##됐고
햇살
있는것
##디건
##아이들
비타민c
붕괴
와이파이
##졌네요
ml
하루가
아기의
검사를
189
갔어요
중순
경비
게이밍
야무
누적
표정을
패턴이
##공연
사무실에서
배부
돌입
##호선
##ber
메뉴를
테러
박혀
##바이오틱
타입으로
##쪽에는
안개
선수들이
신입
영구
소식이
##불이
얻는
##인한
에는
오사카
##ies
86
편하네요
뿜뿜
##카는
법인
##포스팅
손해
구매시
일방
이후에는
들여다
##뒤에
하루만에
밋밋
복구
트로
크리스탈
즉석
아키
고리
cou
컨설
접시
높이고
아몬드
상처를
기후
##재생
##빨래
##소리를
##라로
##뽀송
##주행
소리도
##가량
동영상을
새벽에
##프로젝
##편은
##있다는
내부의
오일이
비중
났다
내릴
난이도
관리하는
인덕션
시대를
다녀왔
걱정도
대북
##실험
##배기
##산으로
감사해요
당시의
많다는
되죠
블럭
팬에
4차
줘서
주파
자꾸만
##팀이
현재까지
접어서
대게
cctv
내려가
아버지의
생겼어요
리조트
흑흑
구체적으로
급속
1로
##카와
괜찮아서
이득
시사
컬러도
1500
더더
##있더라구요
눈빛
멀리서
##바이크
존재한다
헤드폰
철저한
통계
폐쇄
성격이
##줬더니
eu
끝내고
##리는데
기억에
딱딱한
이행
망원
신분
금강
닮은
##년의
혁명
##이닝
한계
랜덤
행사가
궁극
kb
##old
매립
배틀
##이번에
##co
나가고
##노소
승부
아래는
있었다는
스마트폰을
##모는
브이
부풀
부른다
연락을
영화는
기뻐
펀드
실제로는
드렸
랍니다
##파의
씌워
##효율
역사적
연결되어
12시
맑고
청양
##다를
##직하고
유지하는
밑반찬
참여한
이번주
##뭔가
세상이
논리
##산과
않으면서
##속도
인해서
세이
##잔치
바꾸는
돕는
##더라면
##전한
발라주
양념이
##회복
##오스
##홀더
##압이
만족도가
감고
얘기가
주셨
이거는
##동에서
##이나마
##사이드
클러
사항은
이들을
있길래
처리가
잘게
참고해주세요
있기도
붙여서
솔직하게
자란
중구
내다
원피
바보
문제의
##박물관
땅을
해주시
연결해
##lr
엔진오일
싶고
##향은
네덜
맛볼
마그네
어느덧
##관계를
아늑
준비했어요
마인
##플로
우리도
메디
##식도
노선
치마
익은
넘쳐
##롭지
대결
아픔
##츄럴
제약
인용
##잡이
끝날
달라진
거짓말
터키
##백은
때보다
##리뷰
제작되어
움직임이
그러던
탈부착
##보호대
끓는
##침이
구슬
허리를
##진과
##렌탈
않았다고
##차도
##망의
##ng
##량에
봤던
3m
착하고
##웠지만
##ound
##봉이
바닥을
##고구마
사용된
스쿠
귀를
##영의
검색을
건강하고
조치를
아이템이
알차게
어디까지
온다
##압을
##김에
바란다
본품
갔던
그려져
고객님께서
있겠어요
드시고
땅에
##들까지
##ink
때문이라고
사물
##사료
##한것
불가피
후쿠
카메
호남
##셨다면
나타났
내용의
영업이익
걱정없이
실력을
진드
호기심
세상에서
화면을
##할거
구부
보냈다
##경쟁
훈련을
마신
편성
빼면
이하의
##타이어
버무
이미지가
고운
구매하면
꾸준하게
##버릴
써보니
##학기
대개
##작을
폴딩
내의
미니멀
놀랍
곳입니다
##ide
매장이
리모델링
공간도
압력
##양념
붙어있는
이가
##자세
잉글
화면이
방석
예쁘네요
##향수
의자에
아티스트
일관
##가루를
말씀드리
편합니다
산후
##추출물
이루고
가족의
시기가
하루하루
과거의
틀림
##실과
주문했습니다
##내어
##큐브
##화하는
입술에
##으로서의
못하면
우리나라의
62
귀한
샤넬
##우의
##able
존중
사용하기도
열린다
많아지
머리카락이
됐다고
##었어
수련
돼지고기
반팔
한마디로
강렬한
##적이며
집들이
착용한
##날로그
풀이
말이야
현장에
고가의
##멘트
메뉴가
인테리어를
##말랑
##오기
안해도
##작가
깊게
2번째
##모토
##유지
뒤늦게
까다로운
해준다
찰칵
좋아합니다
두려워
이익을
##친구가
필수템
패치
실력이
##75
##히기
4시간
체포
각자의
투쟁
없이도
설치한
##과일
편은
시스템이
##내에서
버렸다
##표현
마음대로
왜곡
김에
##900
바디로션
가족들이
끝으로
4개의
점수를
##자니
아주아주
옷장
##안경
##듯요
##시켜서
##하겠지만
인터넷에서
지키는
##드림
구성은
미스터
##황을
좋아한다
부담스러
방문을
##들입니다
데는
생수
아웃도어
저절로
4개월
활용하는
여자친구
당겨
어디든
제국
추첨
글이
연구를
늘었다
쪽이
상품도
여권
기록한
##저가
재질이
잘쓸
공간에서
차는
내용물이
잘받
모서리
중심의
들어간다
이룬
레고
음반
요즘엔
쓰다
##지더라구요
40분
장면을
##주변
ab
분야의
##론의
가꾸
초래
날씬
제품명
물도
고객이
캐릭터가
같더라고요
법적
거꾸
응급
##곳으로
가족과
고통을
##깨끗
중화
우승을
특징이다
정리하고
떠서
봤습니다
진심으로
##랭킷
##돼지
부를
없답니다
생각하시면
##박스를
1인당
쳐다보
##두부
필터를
30년
아버지는
과제
화물
##귀걸이
비스
입으로
##스크린
##분들께
세면대
뒷모습
##시다시피
##센터에서
캠프
쓱쓱
##간이
소나무
수를
10대
마요
물의
##건의
##드렸어요
##교육을
러닝
삶아
가계
쌓인
##순위
꼼꼼하고
안심이
##불로
믹서
아줌
##전에는
##편을
놀랐어요
오르는
사후
받았던
무작
##아시아
찜질
##버그
상태다
나오게
사라진
쭉쭉
태워
출시한
##연결
##원단
인재
조건을
##그때
##여겨
쉬워
없었지만
동호
키스
네임
코어
요약
세라믹
의정부
1998년
만능
요로
판매되고
창고
한반도
##각이
커넥
##염을
남아서
드시면
마카롱
##대출
열어보니
1만원
포크
효율적으로
공직
공지
##개념
##날을
드렸습니다
구입하는
속을
샤프
밑으로
엄마와
##보지
##분께서
나빠
못먹
극단
##안심
고민하고
즐거워
##오른
강하고
##라인이
피치
우유를
되었는데요
번째로
##르의
##회원
사퇴
힘들어서
한시간
내면
사업에
금메
##안녕하세요
전문가들은
알수
강도
##우면서도
시크릿
재료가
소분
변호사
건조해서
##다녔
##해줘야
##론은
사려고
제품이예요
시키고
배경으로
바이러
##싶어
둘이서
억지로
실감
지자체
어려움이
보컬
되는지
아쉬움이
스승
반죽을
올리면
외에는
홈페이지에
##확실히
세계적으로
2단
##손가락
가능성도
제4
크림을
만족스러워요
출퇴근
##벽을
##tb
오오
바다를
##보기로
이니셜
차량은
비서
남부
들어가기
고스란히
여담
##편으로
지점
베리
top
안된
보유한
이쁘네요
##켓을
분도
박물관
보겠습니다
자체의
##온도
인공지능
el
##패스
##수지
내밀
바란
##자격
의문
##하기에는
##이리
정상적인
##였을
소소한
침투
붙잡
잇는
국가대표
연출할
본연의
찌그러
대파
##배터
친한
지나지
스웨덴
영화의
##을때도
린넨
페르
받으며
기억을
##컵을
크기를
밸런스
만나보세요
낯선
세우고
소위
##들한테
때만
##내려
출동
##그로
##데코
##5일
해운대
김대
후다닥
구리
육수
옷은
##상자
##하고는
##보았습니다
##됐던
재킷
자유로운
##수산
것일까
##연맹
한샘
단위
##능한
동참
서술
아이콘
지키고
좋구
순수한
슬픔
3개의
원인을
인간은
케이블을
##있는데요
##견이
멜로
사도
인력
##플레
호수
닦아주
온열
받아들여
장기간
올려놓고
##전체
만다
##크리
사용하시
##십니까
보기에도
##끝에
개념을
##강의
부자
괜찮다고
##네즈
심해서
여성이
순면
다음달
수술을
노력하고
가지가
전원이
##싶어요
아날로그
프로세
와이어
경우엔
인체에
##30분
하셔야
담가
흐름을
유료
판매자
##시청
소규모
##퍼는
##도리
##에스
##유모차
물걸레
##들과는
사온
가속
민감성
시그니처
##나라는
노력이
단연
노르
깻잎
##ood
직원이
마사지를
목소리
안정감
주가
협상
##물질을
답게
회사는
4시
편하다
##부문
박음
##초등학교
주간
성취
부근
##준답니다
나갔다
커지고
##파리
안성맞춤
##마저도
##카가
##금속
개가
##팀은
확률
정도다
아토피
순서대로
##스커
원자
가평
재료로
찾아보니
보던
지속력
죽어
1997년
포기하고
죽음을
극세사
선이
##파로
불가능한
사법
맛있을
분무
잃은
여러분의
정제
##더라구여
비로소
이날은
선임
당한
고품
둘러싸
##상태가
비데
참여하는
아래에서
색소
min
괜찮습니다
안들어
##꼼꼼
##적한
##공동
제작이
해봐야
안그래도
성분도
입자가
##민은
테라
터라
2010
낮에
유니폼
30초
음주
##소프트
##업이
3배
검찰은
미국은
변환
있듯이
귀여워서
나는데
대신에
계좌
하여금
##평균
##ase
멕시코
때를
##직하게
블랙박스
가짜
##권도
##동네
유출
때문이죠
##리케이션
##스토리
결혼을
031
##아찌
뿌리는
들어있어
##무라
어때
죽는
##학자
fc
케이스에
사봤는데
파랑
##저나
기소
나가면
상품으로
##렸다고
신차
같음
##사람이
##간장
##해야할
싶기도
열정
하지요
하부
웬만한
시켜서
많기
##셀러
##결정
##항을
담에
돌리고
##88
96
4만
##텔레콤
카시
오전에
par
녹여
##질랜드
가능해
##건으로
사이버
##분석
한통
주셨어요
아껴
원본
##드에서
끝나는
마약
그외
할로윈
조용한
충전기
메밀
열려
##었구요
콜레스테롤
확신
스파이
##알이
##보라
씨의
man
##토너
마디
상자를
7년
##런스
위해선
##미에
##루론
만족스럽습니다
한해
점령
같구요
##사이즈로
##오면서
나만
피부는
##놨다
##사장
순위
찾았다
##hn
섬세한
기술로
##act
##나타
##내며
350
##니케이션
학생들은
공약
##스탠
되자
##제공
##라이더
송도
인지도
##해양
##ake
##택배
명을
##당과
동대문
트럭
아시는
뾰족
많네요
정해
앞으로는
날을
진행을
식민
리버
사용해요
소수
에디션
모은
결혼식
des
##행정
##소품
조지
나타난다
리듬
마스
완충
전사
하우
##릭스
알갱
연예인
파고
##뉴스
되어있고
색은
당부
떨어지면
##사이에
##해지기
달리는
핑크색
스케치
##렸네요
지옥
플레
불빛
돈까
법무
빼서
##2개
##거를
눈여겨
심플하고
해봤는데
##되었다는
##달라는
##기존
100원
한라
##요금
식재료
조명이
아니냐는
여부
소스를
날도
100ml
고정이
##니커
##37
약산성
##원료
##톤치
##예쁜
##위생
쫓아
##마한
##가격이
##였는데요
소홀
곤약
105
전체의
위치는
one
포켓몬
##억달러
앞둔
손가락으로
냄새는
시인
보신
시급
용기에
조여
만들어주
##싸개
무용
##ize
브러시
하이드
##리네요
커스
##네이
블링
느껴지지
때나
있으시
잘되는
눈물이
##그럼
나을
장난감을
체험을
##세지
일정을
재질로
##최고
실은
감시
터뜨
##해야지
현행
고압
앱을
무게는
무서워
##다는거
휴게
##테라피
콩나물
바느질
gm
이고
생크림
않겠
##대리
테니
##맞게
형태가
래쉬가
감추
평양
##습니
##ower
기능으로
##34
반려동
종사
2011
##럽고
아니기
잡았다
이벤트가
##트랙
집착
백탁
##연은
메시지를
양호
피고
##망에
싫어서
만성
##있죠
##00원에
외모
##게용
199년
##저럭
하도록
외식
생각하며
os
희망을
라며
##클링
누릴
절단
광명
바랄
##강을
흔적
찾지
정통
##회와
주었어요
사이트에서
##유통
교류
여자는
경우를
##공개
1등
##기인
##향도
사랑이
에그
꾸덕
##란을
자취
##점검
##높이
##버려
##종으로
##새가
특징이
##ance
해안
처방
소셜
다루는
##역의
붓고
없겠죠
신어
참석한
##시장에
##레탄
같애
##토가
것이기
##ond
인식이
100여
##해왔다
메뉴는
분쇄
kore
후의
##하십니다
##중심
##반에
난감
미국과
이어질
동계
용접
##르며
차지했다
##터라
상추
웃음을
떠나는
##체와
마포
침대에
##네트
fta
물류
편지
터져
해동
##즙을
모드로
비교하면
##작품
때면
##좋아서
분말
##철수
##생의
우체
ii
품질이
예쁘죠
고춧가루
알리는
##분들의
레오
이용하고
##면적
꾸준한
캐스팅
##pa
##전환
##돼야
여름엔
김정은
되었던
되었을
번의
노즐
대거
스타일리
꼭꼭
찾아온
태극
불필요한
노예
##티는
안팎
방을
전파
호호
##ment
회사를
좋은데요
하겠다
길러
식단
그라데이션
움직임을
주전
자를
약속을
수의
비례
나오네요
시작하면서
##바가
이메
아베
##위원장
구명
선물이
물기가
##합이
정화
매실
서울에서
##히게
##갔는데
두유
전방
가져온
##럭저럭
괜찮다
길은
##드라마
오빠가
##하더니
그다음
클리너
##네시아
##수술
영어로
인프라
부피가
##대여
단맛이
나무를
들더라고요
탄수화
##당에서
카이
##렸다가
통째로
임상
##랄까요
느끼지
체감
남친
다음에도
##방법은
로그
##to
두께가
소고
고추장
무장
두드러
세계에
법칙
경쟁력을
##버튼을
콘서트
활짝
##작용
조아요
보려고
##써요
##법과
생각나
폭력
나타내는
여는
메이커
꼬맹
나라를
##파이어
소비자가
바람직
선택의
좋죠
마음도
##억원의
##하였는데
팀을
주얼리
##샐러
뜻이다
qu
이르기
때문이었다
##증후
##마시
사정
목적이
##ans
연수
##ail
1kg
롤러
댕댕
변동
공인
뜻이
선출
차갑
바디워시
##니쉬
승인
몸은
대부분은
고르게
나눠서
##았으면
##검색
송파
free
핸드크림
##손이
묻은
2중
주스
중복
할아버지
수익을
기성
##두에
한번더
검정색
올해도
저만
스크럽
##먹으니
추락
제휴
오스트
주변을
하이라이터
단열
##드릴께요
캔들
농민
##인물
녀석이
불행
##권과
##수석
성분은
중국에서
원정
##분자
빵을
좋으니
##요가
플랜
##으세요
클라
시상
수천
계획이
마이너
##끄는
##하지않고
비싸서
##나오는
노무현
##교의
mb
빼고는
화장대
견과류
장거리
##질과
더구나
##슬림
사라져
편리합니다
공짜
오가닉
##동글
내려서
사용하니
사진의
컴팩트
시어
초월
후지
##65
##맘에
##타월
달에
좋고요
오시는
비어
택배로
##ord
선착순
더욱이
##소설
잊고
민망
##산동
##정신
##오일을
모르겠는데
##억원으로
추천을
방출
##울때
##목에
내기
촉촉해서
제품만
다룬
제공합니다
##루가
사게
있었으나
남자는
제작을
생기지
##38
##센티
##풍을
##ee
공기청정기
너무도
##병은
두세
넣어주세요
이념
높아지
##실하게
물기
먹을만
##핑을
묽은
웃는
컴퓨터를
충북
##타리
1200
흥미를
먹습니다
230
피할
신인
밝게
대단히
음식은
환경에서
##자체가
리프
슬픈
감사드립니다
구제
원룸
##폴리
특가
다릅니다
##변기
작업에
필라테스
거대
남편과
##싱을
유성
누나
좋은건
뭐지
요긴
이물질
토이
##권으로
황제
컬러와
아내가
##랭크
내부는
표정으로
##카의
기사를
인디
인생을
자신은
##목적
일본은
하늘이
농협
스펀지
발라주고
분할
##플래
또렷
방이
책의
제외하면
##볼께요
스테이지
것만으로도
발의
##차이즈
액세서리
베이컨
##상한
다이얼
저축
순으로
여왕
##체어
##원하는
네오
단독으로
닿지
앞장
미소를
적힌
##측정
시작하고
보송보송
2명
##처리가
매콤한
피부과
단단히
텐데요
사막
쓰면서
용기를
탄탄한
애완
##소금
미칠
너도
##보려고
알기
##부턴
아쉽게도
##차근
스쿼
피크
김치냉장고
##국과
요거트
제거해
##켰다
둘러싼
울고
##바람이
확인하는
##어린이
##aw
발림성
##캡슐
불렀
5cm
##주는게
가구를
##터테인
##세트로
똑딱
가정에서
호르몬
간단하고
싱가포르
##동구
모닝
##해보자
먹는게
##퀘어
##거같아
##ti
커스텀
촉촉함이
##램프
소개해드릴게요
감당
##였다는
알콜
##화되어
편지를
##pr
고온
입지
##차와
존경
##드레스
계획이라고
신경이
##미도
영상이
원리
길이는
최악의
##타의
입술이
모던한
신장
##바르고
경량
##린다는
발림성도
##기도하고
##상가
##절한
##란트
많았던
비쥬얼
##싶어서
너의
##플라이
일로
태양광
부탁드려요
트윈
하잖아요
부럽
선명하게
영양을
##먹어요
inter
오락
##44
빛의
빠지고
##터와
바베큐
##스마트
##책임
중앙에
껍질을
바짝
##바는
2개월
하이라이트
500ml
##금지
아닌지
언급한
수량
##식기
부적
몸매
금리
##리니
올라갈
##39
주장을
재밌는
쪽은
하면서도
광채
건네
가늘
때려
##분과
곤충
지식을
접목
차근
각기
##통의
##습을
어딜
##접한
##블로그
행복을
##브를
럭셔리
시리얼
이름도
안겨
끄덕
##해드렸습니다
전통적인
재미도
잃고
7개
##성분을
챙길
##한다며
##코가
캠페
침묵
##코는
한국어
그때는
사례가
##에다가
보는데
위기에
현실을
치유
##렐라
인위
안동
혹시라도
아이템으로
개시
오후에
##생리
최대의
알게된
집계
김동
##할만한
가급
좋았는데
##엄마가
갤러리
관점에서
##루를
##함의
##포스
소외
전라
사용되고
메쉬
##마스터
각인
##거랑
1명
세트를
남한
out
과도한
부정적인
별거
과정은
건가
조화를
읽어보
아이브로우
##구만
억울
어머니는
배송도빠르고
파이프
hdmi
있던데
##cal
1대
프로그램이
제품인데요
##되었을
초반에
재난
인터넷을
거꾸로
번쩍
되는거
시나리오
선선
안해
다스
그럭저럭
##바삭
미리미리
얼마든지
승객
개척
고쳐
위치가
전형적인
보여줄
이사를
위아래
하셨어요
조명을
##심은
쉬워요
##gr
##인만큼
종류는
스카프
슬리퍼
가맹
##걸음
편히
전쟁을
##합을
지극
넉넉해서
공사를
옷걸이
저리
##놓으니
보도했다
감수
97
독일의
색깔도
볼트
봄에
pe
트래
##책상
도서관
막고
즐기기
까닭
유형
##족의
대성
시럽
좌석
모양도
히어로
fi
리더십
손소독
재발
브라이트
편이고
14k
방식은
저자
이해하고
##교정
##일때
성적을
##프루프
걸어가
##야만
소개하는
날에는
##구마구
##바이트
효율적인
간판
이슬람
dc
편할
싸우
캐시
파주
격려
뚫고
하남
가면서
종아리
선택해서
감칠
##게는
벌어진
##네이션
##기대
##정보를
외환
보이죠
수준이
##코의
##였답니다
운동이
진행이
마녀
아보카
좋겠지만
본사
##나기
##파인
##셨다고
코로나로
##절이
따스
모색
주어진
##천연
필요없이
무드
상판
모아서
반가운
이종
##나가는
팔레트
있으면서
좋아진
먼지를
##차고
직접적으로
위를
ne
필요하다는
목재
크면
##안타
##자산
자라는
출간
모르겠습니다
아파서
보물
하겠다고
경쟁력
##백으로
절차를
##비트
##탄소
다수의
##바닥에
유력
초밥
##셔너
##시장의
불편함
건물이
차세대
##후보
안됩니다
전의
##없을
치과
##지워
철저하게
기회에
하느
가을이
햄버거
부분만
인원
회장이
pv
구하기
경매
##카로
##ys
색으로
움직이지
시금
오를
##라이언
성공을
심어
만나보실
스테인리스
덕분
아사
메뉴판
탱탱
부피
이벤트도
당시에는
다르고
웃고
##적입니다
남자의
잊어버
뛰어넘
이제부터
부모님이
결과에
활동이
미국이
##코어
예산을
되돌아
난이
폭탄
모습이다
꿀잠
##관리에
##대형
##었지요
##프린터
맞추고
포지션
손잡이를
시대가
남녀노소
동탄
##부분의
해주시고
괜찮은데
누구도
착용할
김현
현장을
않았다는
완전한
tv를
##조원
##패드를
잡아주
##갔다가
화장이
사은품도
위기를
##광고
높아지고
##데이터
피톤치
##익을
set
프랜
##도라
이십
고래
이루는
주며
액상
의상
##공간이
도배
##나저나
##나온
수준을
납작
##da
##금의
찌꺼
뜯어서
##면활성
볼링
지능
##dp
동전
##빌딩
합병
휴무
좋겠다는
a4
만들었습니다
필요해서
이끌고
왜냐면
이니스
이었다
##제품이라
광주시
비틀
되고요
모션
뉴질랜드
ser
화이팅
냄비에
깊숙
##스럽다
강해서
##손을
낮춰
##영을
왔다갔다
##행이
질이
제공받아
쏠쏠
천재
##갔어요
##피부가
베이징
있으시면
해설
##ich
##커플
의지를
##자국
##되더라구요
음료를
매듭
귀여워요
이만한
##자본
##군다나
##ain
단단하게
균형을
하길래
안을
활용이
퍼펙트
드릴게요
공무
##일본
그려진
##발에
여유롭게
res
넣었다
하라고
##럭스
찍찍
밝혔
스커트
대대
반면에
끝을
설문
배관
관리할
마블
##카이
줄기
알려주는
집중적으로
밥이
범퍼
높일
예쁠
##청을
##이라고도
다채
성립
선택해
태도를
집사
허가
##한복
체력이
출신의
얼굴로
##규칙
알렉
깔끔해서
자리잡고
철수
들어왔
표지
안가
에디
나랑
원장
##절을
치러
월급
지나서
##텐트
##분들에게
##그렇게
줄이는
상반
깔려
연방
목소리로
돌이
대추
##언을
##맥스
##iss
감성을
해주시면
##편인데
산책을
자본주의
##하려구요
무언가
균일
##이는데
잔잔
제거하는
금세
귀요미
##맛에
##공부
##처가
##ical
pm
관련이
길어
##오던
##orm
##ere
보이며
고성능
##이야기
국내에
도와주
타월
##했지요
can
꿀팁
##오염
##어디
파데
오게
##차림
가격대가
알바
##해야하는
해야할
향균
속초
##진으로
단위로
중동
놓는
##그를
최고입니다
생명을
때와
구매하실
이영
오피스텔
가는데
가슴을
수분감이
우엉
##범죄
기준이
##아동
올라간
스타킹
운송
부위를
뻣뻣
##고등학교
재개
##옆에
##디한
게임이
##컨대
생각됩니다
##하자는
지속력이
처음이라
고객님의
뽀송뽀송
100g
미용실
##조절이
##선반
사령
필기
판타
워낙에
볼펜
성격을
미나
##일으
응모
든든한
에버
흐흐
##날씨
될지
##종에
설명해
##에도움이
신사
##었으니
총리
제품들도
##빠르게
제네
괜찮았어요
리빙
마술
신나는
예정이라고
사업이
##oth
##ull
##입어
튀는
##맞는
##아마
##오카
전반적인
있으실
기숙
안돼
##시키면
##퀄리티
초록색
삼국
의미에서
화를
##cl
필름을
표시가
황태
주문했다
주문제작
그중에서도
맛있었다
##ph
이해를
##호로
누룽
지방선거
##들에겐
##거라서
뭐라
걸려서
파인애플
##파일
해바라
일곱
이제품
##호와
구경하고
##웠고
고르고
이뿌
정면
표현할
상황은
악취
em
##키의
##가격은
아플
업소용
##원래
공간은
##해주셨어요
겹쳐
날에
두드려
##알루론
##구도
신청을
##입니까
##조립
이번이
변화에
분야에
##락이
##호르몬
##것같아
노이즈
부른
##해야만
처분
##매트를
이놈
단말
드로
가볼
눈부
소개를
이보다
드립
##토로
이수
##실내
상쾌한
사진만
상한
섞인
픽업
독점
##현은
사주
영등
##완성
말합니다
정서
돌아왔다
새삼
터널
나눌
점에
dslr
고사
하더니
사용감이
즐거움을
없는지
맞서
해군
구성으로
셔틀
고루
주류
구매하러
##다르
##버려서
수축
##99
##모의
87
##보니까
이곳을
주인공이
1시
선보인
##값을
캐릭터를
##샵에서
태평
엠보
##과정에서
환기
##청에
아니죠
자신도
점심을
do
##테이션
안테
오래걸
##곳의
##저를
##킵니다
클릭하시면
학생이
서해
##안정
의미로
##조사를
무튼
##하기만
사료를
선글라
롤링
설치하는
포스터
##났어요
모자를
왔고
활용하여
##필수
유축
드려요
디바이스
기분을
느껴진다
##버린다
건전지
명시
피해가
몽골
떼어내
3명
시리즈의
조합이
못했는데
될듯
표현하는
하시더라구요
청춘
얼굴은
##포에
추출물
##세상
##느냐는
진술
가을에
##트인
하필
두근두근
##ug
##우를
무상으로
##되는데요
장단
활용하기
나오니
감안하면
한옥
느린
실업
설마
일하고
음향
마시기
gre
구독
##가전
싱싱한
이온
디젤
스와
##더는
흥분
##거렸다
무덤
##흡수
##라고도
진행한
소멸
페스티벌
타이트
나누고
되돌
벤치
메인보드
##국장
적용된
##마냥
강의를
동맹
세게
수채
승용
원천
유명하다
##런치
가까워
배터리가
##읍니다
높이기
##챙겨
블로거
##라기
지명
##화도
번개
아프고
##토의
먹기에
수거
##야할
##서구
자극없이
##머리를
단점을
##편하고
튀겨
리무버
##레일
고발
##되었지만
위장
진행한다
있어서는
과장
##없음
쓸데
인생의
퍼플
##ata
야무지게
안마
다음번
과정에
배터리를
광고를
##시장을
많으니
왕복
##피아노
##리버
글리터
느껴집니다
끼어
환경이
원전
말까지
##보시면
설정을
정부와
##시장은
##피자
##운다
계절이
내구성
사용하다가
##수사
생산하는
매월
챙겨먹
모이스
친구와
함량이
콘솔
상자에
##부분도
cf
장학
겠어요
이색
댄스
주름이
1학년
##자로서
놀다가
성능은
헤이
스마일
점수
곁들여
썼던
부평
고유의
무척이나
분실
자세가
소스가
통풍
##금리
아들을
드러났다
수있는
##장난감
직무
##테이너
있겠네요
보관이
수업이
##되던
잇님들
내장되어
패턴을
##신경
##탱글
##방석
치열한
주체
자체도
##다는게
오니
영문
외면
800원
행위를
##구경
우동
조심스럽게
밤새
최다
촬영한
문의주세요
##길로
실물
세척이
나섰
아팠
나타날
관리에
알찬
가루가
##신한
어깨를
미군
양보
말씀드렸
##됐어요
##박을
md
##방향으로
양식
마구마구
##제이
호응
##센터를
주의해야
진실
춤을
몹시
배선
끌려
옷도
급한
밀고
##씨와
##에너지
일부를
##것과
지문
올라가서
파일을
주목을
##임은
추후
적발
##세일
##시에도
##만원에
느껴져서
먹어보니
싶더라구요
남편의
담요
원인은
워킹
배기
클레이
##마음
##장소
다시는
방한
진리
염증
##던트
지역은
##실수
원의
##업에
##매우
피를
비키니
jo
kia
헹구
##와요
선별
쁘띠
##세여
붙는
뭉쳐
직접적인
씨를
인물이
알레르기
간주
날씨도
자연스레
여의도
주어야
대리석
##하가
어느날
간섭
출생
##야하는
아스
검출
##발의
시점에서
##변을
##이동
백성
세상의
애가
오메가3
달라질
##고한
##꺼예요
고양이를
청담
됐는데
무릎을
전과
개월
치면
슬라이스
총알
다양해서
##사들은
두뇌
애교
싸이
야당
1995년
쿨러
##비슷
##해하는
구워서
해산
영화가
가드
퍼져
개발을
1주일
##이온
차기
집안에
하위
김재
팩트
##란이
흔적이
화장품을
mod
브랜드는
습관을
샤오미
리치
높을
칼을
연금
자신만의
##소송
##유기
대형마트
방지하기
##지기도
면역력
대명
소리에
일품
##셨고
자기의
다녀왔습니다
걷기
str
방으로
3학년
##시브
때문이
친구를
이르기까지
##각질
원터치
##레슨
기운이
##만달러
##해봤어요
##저래
원단이
##주파
##은은
##하셨던
기능과
##희는
해놓고
건조하고
##위원회는
귀찮은
석고
아들은
##체계
##래프트
상단에
돌아올
day
##톨릭
결과적으로
시작을
나설
##날에
요소가
조심해야
잘모르
##현상
백화
##휴대
제임
불려
증가했다
##샀는데
사건의
미래에
##밀하게
행복하게
##들이나
없구요
캠핑을
부쩍
큐티
##각각
하의
설비
속하는
온통
##넓은
차이나
해보세요
30여
사회에
일으킨
##즙이
##름한
한껏
##ave
구매했
살면서
걱정하지
왔던
오바마
##인지를
##초가
아냐
##보건
곱창
고급진
생긴다
시댁
바라보고
##쁘고
##신다고
발렌
##치아
식기세척기
전시회
##운이
일본에
소금을
미래의
꽃잎
##앨범
자매
채우고
더군다나
##신도시
서식
##움도
했죠
느낌이다
##up
국수
촛불
굴곡
헤드셋
놀란
업체가
인류
##몰에서
넘어가는
포토존
이적
인터뷰에서
하나면
##보에
##봤던
내일은
말랑말랑
차별화된
신경써서
##방수
피팅
지분
거부감
크롬
표면에
해산물
##시장이
로비
##으시는
서부
##그렇
상영
다큐
근육을
##혈압
찾아오
##화하고
##르가
남길
희석
풍경을
아쉬워요
램프
지날
실로
##계탕
구성품은
마산
이태리
##더더기
구단
진행된다
늘어날
계급
탄핵
##으신다면
소리는
##있구요
저온
공공기관
안된다고
##했듯이
##라벨
짓고
볼까
##sh
공예
##트니스
클라우드
##올리
자발
단어를
##지자
들어오면
##삼아
코치
구상
##대교
##로와
소문이
보아도
갈치
아이디어를
정상적으로
애착
역전
엉망
서비스가
하네
접시에
쥐고
##인들을
##액의
부드러워요
앞의
제외하고는
샤워기
이외에
대가
영남
리드
##덩이
떨어졌다
보이기
제공해
2학년
어디서든
영원히
사자
피부에도
설탕을
매수
##원피스
팔아
사람으로
느껴져요
여유를
1996년
수준이다
벗고
주었습니다
생애
오토바이
보라색
##이버섯
불편함을
귀국
여신
##이름
##방법을
나왔던
교황
해외여행
##들이랑
뽀로로
한번만
아무거나
##매직
위험을
##공간을
##칩니다
per
들고다니
##았더니
느낄수
best
머그
가슴에
것보다는
버스를
##클렌저
##미네
##혜택
이후에도
도둑
##빌라
##마사
인도네시아
##인들에게
##매입
기분도
일기
##부탁
물통
##량과
정장
##부드
내서
##광이
영롱
저녁을
몸으로
찾던
##팩은
개인적
가위로
나이에
##투맨
반성
넣어야
##달콤
강좌
##가공
##할때마다
알람
발라서
##시키지
조회
##든다
키울
장관은
입장이
black
배정
두르고
##기어
막혀
##편한
발리
당시에
결론은
마이클
관람객
##면에는
바래
중국은
플라이
추진하고
동서
속은
과거에
##하를
##할께요
미지
##부품
에피소드
##쓰레
고등어
ib
입시
##주년을
충전을
중국산
##트러블
꾹꾹
여쭤
##설이
카멜
똑똑한
부품을
했는지
가족을
회계
커뮤니케이션
##맥주
복수
준공
상임
스티커가
편안함을
이같은
데일리룩
쑥쑥
고마워
잡아주고
줄은
자연스럽고
##통째
뿌려서
아침마다
##오랜
사용해봤는데
##자리에서
물방울
클릭하면
##젤리
식약
이내에
##버렸어요
카페에
미디
만났다
가능하기
시작했습니다
문어
##노는
멈춰
진학
##층으로
박지
##요거
과목
사소한
선택하면
bar
##중이라
간략
총선
aa
그나저나
먹다
300원
100만원
##수증
comp
##상공
주장하는
미생
##시설을
##퍼즐
돈으로
탐색
가졌다
였다
##루스
부르고
모빌
유자
끈적이지
5개월
넣어주고
차근차근
넣기
있었네요
이로써
우아한
보인다고
##ence
확인한
##그레
추천으로
##주름
두껍게
벨크로
하얀색
밤이
되었으면
##토는
건조기
고구려
관해
##는지는
장소에
##케어를
바위
올라가면
되실
연구개발
한지
상대가
엘지
방에서
##탈취
흐르
다이빙
불고
##강화
그루
있는건
지원하고
밀봉
##티나
##66
학교를
비타민d
##됐지만
퇴직
공작
관여
실내에서
비오
61
편리해요
알려드릴게요
작품의
대미
나중에는
##용의
가방이
와플
입찰
##상태로
재벌
내놓은
오시면
어깨에
##창에
##밥솥
도안
끈을
##한테도
창립
이동이
##편안
pt
이벤트로
젓갈
##미야
##세안
상주
제도를
받으실
샘플도
닫고
지나도
##중이다
나누는
만약에
농축
정전
##약간
상처가
심화
말끔하게
생김
맛있음
청소가
켜고
##워치
닫아
개발에
바이어
맛의
여과
##한테는
##담당
아이섀도우
윤기가
낡은
홈페이지를
안철수
남해
보내주셔서
게이트
글자
올려놓
어김없이
94
한여름
##중인데
것이란
피부관리
여름을
##모니터
연출이
##좋습니다
답답한
##하하
교차
좋으며
##마니
붙박이
엄마표
권리
만족하며
##나비
경력
2종
트리플
한국을
이며
##커버를
##두를
스탬
죄다
어쩐
해마다
어떻게든
설정이
진행해
##생명
포근한
베이킹소다
##렸다는
윤리
더불어민주
레트로
모으고
많으신
금호
시선
돌아서
되겠다
##투를
##터미널
##ction
연기를
##꽂이
엣지
파크
먹고있어요
제형이
자연스러
##등한
걸리지
향과
아로
이빨
잠수
40대
부분까지
데에
용서
가리지
씽크
주위에
오키
편하더라구요
전문적인
종이컵
##카라
나기
목적을
실종
주면서
중요성을
이전의
여행용
안남
실질적인
강남구
자체에
##현대
시에는
##전지
##어지지
하거든요
##장입니다
##베이지
주니어
##근처
현대차
미미
##오드
계신가요
##란스
장악
열무
##돈을
프론
##렉트
##사과
첨엔
질리지
##봅시다
곰팡이가
연락처
다림
삶에
짧아
시작되는
예열
씻겨
읽기
##필드
##보여
꿀맛
미스
부회
들어왔다
어머니의
높다고
##건은
이은
라이너
일환
성폭
무향
대상을
##덕에
##레이드
15년
먹어봐야
어렵다고
해봤어요
걸까
##연하게
많죠
저격
수다
있다면서
듣기
변해
저같은
##보스
활동에
스파게티
그리기
시흥
비중을
매칭
항의
색연필
##두가
들어있다
##다이어트
##알고
사용자의
1년에
지속력도
폭스
지방자치
##인식
되길
오페라
공개된
미국에
증가한
##많고
휴대하기
함께한
영등포
##린은
##독한
밤을
동행
스니커
##중공업
토니
금액이
참여할
##무선
용기가
유럽의
조그만
3중
배낭
윌리
위탁
조립을
##밥은
타워
사람마다
동굴
##행위
영향으로
어렵다는
비극
기간에
탄소
걷고
회수
엔딩
##버트
애프터
붙이면
눌러주면
중이에요
##역은
두피에
##대장
입양
오너
##덕분에
브로콜
##보는데
##쿠키
정도였다
날아가
리스
188
갤러
쓸만
통영
화장실에
초이스
비정규
스터
급격히
장이
되어요
##투표
쓰고있어요
리틀
4회
##목욕
성공적으로
전지
다가가
작가가
기념으로
돌아갈
조절을
전해졌다
추워서
되었다는
버클
##레를
먹네요
알맞은
포착
##권에서
바뀌는
20개
짓는
커버력
##ary
덮고
화보
명백
##나오
손목에
여자의
강력하게
니가
있을거
이랍니다
하프
것일
축적
##스타킹
##하심
사례를
##반응
##팩에
논쟁
##으시다면
##수원
##내의
##모임
앞선
유학
##결에
이유도
되어있습니다
옮기
제품보다
안이
사용으로
영향이
##오븐
실린
풍성하게
코를
##췄다
##정비
넣었어요
파프리카
대용으로
##바위
본능
반납
##해져요
5배
모두를
##이에게
가지게
왠만한
조형
딱이에요
서로의
꽃게
##현상이
무력
##마시고
마련해
##세정제
급히
안락
##킬로
날라
신뢰를
##교사
완성이
동글동글
##bb
퍼퓸
##투리
##병으로
##토마토
##왕이
##귀여
##되었네요
베이스로
##지대
종이를
##형이라
사지
두피가
자신과
고장이
뷔페
##장착
시험을
나무가
생각해보면
##준다는
겨냥
천사
실온
귀엽게
##먹었는데
수준에
라켓
할것
원주
루즈
부분입니다
##앞에서
볼에
빠짐
##본을
당신을
##또는
##무엇
##로스
청약
##해드려요
포장상태
드론
부지런히
##워머
선물해
##커리
받았고
태닝
주인이
##하기까지
손님들이
오른쪽에
제5
되나
곳이에요
알아볼
받침대
유권
벽을
##니발
슈가
적절히
징역
love
중장
##불가
만들수
동작을
실수로
경찰에
##통으로
핸디
증가하고
손꼽
경찰이
인민
짜장
2대
체험단
페인
같죠
분비
dis
##물티슈
대책을
명함
관계없이
기분좋은
위에는
올라와서
장사
##가지의
미사일
##참고
하더군요
노하우를
달지
color
뜻하는
테이블이
타지
##더랬
생각입니다
업로드
숨은
##정상
보내세요
여럿
위원장은
줄이기
찬성
호불호가
##관리가
##은행은
상관없
테이블에
기동
않습니까
신나
모인
##철이
분위기도
케이스는
대항
밑에서
##ux
##화문
눈동
깜놀
창문을
이따
워싱턴
그랬는데
고작
사태가
고농축
##에센스
생후
따끈
제공되는
완공
중에서는
앞세
필수로
##이날
맘에들어요
변하는
위키
이노
##말에
ver
성형
직원들이
콘텐츠를
이니스프리
파격
씹는
군대
양념을
제조일
못찍
일이었다
변비
정한
사업은
전제
##뻐요
블라우스
##크리트
택배가
인터넷에
칼로리
##끼가
##데스
엄마를
흥행
신도
버리지
찌든
낭비
프레스
수급
##태가
##의료
시간의
실컷
넘은
##차이가
바라보며
작가는
my플레이
오래도록
없는게
##가능하다
담궈
얻게
##주의를
자연을
일년
맛있더라구요
숫자가
사봤어요
무언가를
겪는
##시안
세력
##이다가
페어
동성
몰입
글은
트라이
어떡
서면
##해주니
기업들이
불러일으
##류에
##ater
상태는
웃으며
가해
차주
중인데
전에도
##등등
##레나
육군
규모로
청양고추
들어있고
##판에서
##주의적
내돈
2개가
서포터즈
가끔은
##였으며
챙겨서
과일을
운동은
친구의
##볼이
##스튜디오
제거한
가지로
슬립
크림치즈
모두에게
함정
한국과
갈아서
당기
잡아서
걷어
##드립
##자수
가족들과
##세차
지경
예쁨
품고
##자꾸
반짝이는
중국이
바뀌었다
없더라고요
짜리
##신다
1990년
한자
##였네요
평평
낭만
##중학교
어쩌나
##회전
내려오는
가능성
탈착
낯설
##에이징
##번길
남았
왼쪽에
연결을
너머
색상과
유니크한
##발생
뒷받침
좋겠다고
구성을
할인된
상태도
있을때
테라스
벽지
##스트랩
해봅니다
##라노
수주
애를
##링은
확인해보
주인공은
2억
있기때문에
만족해
히알루론
붙이기
제공할
##nc
주문이
해야지
타이머
꿈꾸는
준비할
커요
lte
##심으로
기념품
일으키는
게임의
##저의
캠페인
미치
만끽
##br
조식
무대에
##병의
수호
신은
##부대
계승
한명
들리는
카르
씻어서
처리를
##캐리어
린스
개당
환자의
샴푸를
아디다
불만
##음과
점포
궁금하시
##거리에
연재
비오는
군더더기
하라
귀염
가벼워
작전
다르지
##행복
##ank
토핑
김치를
계단을
최소한의
올드
얻었다
##참여
변화는
내수
##임금
잡아당
수족
##옵션
유리한
따가
아기자기한
##마지막
##모아
##잡아
생활용품
본질
포장은
##ax
##85
화해
##영어
디테일이
배당
저어
에어컨을
대비해
##적이라
##오버
베타
##세럼
추천한다
총장
##주는데
중이
##시는게
밥솥
텍스트
돌리는
아니냐
벤처
구형
suv
화면에
중계
##플루
막는
##거치
이유식을
않더라고요
##머리가
동북
드러나
##해주기
어드
##트륨
사용하려고
더마
##gm
목격
##나갈
댓글로
아니니
##임대
##이유식
색감도
##움의
더한
##상승
방법이다
##라와
봉지
##미료
알러지
건의
붙어서
다리에
##적일
했다가
##회로
떠날
실수를
연락주세요
##단백
여기도
지극히
표현한
##음의
몸도
##리아의
##계란
##경험
##문과
korea
편입
##공주
세븐
향기도
##공구
나라가
다이어트를
대외
입구가
##오의
##트러
데워
슬쩍
핫도그
앞쪽
##방학
임원
연인
드린
여유있게
다르지만
기분좋게
##ai
사이가
##청의
평소에는
기모
어제는
자궁
##하였으나
지인이
계열의
시스템으로
신화
오크
뭔가를
오호
넘버
8년
선보였다
도중에
##자들과
답을
##아아
브레이
lg전자
김민
지낸
원하던
역사가
2009
어이
##현의
##그릴
일으켜
##있기
본인은
만드는데
방법입니다
##64
여동생
##구장
김진
gu
건져
세종시
##도까지
좋은거같아요
건담
##ear
##코너
##햇어요
넣어두
친구에게
편이라서
테이
##1개
감촉
적용해
키를
부모가
준답니다
##메이트
반박
##해볼게요
물감
##져있는
열리고
##자리가
주문하면
##하드
##따뜻
다시금
시기를
##점인
vr
성공했다
가져오
##큐어
##햇는데
회피
동결
감옥
나오면서
##퍼니
##거리지
##고무
너무좋아요
익스
좋아지
##적이라고
##소매
##써서
우리아이
예로
필요성을
공간의
없을까
알고보니
맘이
해봤
카메라가
이불을
말이에요
파츠
사드
##시켜야
열대
##그립
##였으나
선전
맥북
생각만
##비디오
고마운
머릿결이
이왕이면
허허
not
상실
마쳤
단풍
역사의
한국이
sk텔레콤
##정원
산타
your
##연휴
부착되어
시마
바가
빡빡
스트라이프
주의를
##사회의
프렌치
비밀번호
집콕
모니
지적이
고객을
데님
식의
평가가
##루는
하겠
몸과
사회를
갈때
해볼까
##조차도
step
가족들
무색
도내
움직여
깨진
얼어
의미하는
꽁꽁
##용도로
##팩으로
ww
비춰
맞출
가사
동구
##변경
쓰던거라
곡을
자국이
가격과
##성분으로
이제서야
차분한
저희도
기대할
알려드리
사라지는
##94
하루도
지내고
근본적인
오랫만에
녹아서
스미
치매
##전력
##했기에
찍기
구명조끼
##캔들
##삼성
통증을
125
사용가능한
도매
송풍
tw
이름의
아오
간신
미끌
통보
##해볼까
가시면
부끄러
##마침
발림성이
이른다
##림의
해야하나
무늬가
만족도
였습니다
산다
##불에
치즈가
납부
##az
크리스마
트렌드
##위험
분쟁
침해
spf
국어
비만
왔을
##인용
##스쿠
##보글
어마어마한
챙기고
괜찮은거
딱인
아카데미
전술
전화로
오케
구입하게
보고서
##혁명
##사진은
##무리
실습
로지
뜨개
넓어
무더운
등판
설거
했었다
##능력을
자르고
대한항공
매출이
중량
힘들어요
##꺼라
감동을
신속하게
이후의
주장이
##비한
획기
수험생
두툼한
가디건
자유를
신흥
##니닷
##금고
##오징
삶이
양평
있으니까요
음식점
상품권
기업은
소진
톡톡히
##ung
한계를
잘하고
받았다고
lo
부직
점퍼
바꾸어
기대된다
심의
미뤄
전담
불안한
득점
판매되는
##스텝
김연
총괄
제재
그곳에서
오트
대해선
운반
장군
연결하면
비교를
가이
웃었다
가든
큰일
73
##볼을
비워
안경을
아시안
##물쇠
##사이즈가
이쁘다
##내야
##추어
##증에
게스트
거기다가
아빠는
실시간으로
##블랑
##러서
무작정
리어
82
관심과
강아지를
즐겁고
못하지만
아쉬워
소비자의
200원
이어진
4k
뿐인데
##iew
입에서
김상
##앞으로
##부드러
노사
##시라면
##재판
##아무래도
오른쪽은
규모는
목적은
바람도
##보통
버거
길이를
한달에
해바라기
신중하게
대목
모양이다
##리자
저것
대통령과
배신
훈제
##굉장히
방콕
맞추는
고체
##리드
상태입니다
인화
##케익
존재하지
단정
모르겠고
토크
체지방
##금방
##뚜기
이야기도
옆에는
헬로
##are
작동이
익히
##차별
이지만
출현
##패치
내보
챙기는
촉감이
존재를
까만
해드리고
살기
장난감이
책에
기온
열어서
전자파
##bl
##색에
타카
주민들이
사용했다
집권
좋긴
글쎄
라인업
##티아
붙이
메모리폼
막걸리
갤럭시s
좌절
묵직한
1994년
손상을
만나면
구사
##심에
준비된
했으며
샀던
지냈
자사
탄산수
101
케이스도
분이라면
##복은
컵라면
##지난
환율
##런트
##이후
##비빔
##측은
응시
mo
친박
꺼려
생각하니
인터페이스
인가
많으면
전자렌
책도
준비해야
사무실에
날카로운
##더의
조금이나마
짬뽕
##충분
박람회
간부
연결하여
실정
##재료를
텃밭
##레가
타기
함부로
욕심이
##공화
보더니
확연히
##끼를
드레스룸
전시되어
##버전
슬롯
협조
덤으로
##니어
##말라
##열심히
요것도
신호를
구조가
맡았다
##피트
gps
흑백
부부가
##놨어요
##래서
먹음직
마감이
##장이나
가급적
워터프루프
콤비
잘되
##만명
다른건
##2일
촉촉해요
정신적
네덜란드
발명
자르
곳의
##들처럼
주셨습니다
내부를
##nt
안마의
본다면
##처는
두들
달라지는
##됐는데
오류
자신감을
착용감이
느꼈다
오랜시간
비판했다
보호를
감사의
nav
해줬
결의
앉을
오산
시설을
##코코
재건축
##글이
##주의의
##오르는
어깨가
앞뒤로
##됐다는
팩을
##샷을
남편도
##회의를
했기
##중에도
연두
페달
##대용으로
도톰한
고기는
피드
11번
캘리포
지지를
필립스
추억의
뿐만아니라
크다고
칼국수
프랜차이즈
길로
상용
병을
사람이라면
여주
상시
낳고
##계획을
##다가도
##세탁기
가다
노력하는
기술의
철분
사장님께서
타올
따갑
출석
건강기능
중학생
틈틈
장착한
##서비스를
살펴보고
보기에는
티타
##ition
##창한
부패
뚫어
##체제
먹었네요
ic
존맛
3위
감귤
##란한
찾아가는
##쉬는
##보충
##man
mic
눈앞에
빼놓을
불쌍
기기를
원격
##틴트
##하듯이
무소
##고속도로
악마
max
김경
나게
##탕을
방부
있었으며
요리에
##ri
dm
친척
얻기
공동으로
##좋을
나더라구요
손상이
만들었는데
주된
##마세요
예전엔
곁에
제품이라서
솔직한
자의
만들어낸
친구랑
##느껴
쪽을
감정이
문제도
짧고
업종
##모드로
꼬박
하나같이
참여해
4대강
보풀
하체
##출판
짐이
집에서는
맛있는데
무산
##국내
빌딩
밝히
##걸이는
##롭다
##발효
##회의에서
들어도
절차
##었지
문구가
##배달
이동식
중도
진짜로
360도
두달
명란
불렀다
해명
전선
같아용
##받기
손가락을
##95
part
습득
##방식으로
##림은
있기는
##생긴
##적이었다
분의
##기분
낮에는
효능이
모발에
뜻으로
##해봤는데
450
사람에
상대를
목욕을
오미
왁싱
왜이렇게
##신기
딸아이
저녁으로
무해
인기있는
##줄은
##메틱
블라인드
배포
놓인
음악이
설명이다
긁어
잡티
##벌이
주려고
낮게
지원이
작중
감히
기술은
##싶네요
made
rc
##상태를
프로듀
다져
보았는데
##yle
수돗
맞다
아닌가요
어버
수사를
의사를
위주의
채취
프랑스의
기특
##책이
경유
왁스
5회
두개를
##디의
##해놓고
확충
쌍용
##남은
현황
수소
증상을
일각
골반
금액을
빨래를
큼지막
보도록
속에서도
##부산
##모스
재질의
영역을
##ike
유지시켜
계기
kn
들게
선보이는
알이
가실
결론을
고객님들
했으니
부사
마자
mv
맛으로
눈은
대안
비싸게
최적화된
##도착
생활에
시켰어요
##였기
구매하기
믿는
##땜에
바퀴가
##오토
중기
다같이
협찬
사이를
비유
from
했거든요
노래가
가능성은
일들이
##련의
면적
수명이
##겠더라고요
##허가
가늠
원조
근육이
병에
##매트는
상향
##사용할
##지않아요
##몸에
##oll
##웨딩
베이직
레이어드
air
##할수있는
끓인
세탁을
공존
최고에요
노화
담당하는
아름다움을
운영을
강경
파우치에
고백
##글라스
손도
##비닐
배합
남다른
견디
뒹굴
##소녀
##탱크
##롤러
감각적인
다음주
다니며
그보다
일정이
일부는
뿌린
사먹는
양해
##출산
외출할
섹시
찬물에
##폰을
허위
##사들의
화사하게
공용
사포
입술을
한쪽에
여리
평소에도
조달
##부위
모델입니다
##메이커
후기는
알아보기
극장
##페인트
##그런지
가정의
빈틈
건물을
다니다
발생하지
코미
거제
세우
##림도
사유
시위
요소를
눈가
엔지니
아아
##리기도
서울의
청바지
적용되어
##udi
못했어요
동백
분위기에
##리칸
종류를
트위터
러블리
걸친
주주
도우
무궁
##네는
화상
나면서
나타나고
연락이
##블라
##탄올
입법
안들
힘입어
##현실
살을
문화가
두둥
음료수
너를
##했나
퀘스트
좋을까
이래저래
부분과
##범위
아침을
노트북을
##뛰드
에요
짓을
우러
부동
환절기
김기
전화가
시드
서귀
주는데
돌아와서
공이
##리언
##하더군요
체제
나사를
그림으로
##이었다고
##꽃이
묵직
피해자
##떻게
클레
다니면
보기로
##클릭
왼쪽은
##초코
달아서
매끈한
장착이
구매했네요
적의
슬라이드
##해집니다
군산
##진정
##준이
##하세용
형상
나눈
##보러
공부하는
##크기
##는지도
전직
큐빅
##더로
이시
##느끼
스테인레스
2장
여담으로
블랭킷
모시고
워커
##기간은
##먹는데
쌍둥이
가난한
번째는
##사용하고
겨울을
##년을
쓰시는
##로폼
파악하고
##주소
어떨지
바이올린
안다
수수료
##자켓
뾰루
아임
##박스가
##보의
##한듯
성별
자재
위축
리프트
먹이는
맡기
살피
패드를
##m의
##혁신
샀네요
##플렉스
이런식으로
기다려야
틀린
##운서
굳은
구해
없잖아요
##훨씬
고양이는
##마음에
그리고는
pre
계십니다
자른
설명은
##레이트
##ork
화폐
구입하면
남겼
암살
장인
변속
블링블링
매체
셀프로
보글
과언이
습관이
##정화
##입은
경쟁을
산악
아름답게
오른쪽으로
신념
제압
광장
몰랐다
##도구
##미아
직관
##라클
착용하는
보이기도
당해
데서
10명
하드웨어
이브
살던
dj
ty
보기에
느끼실
되었지만
사모
##법도
제조업
어디에서
마찬가지다
스트라이
이곳저
아산
모습과
부상을
##리온
역량을
오션
전문업체
외출을
##래를
유통기한은
상품입니다
데크
한방에
##인해
프라이팬
정기적으로
다시마
##북을
##으려면
소재는
손등
가능하지만
정리할
묻고
할께요
정성을
들어가게
개헌
##릿한
##하기엔
부분으로
간신히
##통과
ts
달이
보육
일어나면
스몰
코르
죽고
##가루가
##같아
경쟁이
##망고
상무
않고도
##바의
비정규직
sn
세심한
흡연
푸짐하게
##표시
바다가
관세
됐습니다
##즈와
스크래치
있더군요
##회관
이어져
고객에게
##파스타
##웠을
야외에서
##해준다고
##홈쇼핑
후보를
씹히는
있겠습니다
강연
약해서
##지역의
상을
여느
생소
차원이
##셨죠
않을까요
##알아
비용은
##팀의
시피
치우
##홈페이지
나가지
전보다
여러분도
##설계
##비드
이길
터지는
변함
휴양
원숭
그곳에
##보아요
펄이
cs
이물질이
##왔지만
##당하고
##해보았어요
다른곳
##센터에
될거
에센셜
계절에
것이니
타면
거뜬
그레
불확
임의
대원
세심하게
##호에
주머니에
후후
거라는
##ose
말고는
회장의
##프와
보통의
포만
지탱
##청소를
서로를
책장
오븐에
##먹음
##려구
혈관
하와이
물티슈로
도모
##가능해요
##꺼같아요
##발은
##소재로
무제한
##보이고
했으면
벌이고
낚싯
맨투맨
##부도
##희가
디자인이라
좁아
바꿔서
말하며
감아
발걸
이쪽
하나입니다
##라에
책상에
검색해서
깨알
일상을
상대의
사격
등이다
해결하기
##사례
관할
혐의를
comm
에어프라이어
행사에
박아
원이
들어오고
##타르
추억이
세세
시공이
없나
##차곡
lg전
12개
쓰일
끄고
분들에게는
원장님
쓰기도
##뿐인
할인을
##ds
전경
##쯤에
탱글탱글
##장식
척척
들어선
##보우
열렸다
라임
##결국
큽니다
프로폴리스
작성된
##ton
컸다
누군가가
##노릇
지방의
자동차를
에르
##리지만
##프에
녹화
결정적인
되살
보러가기
##뒀다
##부랴
무게도
피부결
##부터가
이외의
물가
고정시켜
수리를
케어를
스케이트
스타일에
mp3
##두피
lp
순해서
##네가
내려가는
##집의
##센터는
모셔
##색깔
보기도
홈플러스
논문
커리
수납이
손색이
##이서
않더라도
200ml
##티셔츠
터진
병이
##어가는
##이어야
제조사
##패키지
##산업의
브루
##액자
##해여
지도를
나열
염두에
케익
온가족이
화제가
##수익
##욕이
운이
조건이
좋은듯
한번쯤
안하는
소용
##역과
화장실을
##먹었어요
정신없이
국민이
환자가
발언을
팀은
단종
##펀드
문화재
##이한
눈의
양쪽으로
##해줘서
##패딩
카드가
올뉴
##했지
얘기다
배불
살린
수치가
양쪽에
연대
오시
추모
보름
개선을
기업을
프로젝트를
조례
편에
어렵습니다
원한다면
##플랜
문질
문장
피규어
##ale
맥스
둘은
쫀쫀한
물건은
##ae
##중엔
이렇듯
와인을
아프지
상식
전도
목표는
숨겨진
##으시고
##야겠다
4명
그랜
##동강
만들지
않죠
##모니
띄게
구원
신는
심판
간담
국가가
받아보
주민들의
과다
유망
미러리스
확인하세요
있었거든요
한쪽은
참여를
##놓았다
선정된
결정하는
납치
행사는
다른제품
사용도
보단
##걸요
생각나서
##하실수
##하트
갈등을
관계자
가기로
쓰기에
진행될
##row
##교회
마그네슘
아주머니
##기전에
전문가가
퍼스트
##들께
발색도
##동과
##한건
수단
##해는
기간을
실험을
##조아
불면
더치
세번
캡쳐
##ah
##ont
레깅스
사찰
작용을
지킬
힘든데
사실에
빨갛
우레탄
카키
##민트
상부
##과에
업체를
항암
산림
천정
50ml
쇼핑을
크기와
문제점을
##꼭지
배에
앞을
디퓨저
##봤을
윌리엄
이해하기
듯합니다
닭고기
요즘에
섬유유연제
기능에
아니어서
집의
해치
되어있다
##아이는
##기술을
준수
식감
회담
섭취할
##출력
않던
하셔도
돌잔치
##층은
돌릴
수시
와일드
추출한
추가된
제거할
##불을
##광을
지그
영양소
할리
읽어주
##화되고
뭐니
교구
회의를
##own
활용도
떨어진다
##인지도
녀석은
얼큰
닫기
##냥이
이용이
##걸이가
##지지도
낙지
멋스러운
사업의
단속
##이고요
핸드폰을
수납장
vip
강조하는
##가봐요
놀이기
##레트
원산지
##기간에
없는거
스위트
##꾸준
머리도
취향이
한약
##뱅크
##표는
자기도
한식
사랑에
스팟
평소보다
경기에
특정한
##러운
정해져
명문
편이지만
바삭바삭
법원
서재
분석했다
담배를
터미널
기온이
비슷하다
필요없는
달리고
만들었다고
역할이
새정치
##리스를
디럭스
타입이라
##68
난다고
##영양제
철강
적재
세월이
사건에
엄격
레일
가전제품
##드리며
##역사
##밤에
사용하며
좋은제품
해야하는
슬림한
없기에
철제
##쉬운
##건에
일어나고
갔더니
마무리를
향수를
##열에
에스프레소
착수
바라본
스스로를
적절하게
##싸게
요구를
##저격
간편해서
##높은
##슨은
대법원
해를
하셨습니다
강습
##로이
답했다
##무기
넥센
4천
불고기
싣고
이런게
원더
목포
동봉되어
한번은
설사
종족
존재가
어려움
첨에
높습니다
차곡
주연
하셨는데
신랑은
제게
##퍼로
##마이크
##하니깐
사용했
##주자
여름휴
##피부를
초기에
##빠른
추가해서
권리를
##사이즈는
충실
팔이
##민을
pol
수렴
오늘부터
사건은
##시설이
##야가
드문
모형
모의
여지가
##티스
##원인
발리는
이별
기자회견을
##거같아서
목공
정복
상품의
알림
두개의
덜어서
병원을
주방용품
플루
방음
환하게
인테리어가
미키
그제
탄생한
##모차를
sch
그다음에
깎아
##된답니다
##펜슬
필드
문화예술
##감자
영감을
##필로우
도착했다
불평
공휴
크릴
두껍고
한그릇
상대방
##레는
전기를
준다는
자이언
커피가
썰어서
야채를
돈은
효과까지
가능하도록
구매했다
말자
산을
몇달
아니네요
사용감
##ile
청소할
2층에
##오디오
한마리
전쟁이
많으실
무겁고
기대해
학생들에게
의학
##만으로는
서비스도
팁을
5천원
지쳐
나와있는
공장에서
상기
헤매
##만원의
패드가
흡사
워터파크
혼자서도
그렇기에
사과를
애용하는
##리필
보조배터리
시작했는데
미세먼지가
모음
18k
대구경
다이어리
어떠세요
노려
모범
다이어트에
선택하고
초고
사용중인데
보답
우리나라에서
준비해서
119
게임은
컨테이너
딸을
클래식한
##도르
한두번
처음이다
추천드리고
비싸지만
##포켓
맥락
여아
이대
주방에
##me
햇빛이
##리조트
잡힌
말인가
##져도
실시한
만들어졌
쿠킹
후라이팬
대지
##해결
##담배
##민족
##ife
주가가
알파벳
아울렛
ew
엄격한
농산물
예매
##kcal
##살에
red
바뀔
##대구
수지
매트를
뚫려
##세트는
그러다보니
유투
알약
고려한
요번
##것이다
상징하는
폭염
선수들의
뒤쪽
이동할
퍽퍽
##67
애매한
재료는
##연대
대면
슬프
덥고
속성
구비되어
##론가
흐뭇
임직원
풍선
단편
무대를
코끼리
발견하고
##마우스
냉면
다행이
가시는
장어
카운터
신종
##호흡
##내를
반전
210
##샐러드
달아주
와도
정말이지
##팩이
##믿고
손실
값을
빛깔
알았어요
##모양의
프로그램은
대치
타자
크림이
##급으로
xx
값이
맘껏
##수학
네트워
영원한
비싸고
소리로
구분이
한상
활기
실속
여기서는
시민들의
##sk
##린의
인간을
테두리
3호
더러워
에도
전인
after
더러운
게으
일본이
승차
콘셉
올해의
도시의
구연
##들끼리
##먹어서
전성분
자물쇠
##였음
문화의
끓여서
##환경을
혜택이
수딩젤
인천공항
나옴
만족하는
시를
##분위
왼쪽이
##곡동
말하지
아이크림
##전문가
##래미
절망
있었음
사운드를
높이를
저에게는
##심과
경향
다르기
시식
##거진
일리
##포는
활용하면
##두루
##재정
##놔서
##출처
아줌마
나왔네요
말해서
안전성
##만원이
##임에
불만을
##티즌
대놓고
팡팡
##느니
방송에서
사촌
선보인다
1층에
세척을
##식에서
##olog
씹어
만들었던
보호하는
##뚱한
##쫄깃
여름이라
아닙니까
요리가
##리라고
운전석
벽돌
농담
맞추기
친구들은
글라스
##틀을
cg
몰고
웹툰
연봉
##형태로
##려다가
줄줄
##oo
내려다
##하단
##혈을
선행
합동
함유하고
##털이
가보고
그곳
시세
##에도움을
##초밥
부모의
좋아지고
늙은
담백한
자면
##anc
위원장
##치면서
##있으며
미처
기저귀를
분명한
신용카드
싸우는
지키기
저소득
고려하여
아미노
컵에
산행
촉촉하니
구로
여객
##메이크
인식을
승진
저게
##증은
볼을
선생님의
답이
##분유
시설이
ec
분리해서
간다고
활용하고
##리케
완벽히
##편에서
많아지고
##포장이
전까지는
있기를
원에
일으킬
사랑받는
교수가
촬영이
식당에서
##우와
xl
덩어
##주셨어요
문의를
깊고
명령을
퍼지는
재봉
모공이
사랑해
메고
##살은
아가들
선물용으로도
가려고
시리즈는
황토
세웠다
전구
##유치
##거다
##사항을
##현장
불쾌
시계를
부유
허리에
하나다
샌들
극히
리모콘
올렸
##국인
누구에게
##엔진
통치
스태
##단위
홈케어
2루
작품으로
사회가
##수제
##어졌다
83
모여서
들어가니
연결할
문짝
##실장
낸다
##님들의
모양은
장착된
대회에서
굽는
프린팅
그들에게
판교
쪽에서
토스트
아낌
찌개
눈도
제작하는
줄었다
소리와
학술
비교할
끈적임이
##수욕장
유아용
##해봐야
50대
면도기
이의
신발이
말아서
wind
깨끗히
2조
##니와
장마철
##중독
만들어지는
깔끔하니
기쁘
##이제는
스트리
문의가
대의
71
조합으로
시판
그라인
##트럴
카페를
참고하시면
도착했습니다
소울
##빛을
자유한국
접할
끄는
저한테는
살포시
키트
1992년
##바이오틱스
좀비
의자를
##것같네요
##마치
갔습니다
해독
질러
2박
서스
아랍
안감
벽면
기능까지
대표의
##가드
개인이
최우수
##들에서
성공적인
보드게임
위쪽
풍부하게
##시키며
중국에
끼우고
분위기는
만들기도
가깝게
일어났다
수퍼
해달라고
대조
##레시피
if
찍으면
무지개
##작이
##루엣
고급스럽
선택은
이같이
해결해
영유아
사무용
곳인데
들어가야
넣어줍니다
눈과
##한의
##세스
호텔에서
백일
풍기는
##보도록
흘려
몰딩
지퍼를
내용에
가져와
본체와
이동합니다
진영
느낌에
##셨는데요
##처분
##정동
있어용
올여름
레알
##파운드
북한은
과잉
에드
##복원
오트밀
친구도
광이
단계에서
et
##간히
리뷰는
##캉스
용어
관련하여
부족해서
##원목
서랍장
강제로
##성인
완료된
콘크리트
마스킹
개장
그랬더니
##stem
얇아
비전
우리나라는
##파서
기반을
휴가를
##렉터
막대한
노벨
아래쪽
아드
활용해서
##됨에
컨설팅
##랐어요
iso
커피는
입수
기내
사회에서
맞습니다
노폐물
가격의
매니아
일어나지
이순
##홈런
박수
나오더라구요
모순
활약을
온라인으로
##처리를
마무리가
권유
바둑
브라이트닝
포장해서
##ba
사업자
교과서
죽이
유인
밖에도
##희의
만지
런닝
##way
취할
##격에
제트
구찌
선수는
나물
펼치고
잠옷
전문적으로
곳곳에서
초에
비율로
사이트에
##매매
비판을
타이거
##골이
나스
맞물
고도
비염
안티에이징
##밀히
##스턴트
곡선
들으면
hdd
단어가
8개월
들뜨
해보는
##남동
할인이
##스피커
노동자
세제를
밤에는
역사상
보글보글
##치노
큰거
국정원
어우러져
그림은
그러지
참을
고등학생
귀차
진로
##위원회를
기술과
해두
##ics
##프랑
발리고
##해보이고
기다리던
방향제
1990년대
버텨
넘기
사고로
##중요
##깔끔하게
극찬
##47
않았기
비닐을
찾으신다면
정부에
코가
역으로
품질을
직전에
더할
##파스
##찾아
프로야구
##공식
##관계가
얼려
구스
단행
문화적
##인천
아보카도
##하자고
세련되고
제임스
학문
##항에
제시한
관통
시즌을
영어를
업체에서
뛰는
왼쪽으로
줄어드는
##받았
식혀
벌어지는
폴더
불빛이
원장은
드는데
생각해보니
이윤
##러의
자금을
나름의
상급
같긴
편했어요
들기
##타입의
제거를
##추진
외곽
##겨운
마트에
개념이
옵니다
숨이
##교육청
##업무
기절
##유니
요인
##백의
정글
일본어
##닥터
귀신
스며들
김용
##아삭
줬어요
일자리를
##터널
##조물
##계에서
##세라
용도에
말리
재사용
말레이
버릇
볼게요
##바탕
차원의
여성스러운
입욕
mus
##악기
접지
내년에
애호박
자자
dl
서울에
많았고
베를
피로를
##령의
##증후군
kc
의혹을
class
##42
12개월
사용후기
##반은
피크닉
미끄럼방지
이쯤
사라졌다
남겨주세요
##위원회가
자연유래
한컷
##ream
그런데도
구역
파도
구겨
##위원은
사용하세요
쓰시
묻혀서
오로
어쩌다
고민하는
미즈
상생
구매해야
##길은
어울리지
##tp
어울리고
체계적인
##46
구입했다
알맞게
집어넣
맞네요
내용으로
향했다
3세
##거품
관리하고
뒷면에는
불편하지
사쿠
##건데요
의사가
##무시
##헬스
의원의
타당
현수
모카
1993년
부모님께
수중
화산
롯데마트
##스틴
손상된
##리프
어떤지
불과하다
패스트
##사령
mark
학생들을
##류와
##들이라
도트
##야의
조립이
##인사
설명서를
풀어주
모드를
사람이다
귀엽다
##보장
떠오르
말까
##프리미
돈까스
##러로
마라톤
강화유리
중이라
이후로는
##습관
유가
##랄라
삼십
##우니까
이럴때
4층
원하시면
명동
마당
##만원으로
##교실
지내는
채무
사천
mou
쓰인
테라피
고데기
탱크
블랙헤드
왕이
수납공간이
사립
##강도
##효과도
기업에
만년
##망은
오세요
기록이
##겠구나
##amp
##하기때문에
##즈로
같다며
얼굴도
설명할
의자가
일과
지목
셀레
와사
전성
##갔습니다
좌우로
##건만
몰랐던
##사키
어설
자라고
겉은
3년간
압력을
##화폐
##서서
이렇게나
반은
부는
##강한
사항을
사용하기에도
##뱅이
##었기에
별이
예의
끼워서
##잡을
먹는거
고급스럽게
보트
옛날에
교재
혈압
##orn
##떡볶
네비게이션
1980년
활동하고
##전까지
시작된다
방법과
표를
라텍스
##다니다
끝판
##98
조이
##아침에
걸었다
##채소
좋았답니다
오염이
래쉬가드
##눈이
따듯
필요에
썬크림
키운
아닐까요
읽은
겨드
덴마크
##집중
한양
후딱
비롯하여
얼룩이
받으러
파티션
##바리
즐겼
에티
##설비
진행됩니다
이하로
나뉘어
고난
고지
건데요
북부
별루
브랜드인
부당
대통령을
도구를
##3일
부끄럽
기쁜
동동
##그가
마리아
##단계로
남성분
##경기에서
제조업체
다먹고
##우주
##현동
##왔다고
##역할
feat
매도
##박람회
세개
특검
유익한
##테리아
인적
##패드는
##평소
만족입니다
죽음의
빅토
보관하는
##먹어야
포인트는
유지하기
5시간
정류
지진
큐티클
다가올
주식을
찾아야
아끼지
실을
상태의
##섭취
스티로폼
187
##나중에
##자라는
size
안내를
2부
은은하고
##다들
##잔을
부합
##산에서
##팬티
따르는
마더
##복으로
생기기
걸렸다
##무진
##강력
물어보니
올레
태도
알아보는
신세
올립니다
##야는
비단
하겠지만
나온다고
탐구
벽면에
##작으로
결정했다
가톨릭
분수
뿌려주면
##부르크
예정인
운동도
사용중입니다
##오르
##것같아서
숄더
쉐이
범위를
드세요
법이
과감하게
##벽에
동남아
유광
kg
왔다고
인근에
##보수
##공의
어른이
##애가
순대
정하고
쏟아져
증폭
한몫
탁구
##김밥
저렴히
주워
못지
이곳이
염려가
ak
운전자
판단을
##버드
##보도
서핑
확인하기
산뜻하게
2세
##퍼센트
솟아
방과
슬라이딩
##그제
심플하게
하셨다
부작용
기록하며
시민들이
애들은
거고
고혈압
되시
한켠
##너가
협약
5kg
##버림
내부가
기간은
교훈
##팀을
3분의
##녀가
나가야
고무줄
맞았다
소아
뚜렷한
##제품의
##스테이션
숙지
시선이
다가오
비율을
재해
이전에는
진상
원재료
짐승
아반
없었다고
텔레비전
##로랑
오른쪽이
이예요
임무
후보로
inst
##분말
어쩐지
##시에서
배는
장착을
##비율
도라지
칼칼
온전히
750
시작은
축축
책정
네티즌
이런건
시집
노른
##교가
공동체
상태라
여리여
섞은
##물고
##기입니다
##령은
es
##가다
5대
바르지
테이크
##향과
##에용
잇따라
좀처럼
아연
바빠서
##심사
##필름을
유전자
놀랄
빠지면
그리스도
번갈아
play
재미있
##로봇
기준에
##중국
박물
애정하는
텍스쳐
리스크
내용물을
놓았다
나선다
##전동
##미사
##터테인먼트
말과
##할머니
관련해서
##실때
사회주의
기록하고
##랭이
번이나
안되어
입사
수상한
살수
쥐어
5세
원활하게
자극적인
1장
북구
설명서가
##ult
어필
##황이
6번
애플리케이션
부시
낮고
저장할
듯해요
주의할
느낌과
전력을
닌텐
미쳤
사육
앞머리
잘먹어요
##안주
올림
역을
##루의
에뛰드
##메리카
5명
높낮
컷팅
되었으며
폼클렌징
다채로운
장치를
않거나
차곡차곡
바르게
잃어버린
봤더니
ur
요구했다
아쉽다
##되므로
수산
없지요
신품
되므로
확립
마린
강하다
견딜
맺고
머무
부진
비율은
위성
레전
건강과
그랬어요
인테리어에
루나
전망이
한정판
정유
##듣고
말씀드린
신발은
진지하게
아니며
영상은
##가볍
실루엣
더해져
##분이면
적용한
##ero
##함까지
무효
하나님
인문
바닷가
채우
##웨어를
느껴지네요
##노조
맞으면
웰빙
썬팅
고로
지었다
현명한
역할도
사이트를
##았음
산하
즈음
보스턴
틈이
질렀
같았는데
엘리트
일환으로
강하지
휘발
##기관의
촉감
누구보다
##작업이
##분리
반값
착화
김지
타입이
현역
활성화를
##차이
완성한
좋은게
중에도
담는
##억원에
수선
통하는
메이크업이
##01
조화가
##만든
영향력을
있구나
10초
매트한
누드
##제대로
##pp
시절에
대표적
##스트림
머플러
없이는
여름에도
92
##석으로
##속옷
여성용
할인쿠폰
들깨
조물
##수육
찍었다
coup
자리는
이끄는
복부
사용하셔도
##였다면
삼계탕
있었죠
오르고
드롭
겨울엔
스트레스가
두배
어려서
##맞춰
등받이
만의
번식
바뀌고
가격대
뛰고
##그는
##게이트
침대를
사이클
##ous
대구시
우유에
냉장보관
거울을
선물도
##근을
경제적인
받으면서
##드네요
향긋한
내며
중지
밴딩
##듬해
##거리에서
##론에
전철
피톤치드
피카
몸통
즐길수
##되나
##책으로
##채가
##근이
##매트리스
주기도
엘레
##금과
드로잉
원가
##즈음
시작했고
괜찮더라구요
흔들림
##스럽지
산화
액티브
보호대
사나
엄마들이
발생한다
##상으로는
##다의
고객님이
##앉아
이완
##폭이
##ark
##센서
집안의
초창
생생한
##모양으로
가마
##됐으며
##리라는
뒤집어서
희귀
세계로
여러분은
쿠션이
발음
##추는
1개월
그대
닦는
지각
트루
자문
전수
열어보면
고민했는데
바다에
수송
느껴졌다
입맛이
##기업의
비결
##간은
##무료
##저축
##님들도
이식
과하지
막힌
자잘
순간에
요시
필요해요
이글
왕의
인내
기다릴
##하겠어요
교통사고
매끄럽게
입장에
매진
남구
##용지
그쳤다
개선에
장갑을
문제없이
캘리포니아
##a는
습도
##톤으로
186
##사전
필터가
##것같습니다
할머니가
연결되는
추정된다
뿌리면
물만
##사나
##맛과
선택해야
##메르
후기도
투척
##전혀
##제인
바와
world
라이더
캠핑장
어긋
##바겐
광화문
그전에
공업
허전
소소
아들의
암호
운전을
사용중인
##시간도
##장치를
원리를
넣어두고
발랄
매쉬
##뿌리
##것에
아버지를
##수량
rec
##천을
서명
데미지
##궁금
아디다스
엔젤
불린다
치워
힘들었는데
플레이를
또래
알라
에어팟
체크인
챙겨야
4강
##프렌즈
활발한
##위해서
닦아내
##앰플
장소로
캔버스
컨디션이
쫄깃한
꺼낼
##였나
냥이
##불편
##자라고
##하얀
털을
app
효과로
아직까지는
말리고
어린아이
부침
알면
기본이
모두의
##하시구요
주위를
돕고
싸이즈
신선하게
나가기
보여줍니다
200여
##어떻게
##겠는가
##평이
어플을
못했
외부에서
##캠프
향으로
매니저
##슬링
##결혼
##보겠습니다
전무
높다는
모델의
전차
다이슨
##방법이
콕콕
공개했다
##와인
만들때
그걸로
남겼다
푸르
but
언박
운명
따르
인스
후보의
육체
해리
##세린
##구두
군인
햇살이
##ern
정가
수치를
웨어
밖의
##만드는
둘째는
무기를
설명도
키우기
##차지
살아야
풍요
가나
쉐딩
한데요
ir
코카
사랑과
무겁지
대체적으로
생활의
나일
체형
길쭉
없으니까
살펴볼
전염
걸까요
##하되
보이더라구요
웃음이
관료
어디까지나
lh
##화면
6가지
것들도
음식에
##어스
지역으로
mon
부랴
bef
동그랗게
##증으로
##eth
대림
포르투
듣지
권고
만점
탁상
프로그램에
관리도
연구원은
심각하게
인건
홀더
##out
##였죠
어두워
##싶었는데
중국과
##패드가
보기엔
계면활성
된장찌개
##복에
kr
흥미로운
다이아몬
리가
한바퀴
들어있습니다
찍어봤어요
것이지요
0으로
삼촌
여학생
협박
지나친
185
부위가
##du
한의
서두
##실도
느낌이랄까
해외에서
도요
여자를
1부
재빨리
##놔도
##원도
변색
직면
있네
##해보았습니다
호랑이
##분들을
대답했다
sr
주물
성수
하므로
2층으로
위생적인
모모
##ster
hot
서늘
##발기
방역
##바오
업체에
드라이기
딱이네요
128
이질
스페이스
자그
##총리
살펴보니
농장
전진
한대
##크리스
이들에게
고양시
밥은
이해하는
달한다
##놨는데
구청
##건물
##밑에
사랑은
이네요
스키니
풍경이
평가했다
조언을
##님들은
같으면
백종
더불어민주당
며느
검색해
곰돌이
ht
적셔
나니까
들으며
증언
그런게
상해
##입구
주문하는
진실을
구이
와이파
잉글랜드
##ev
##날의
dp
하드디스크
##즈에
##비밀
사정이
앉는
##효능
김수
폭행
이어지고
##락에
아미
진드기
마일드
차에서
계시죠
기원전
견제
만듭니다
글리
잘한
착용하면
해결을
##판도
순간을
손수
손실을
사인
hy
##객이
##보시
사회복지
개개
양말을
6만
든든하게
##세균
pet
더위
장착하고
##펌프
구매하시면
태어났
##맣게
빌라
##채는
관계에
글로우
높였다
반대하는
1980년대
##효과는
##급식
해야겠어요
적용되는
종류에
system
21호
싸구려
먹으며
볶은
2008
연마
##겠는데
준비합니다
##같아서
초간단
플래시
밸런스를
일렉
정말정말
##접시
내비게이션
부스터
짧아서
##물론
자체적으로
게이지
걸리고
포스팅에서
조율
계획은
경과
시너지
국회에서
사용한다고
##운용
면제
도약
맥주를
##정지
금액은
깜찍
신동
##서랍
9개
##양도
불순
교육의
##복구
잘산
바쁘게
중점을
여러분들도
##슈타
얘는
역임
##계산
경선
보고는
고민하다
일어서
장소에서
다이소에서
음영
1등급
활발하게
무시하고
##카드는
자극도
##라구요
작품이다
산거
어울려요
gtx
##신가요
##기게
구매는
화질
수업은
##반도
쿠션을
방문해서
##깨비
수세미
##농장
##ational
4종
결성
조사한
##상품권
##자이
##드라구요
커팅
##는지를
높았다
아우디
있었다면
방지를
선진국
언젠가는
##db
렌트
치명적인
매력에
##센치
엔틱
뿐이었다
것과는
끈이
안나서
떠났
원료로
비비고
성적이
시전
안타까운
단자
프리미어
볼수록
##가정
1991년
커버력이
연설
딱이
족발
괴물
##없네요
##적이라는
쪼개
확인해보세요
마련한
권력을
협동
93
난이도가
삼고
쉬워서
생각하게
소개한
인연
포털
인구가
분주
##모양이
로우
##주기만
시스템은
변하지
행동이
그녀에게
호스
##론으로
느껴지고
##되니까
##줬습니다
##빼고
건국
자원봉사
##감한
박음질
3연
##재질
신축성이
선물로도
구성하는
멋지
##맛있는
바란다고
되지요
확진
##시픽
oled
품질도
모릅니다
상품에
##첨단
재구매했어요
브라켓
체내
사용했습니다
번은
이병
##입술
듀오
모조리
필요하지
토트
단계에
##재배
미흡
최순
찾아보고
집중해서
요긴하게
오렌
강렬
##보신
##검사를
사이사이
지표
ag
##다니고
art
방문하는
##엔드
걸림
습기
메이드
나이를
그중에
쓸어
##해보려고
곡물
언제까지
##ier
사용할때
랜턴
여행의
안은
##유산균
##꺼는
후로
다는
##43
새겨져
잡곡
비타
inf
보조배터
걸을
향기로
그림과
업체로부터
좋아졌어요
회식
##마르
조직의
접고
대학의
##입이
크네요
보이스
표고
이듬해
선택하여
잡히는
머리는
노원
지울
준비했습니다
##천의
팔뚝
싱싱하고
프로토
예쁜데
nas
했지요
##것같은
시작하여
계셔서
스위치를
##칭을
틀을
모른다는
##티콘
어울려
##폴리오
##벌써
대중교통
실패한
##박물
기사가
맛보고
쉽죠
코스로
없어진
가미
슬퍼
한거
안걸
세수
##63
스캐
프로필
토탈
엠보싱
젖어
편백나무
쭈꾸미
개발된
무엇일까
답변을
##간다는
감각을
기를
갈등이
우리집에
줄어들고
잘어울리는
##소닉
보냉
물병
나뭇잎
랭킹
김일
보관하고
115
##72
전통의
5살
##아카
입맛을
한중
감사한
덩어리
##화할
가졌
개인정보
##010
##운을
상하이
표면이
설명하고
소극
레저
꼬꼬
우정
생명의
거둔
찢어
냉온
##랑도
크림은
허나
분위기의
##급여
정상회담
are
입구에서
##한이
여러분이
미치지
살게
81
대량으로
매끈하게
학과
블랙으로
##죽을
뜬금
내리면
본부
잠도
이벤트에
##았다가
얼핏
##잇뷰티
터질
터보
선물세트
롯데백화점
name
미샤
보이면
시연
특수한
nh
보습을
없는데요
되겠어요
##크스
##가지를
승강
##나름
20만원
적당해서
##됐습니다
친절히
보시다시피
식감도
전락
분기
입국
주제에
드라
출국
겪은
3초
사용된다
부수
조건으로
지폐
호흡을
교장
##이기때문에
한편으로는
해놓
##푸석
교육과
분유를
##동화
##전문점
먹으니까
##노총
신진
##향에
여전
시동
면봉
평상시
빠지게
##처에서
하십니다
전교
라이벌
글램
##면허
미쳐
생기게
함으로써
##울렛
원으로
검찰이
##으셨
일할
되는것
##사업에
##어가고
그대로의
비포
치즈를
부분이다
중요해요
거래를
##가성비
전하는
생각하시는
##비해
##언니가
후진
보태
##터카
씻은
멸망
일석이
하느라
##군으로
이데
모니터를
주걱
##레저
상점
광양
다큐멘
##급한
이렇다
꺼내어
##문제를
정성이
훈훈
빵이
##보드는
##불에서
##싱글
선포
##건강에
하반
cent
단계를
노스
100일
주제를
등장인물
전기차
카메라에
중년
학생들
지퍼가
포괄
관념
알리고
보호하기
직영
##가는데
원하신다면
고문
스모
전달하는
분포
역동
##줄알
직선
해충
수습
밝기
신성
몇년째
1800
##이웃
##당하는
##밸리
막막
time
여간
##볶음밥
##림으로
막대
푸짐한
색조
##좋음
날로
킥보드
밥에
찾아와
마나
전국의
많더라고요
사이즈라
천원
##g의
떨어지기
280
발산
부랴부랴
앞치마
이룰
반영구
질을
##적도
그렇듯
퇴근하고
흡수도
마무리는
혹여
마요네즈
##가격도
##공정
전자기
견인
생활이
조절하는
은혜
기자회견
##실제로
배송빨
8시간
커버는
찾아오는
예컨대
경험과
씁쓸
없으나
##숟가락
다다
빠졌
빼는
남았다
따름
스마트폰으로
##고기를
유화
폭신폭
##이벤트
##ert
살짝만
##할수록
##향으로
일이라고
같애요
콘센
입히
만들어내는
기억하고
오디
아침저녁
역사와
힘들지만
##지역에
##간다고
00원에
다하고
세워서
##선도
윤곽
##프리미엄
before
자외선차단
류현
세무
자연과
##지금은
##그려
등장했다
사장이
번만
루비
상속
하지는
해보면
배도
##콜라겐
말리는
여성들이
구경을
입장이다
감상할
컬러에
보호필름
높지
어린이날
서비스는
두지
##사람들이
스타일은
##계와
확인해야
의문이
찍었는데
시력
물광
아이템은
왕창
공식적으로
방향이
방식이다
저자는
채울
대학에
대다수
##변화
##차적으로
갖는다
가지의
##스위
최고인
qr
260
자신감
수분감
오일은
##을까요
남편을
아기에게
맞는지
다칠
왕자
공익
나무로
모발을
확인하실
##밀크
coupang
대행
실시하고
바램
남짓
##78
##움으로
##고와
생각이다
유해물질
실전
##들이는
##패로
분석한
##매김
원활한
모처럼
드러내
##불퉁
신나서
소개하고
공연이
인터뷰를
같고요
그릇을
스크랩
튀어나온
섬세하게
색의
##출이
연결하고
적다
##성까지
발간
초점
했구요
비용으로
유모차를
없어지고
일쑤
각별
조심조심
발목을
피터
놀기
드러난
삼천
제2차
ktx
##안고
산업의
##맨이
참고해
강조한
##밀도
보니깐
끊어
이쁘죠
잔류
아까워서
쓰인다
귀찮아
향하는
##제약
우는
지만
외로
흐트러
##렌트
이동을
좁쌀
5년간
##욕실
불편해서
##만큼의
스케줄
취하고
한겨울
아래쪽에
가방은
마련된
차원
문제다
한국에서는
줘요
채운
선보이고
외의
쥬얼
번창
구매가능
##묘하게
모니터링
##족이
샤브
k리그
없애고
##타입으로
대답을
장의
흐르고
##퍼의
##오일이
정갈
##너무너무
##왕은
착용을
7번
1988년
##다이아
으뜸
##는다는
뒷면은
불에
##도시락
가볼만한
오는데
고시
세균이
결과로
경제가
##마케팅
세금을
스케일
게임에
죽여
##포럼
자신들이
style
##크게
안정을
##장치가
어머님
패키지가
##가습
전당
##노래
##5천
중심이
좋다고해서
강화를
구애
도보
##박스는
그때그때
다니엘
##문에서
것이지만
##크라
팔꿈치
중부
압구
##클립
현상은
대회를
앞에는
내려오
내부에서
##미나
향기를
##위원회의
쌀을
벌금
##것들이
이상적인
청소도
인정하는
운동할
분께
다르다는
일만
##학년도
농어
문제와
내츄럴
간결
앞쪽에
아니구요
알렉산
열차
입힐
##소화
해주시는
##롯데
샤워를
##건성
주에
##버리면
##02
잃지
##공은
##컵에
위함
##끝까지
특화
##cp
ewg
##에르
int
그림책
접어들
봄을
##래빗
질감
아내의
달려가
들어서는
커피머신
민원
규모를
건강이
신기해
미온
##제품에
그런건
무단
##은행의
에어로
##공격
말투
형님
##공헌
김대중
요래
세계적
원료를
##ual
아이랑
여가
##되었는데요
##ii
대구경북
##법상
##학은
효능을
부디
##등과
차도
##세와
드러나는
##그룹은
이산화
피부자극
##안하고
실려
게재
##올려
병사
실질적으로
##베드
발견된
블로그에서
##러니
공사가
트리트먼
않았을까
##개에
압도적인
김광
이루어지는
##틀에
도색
고급스러워
##만해도
##41
구매해봤어요
강행
##고정
이쁠
##아라
무첨가
동영상으로
##작업으로
순간이
te
신발장
크루즈
해결하는
체험할
만족할
프레쉬
6시간
##학이
##벽이
##렸을때
추격
##하니까요
주방에서
##당히
편인데요
의아
##원들은
컬링
가깝다
싸움을
국악
숙련
침입
인종
제안을
그립감이
업체는
##퉁불퉁
##하시네요
육각
참여하고
보여드릴께요
트램
공영
##얼마나
지오
토종
##우선
꼽힌다
티트리
저녁은
수납할
뽑은
무죄
하룻
##걸까요
구수한
맛이에요
구매하시는
##브가
캔디
킁킁
##어가며
표시되어
펴발라
##안과
불가능하다
라인은
부부는
분열
##주네요
움직이고
모로
점입니다
짜고
##흔들
그러는
만족스럽게
무게감이
교육이
분석을
찾기가
시트지
자기를
##79
다행히도
##너는
혈액순
장소가
좋은것같아요
해주신
화이트로
##욬ㅋㅋ
보호하고
##능력이
유키
못했습니다
##사무소
하기엔
점과
정식으로
발견할
아내는
##ann
모리
장성
조리원
페리
거실에서
하였고
폴리에
남쪽
##모래
카메라로
##야채
##속도가
커질
말만
##다닌
##된장
##1일
##현재
##제주
##적용
테이프를
초경
홀리
lpg
종이에
손은
요즘처럼
선택하게
작품에
내려와
다뤄
지원한다
역류
피스
전망된다
기운을
사용하는게
##먹지
제작해
그래픽카드
##보트
##안보
쉽습니다
하나둘
그리구
##마귀
자리매김
할거
##패널
##비용이
활동하는
##컬러로
커피도
견고한
그림자
포천
##수저
공격력
7개월
알아보다가
반신반의
필자는
##사용하는
분리되어
되어버린
타격을
동요
물건들을
조직을
팬들의
##경으로
이동하는
##적외선
넘어갈
##활동에
삼각대
우편
지나면서
독도
##금도
탄력이
흡수력이
##발달
기지
핏이
최적화
현실적으로
최고로
저작권
부분에는
지켜야
화이트닝
분량
##란도
물질이
##세제를
보양
##좋아하는
1989년
##파우치
사다가
밥그릇
rev
근처에서
사슴
광복
##톡스
속도는
페인팅
##시대의
인피
교복
영업시간
세계가
##려다
sf
감기는
열릴
##원들의
메이플
##서스
##마운
1년간
왼손
통으로
노을
아담한
낙엽
##베스트
내용과
똑바로
내용물
1분기
좋아해
손색
못했고
##깊은
차지한
드뎌
매뉴얼
같은거
말레이시아
40여
##신과
광택이
싶을때
##집게
방문하여
요구르트
##비행
아가씨
##피해
##뿐이다
반반
성능도
라이언
전문가의
보였어요
고생을
지압
기대됩니다
배꼽
고양이의
크리에
##펜으로
ebs
소송을
시금치
브런치
여닫
리코
전망했다
##탄이
휴일
센스있는
결정할
각질을
예쁘다고
경기는
나서야
오스트리아
발생하고
결정이
떼고
##염색
공장을
귀차니즘
수여
##생각이
##거같네요
현지시간
부장
빈번
##킨다
라인으로
기쁨을
골랐어요
더럽
블렌딩
알아보도록
##초기
불만이
친절하고
open
살리기
재즈
##기간을
입어야
##패킹
사오
내달
하나이다
중립
원칙을
소비자들의
##먹던
200만
프로그램으로
##깐요
착착
##셨답니다
가령
보아야
##병과
냉큼
##통화
##육아
시리즈를
##추리
지정된
##차만
##ric
##키트
눅눅
여성은
유지가
옥상
##새로운
시민의
고맙습니다
베스트셀러
변한
콘센트
##나네요
##네스
##itt
##은행이
적용하여
기대되는
모발이
모르겠으나
담겨져
스판
4주
따끈따
우체국
개미
과학기술
삼성전자는
찰나
이때는
2달
성숙
포함해서
근거로
남성의
앉아있는
##껍질
블루투
데도
드렸는데
##핀을
모델링
재개발
##해둔
줬는데
화장실이
쌀국수
쿠쿠
확인됐다
생각해보
대표적으로
보건복지
밀양
왔지만
전압
적당량
보호자
##플렉
##명이서
중견
가니
밝히고
정석
가능한데
기생
##보여서
출제
해적
##맞고
##yl
동아리
여행은
##바나
이쁨
벌인
##하실때
각오
미안해
악세서
트러블도
뜯고
##인쇄
조끼
상당의
그랑
힘은
인스턴트
pop
내용도
중요하다는
다시작
##ows
##손상
##갔던
속에는
청바
포맷
##다리를
타협
3억
19세기
마비
범위가
##어린
최후의
##자루
##버를
하려는
오프닝
섭취하는
장비가
ost
도전해
청문
##화장실
##도장
가족은
느낀다
##보기가
침략
하는가
부담스러운
효자
##no
추상
꿈이
논슬립
##go
진출을
인턴
시절의
##치고는
웨이
##실리콘
##49
노노
풍부하고
##급을
크래
엄마아빠
클러치
근래
나왔다고
##후가
착즙
4분
해드리
끝판왕
충실한
약하게
##app
넣는다
귀엽죠
##리던
##해줘요
##통상
지금껏
자신감이
홈이
취향저격
세탁이
##슨의
아홉
불편해
3개를
용으로
##키고
본선
뮤직비디오
##품질
##받는다
##색상이
아반떼
걸린다
출출
화합
지역이
체질
칵테일
##사진이
##초의
어렵지만
저에겐
죄를
잎이
##나라의
있었기에
개관
동안에
정규직
##컬러가
연구소
통풍이
아기는
비리
이유다
바빴
아시나요
성을
강조하고
임무를
버렸
스토어팜
감축
북한에
##칼로리
경품
추가적으로
##록을
##하시면서
시마노
과감히
느껴졌어요
잡으면
소라
때문이에요
다낭
선택했다
맘스
출구
##이었는데요
##니트
징계
일괄
##나보다
골프장
8강
탄력을
의식을
탈수
일본인
여유로운
수월하게
##친절
밝혀졌다
능력은
드러냈다
##단에서
잊을
##말은
티타늄
##네마
##문화재
서운
기대했던
시키면
저희집은
외형
약물
연중
기증
교실
됐고
불린
super
##최근
팔에
급식
두고두고
##건디
시정
선택하시면
##피커
역설
소품을
속한
사시
내정
초상
파파
##야를
휴대폰을
##부러
설명하는
##후에는
##봤네요
프릴
나라는
여성을
카페트
십자가
##ext
##성에서
고데
탈의
dna
##하십시오
발전에
##디지털
인정하고
외계
##좋다
##보시는
바꿔야
많은지
체계적으로
다르네요
요청을
하구
이뤄진
옮길
묘한
몸에서
강동
면허
밀집
없었을
##같은거
##어찌
결정한
스마트한
구석에
유머
용량을
넷플
권위
중시
##인가봐요
주말에는
느꼈던
음원
본체에
구경하는
1987년
##겠네
아르바이트
레터
금연
##렵니다
드리려고
모았다
##조와
##도전
발병
그중에서
조상
뱃살
전자렌지
##로즈
질감이
핵심은
니콘
##방식을
포함하여
##69
이름과
키친타올
##꼬리
가까이서
##61
중국인
워시
신임
잘샀
한가운데
##후라이
야권
연고
규정하고
제시했다
아니겠어요
가자고
그랬다
스트로
##기보다
##시스템을
##릴때
사용에
270
농사
세로로
##변이
아빠랑
포스팅이
##하셨다
거즈
해주셨어요
밀리지
증대
##감치
##백도
##싶은데
생산된
iot
예금
텁텁
##겟어요
놀랐다
오줌
돌출
있다는게
레이싱
주민들은
환승
혁신적인
선수를
심해
캐리
비핵
친정엄마
##공사는
훗날
한손에
##드려서
개나
폴란드
없으므로
추진하는
없겠지만
만큼은
##설정
##샤브
여기에는
##크레
##것같다
견해
과하게
등받
원고
##농업
모유수유
면세점
기호에
##버스터
출시가
##친화
협업
##아르
예요
안된다는
실화
가던
닦을
4살
났어요
식품의
참깨
##창은
하시길
속속
끌었다
요인이
##가든
코팅이
##번은
##크림으로
케이블이
다니던
고화
중요한데
##지역에서
##츠는
공시
모양새
제자
침낭
선수의
물때
108
각성
증진
팬이
스쿨
유행하는
기름진
할인가
불편할
안들어가
먹자
아빠의
##ush
##진주
빠졌다
피부와
브래
지금처럼
##생활에
135
달라는
아지
공급하는
중국어
귀찮고
역시도
씻을
없네
##그런데
바인
pvc
##공유
만족을
상대방의
##익은
들어가요
총을
주황색
##보안
조사됐다
고조
##아이를
많았지만
식민지
훔쳐
후방카메라
판타지
가네요
육아용품
##았을때
아참
배로
웨지
지나간
습한
##베라
팔팔
리튬
만나러
엄마들
한진
##보았는데
낙동강
##은이
둘레
##시게
떠올랐다
설치도
##과제
##란의
안사
그토록
##수정
##션이
백제
숫자를
관중
물결
것이지
초콜렛
##총을
##해드리는
양국
각도를
마지막까지
##벌을
지원할
로스
##볼트
동물의
그물
느끼며
naver
포토샵
대동
아메리칸
샤프트
##코사
##고생
친구들도
##아울렛
걱정할
당당하게
기준은
미야
##피로
##예용
##건강을
용의
연구에
브레
직결
낫다
답례
수만
정리하는
##eck
사귀
마일
50분
##마감
찰랑
##천동
타공
차마
##gl
아인
낙찰
##과학기술
중점
합법
##사이즈를
##다니면서
##코롬
##곳도
##저장
써볼
엇갈
##ina
운동에
이야기로
떠났다
전면에
풀리는
자랑하고
둘러보고
만족스럽네요
imf
스토리를
딸램
조절도
##cm로
연기가
상인
제품이고
##벤처
주소를
축복
##전원
회원가입
꺼냈
샘플로
##교는
펴고
이어졌다
물품을
진행중
가지런
관계는
get
탈색
엄선
하는것
편의점에서
고객님께
슬링
느낌적인
김씨는
##테르
돌아왔
되기를
침대가
오동
남양주
임진
##급스러운
##마에
칭찬을
해보려고
먹으라고
주름개선
##이것
수채화
피하고
엉덩이를
라우
##크래프트
시점에
국세
강추합니다
멘토
팽팽
##베스
##바르면
못쓰
목사
간식이
의장
착용샷
앙증맞은
필요한데
맘대로
보관하면
웜톤
비교가
클렌징폼
신촌
포터
지낼
약간은
효소
##상품을
##번을
##버는
마쳤다
외부에
##지검
발주
##사탕
따서
앓고
방충
먹구
##겠음
휴대전화
ge
##브레
싶더라고요
전반에
##큘럼
만들게
##들이에요
만하다
근력
친구들을
두통
뜻한다
십자
말끔히
##린지
새겨진
##신도
나카
200년대
##가끔
처치
거부감이
##방향제
##문화를
하나더
종업
민중
한치
겟잇뷰티
다리는
프레임을
이러고
카페가
aut
##립스틱
##대학원
##둘레
후유
고기도
선물용
재직
울퉁불퉁
목넘
영하
##부인
20만
조절해서
심리적
##밥에
아낌없이
175
옥수
번거롭
##강이
집에만
말그대로
실어
채소를
사무총
나라에서
##지는게
형편
야기
줬다
##gh
중심에
아버지와
관하여
만들면서
미싱
겉으로
납득
느낌이예요
페어링
##주어야
##냉면
가구가
6세
대변인은
꼽히는
##코드를
##랙스
깨닫게
육수를
맞나
##버렸네요
mac
high
듣게
##을수록
시작되었다
건조함이
제니
보살
메타
양자
김치가
구멍에
우리딸
받아볼
##오히려
요양
##픽스
추출물이
소모품
##도서관
여덟
웹사이트
판정
천으로
오십
km
라인의
재산을
##수선
연산
올라오고
##다니며
러블
40년
박영
아까운
두말
구매해요
3점
시민단체
독보
누르는
소비자들이
화장도
수목
유한
##정책을
몽땅
신뢰가
사이다
불편하고
##보시고
##남이
들어있는데
것이나
아니었지만
과시
용지
받았을
##담은
프론트
책으로
번호를
##류로
만들어져서
##말까
럭키
통행
320
분홍색
컨디셔너
##이치
포뮬
침대에서
노릇노릇
직원분이
##소형
##자료를
bu
돕기
실기
볼거리
좋아하지만
비교해서
지주
녹는
4번째
묻자
루어
낳은
##이젠
잡히
착색
50여
전략적
왔답니다
찍었어요
검색해보니
대두
165
시크한
되겠네요
##으셔도
들렀
##신으로
##하였어요
##당으로
##꾸준히
앨리스
감을
크다는
열흘
##트레이닝
중심을
일상이
##아저
의지가
##lex
별미
##방기
아르헨
##링으로
##수있을
성의
##교수
##2는
월등
핫딜
꽃다
블랑
단계로
스팸
적대
##게장
다이나
파이어
박정희
##메디
##대회를
유부
일반인
해줘서
전국적으로
##보여요
##치료를
개구
소문난
##리그라피
조선의
일부가
시즈
안할
매출을
스패
보관도
부작용이
##가격으로
중문
마미
착용감
먹을까
war
가져올
피로가
들었고
type
손목이
도의
돈도
메시지
젖병소독
틈을
진행했다
##간지
광교
##fl
목동
design
깔끔해요
해준다고
med
침착
##테랑
반응은
어때요
한숨을
교환을
간단해요
##카드로
1일부터
선인
치고는
##맛있어요
##테이
##줄기
##찌감치
묻지
##빙수
주문합니다
중얼
둥글게
##장관
통이
작아요
##스러울
##냉동
1의
##무엇보다
이곳의
들기도
##00만
재질은
통과한
세미나
자랑한다
어반
달랑
##컬러의
##위원장은
집도
안먹어
써보진
누룽지
수입차
스웨이드
##등도
##협의회
당하는
빨갛게
에너지가
기술력을
성장에
여름은
##백만
되어있는데
##들지
국내에서는
샴푸는
##반대
##문의는
걸렸
온다고
예술의
술이
##형제
##튼튼
물놀이를
본인도
아기들
##하냐
독창
이제품은
##경과
차례로
그도
저질
시끄럽
힘들었던
한포
스탈
믿지
배상
단호
sol
##라인은
##즙은
보았던
계란찜
농가
power
뿌리를
##농약
욕실에
연다
줄여서
동그라미
500만
컬러감이
마저
##스윙
사태를
심지어는
뭐냐
플리
##준은
아저씨가
강화하고
마스크는
더위를
가려움
가산
수영을
2로
맑아
##가니
부재
시어머니
##끈이
주장한다
마모
##ivers
##에센
##노의
설립된
않구요
매력적이
쓰리
##일과
##반사
##걸까
30개
물질을
경험할
##ise
보청
커피숍
빈티지한
버무려
긴팔
##주말
가중
치솟
동방
청순
어댑터
플러그
젊은이
도시를
언박싱
##린을
음식도
다양하다
규정에
액티비
느낌이네요
##양과
##힙니다
sa
##우산
##칼리
##올로
해수
영수증
커피와
년간
붕어
##시세
투자가
쏘는
이르러
사용한지
연속으로
포스팅에
새집
좋아질
브러쉬로
해결이
꾸욱
정보통신
골퍼
열기
필라
##생태
##오징어
필요하고
##노트북
히터
스릴
지을
책에서
해주니
혐오
멀티탭
##기관이
형식의
지날수록
기계를
포즈
##62
최선의
안나는
검색하면
핑거
육박
예선
지방이
##초콜
오뚜기
세정력도
##돈이
될까요
요새는
중고차
실적을
힘내
##봤자
제국의
고개
해고
##홍보
안정된
앞면
유수분
##해지니
##육이
중급
자외
생각과
저러
##프스
##애는
시즌에
사이즈와
마련이다
white
같은게
##사기
반대편
특화된
##gs
쾌적하게
향상을
끓이는
강철
흘리는
튼튼해서
##지던
지칭
테이블을
쓸모
##환은
높인
벌이는
측이
포럼
##처에
꾸민
기다린
##두리
하늘에
못합니다
글러브
일입니다
휘두
##건가요
가능하구요
펼쳐진
두번째로
접기
스니커즈
##이었고
풀어서
길이도
재래
제한이
##어지면서
몽디에
새콤달콤
넷째
##외과
쿨톤
제2의
주시기
아이오
##미래
볼이
등극
amd
주제는
있겠더라구요
옮긴
스타일리쉬
신기하게
날리는
##잠을
##넘나
net
코로나19로
사흘
비중은
선교
아름답고
되거든요
##모닝
은하
모자라
아들과
있음에도
그땐
아내와
선제
아로니아
##번지
##풍의
##듬뿍
##측의
야심
그해
##이었다는
##파트
사회공헌
창이
소가죽
##때로
##스트가
샘플을
미니어
강도가
나트륨
단단하고
요즘같이
두개가
##부분만
##다이빙
##했고요
먹기로
입히고
생각날
rgb
##하였던
##연수
참가한
바리
사시는
##기타
자신있게
들기름
##토이
넣었는데
사용될
깃털
##hc
##a의
이미지는
풀려
페이퍼
##용과
##책은
##잉크
soc
##되었으나
굿즈
특별하게
##인게
잊혀
임기
그때부터
게시물은
영업을
##코니
작은거
렌즈가
꾸밀
하늘색
씻어내
안장
비듬
물량
쇼룸
발생했다
간격
##다행
장롱
열일
##없습니다
건강해지는
앞으로의
방사능
##커녕
형이
##화될
포기할
##찰을
##지오
##크루
##좌석
소화가
부어서
살도
##해지지
중요시
연구가
##업은
인격
뒤쪽에
##담한
사건으로
코스를
##각으로
날씨는
##억원이
내놓고
##들이고
##카드가
박사는
이화
좋아하더라구요
신랑도
##이에용
고무장갑
보좌
##리릭
불확실
하시는데
개체
사용해봤어요
종이가
느낌이었어요
##쉴드
기업으로
빙수
##창의
##왕을
안되요
갈까
신상품
##증과
nat
정도입니다
마셔도
스콘
전자렌지에
##했어용
콜드
음질
계란을
##커피를
반쯤
휩쓸
헤라
청산
평을
여성들의
##자재로
외부의
노폐물을
수차례
갱년
##맥을
않았나
까지는
호랑
##받게
들면서
주한
##하던데
##인력
##되는게
잔잔한
##카트
줘도
태어나서
탐험
##스러워요
##작용을
탄탄하게
목도
활력을
재구매합니다
기프트
##있다가
##되었답니다
디올
열탕
하늘의
아래를
2021년
산에
##마라
준우
##문제가
학생의
파악할
나나
##3개
180도
쫓겨
원자력
##빈이
##선언
갈아입
쏘아
찍혀
없는것
마련했다
분리수거
남편이랑
##곡이
##항이
고정을
않은가
##사항이
못하도록
미친듯이
했다면
연세대
모공을
##향기
추진할
시작하기
마을을
취급하는
전격
##가지가
abc
하기에는
##작동
##외의
##udio
올라가고
중세
영화에
작동을
안착
cp
뜨끈
##소시
분위기로
개봉기
##하느냐
제품이네요
##남편
메이저리그
뛰어나고
활용을
승부를
오토바
분배
수전
여당
레인보우
바닥에서
일상에서
##하였다고
##뜨기
코드를
굳굳
##캐릭터
ns
코믹
##벽지
큼직
##머리에
쇠고기
##사에게
아모
반찬으로
##표준
##점입니다
있느냐
이원
이집트
매장은
투명하게
성공할
청취
배경이
시멘트
덜하고
고성
행주
씻는
##층에서
##방한
못지않게
뜻은
##만도
여우
것임을
끝났다
코엑스
##예산
싹싹
신으면
지성피부
##슬러
##근무
애초
않으셔도
##인데다
버려야
궁중
억압
##완벽
누수
##지속
서너
도착하자마자
##마리를
달려있는
##기스
91
먹다보니
테일
생겼습니다
##주셔야
드나
##무니
예상되는
관악
거세
##여기서
##츠의
것의
앉았다
같았
복도
##서에서
##아메리카
##할땐
족욕
##무시한
세인트
하고자
요즘같은
##명이다
로컬
##주려고
##였으면
예쁘더라구요
중이라고
두어도
의미의
멀티미디어
성사
##ne
카즈
깨고
대용량으로
정책에
웨이팅
왜이리
공부하고
문경
지원받아
##코를
##스트는
##댄스
안했는데
성장할
잘쓰
아바
##버블
##사태
당부했다
기침
##쓰레기
##내도
##마리가
미끄럼틀
송송
바삭한
얼음을
화살표
정하는
스윗
2002
##공사가
##디움
타르
두렵
뿐더러
##거림이
##양에
공유기
향에
##광택
가능하여
life
시트를
##부드러운
bc
산건데
##쫀득
하루는
무거워
만들려고
365일
##잔디
벗어난
쓰는게
##개봉
##튜버
살릴
방탄
빈곤
섭섭
점검을
포트폴리오
that
찬바람
힘들었다
민속
새는
않았다면
돌아가고
라운딩
보상을
##발표
##여진
##시킵니다
다가오고
중요한건
상세하게
2007
되풀이
##가나
받아보니
아가가
보여주었다
점화
권한을
tec
출산준비
##커가
초기에는
봉인
성인이
세정제
##준비를
##소서
끓어
피하는
혈액순환
신개념
1년이
아군
팬들이
##해보겠습니다
##적에
오래전부터
인상적인
상세한
4배
아리따
구성도
알려드립니다
동봉된
흑인
나인
##코로나
늘어났다
예언
적당하게
의혹이
원액
건물에
맛있지만
소시지
##바에
1단
##제품입니다
라지
정보와
정치인
판촉
취해
낮잠이불
카테고리
양재
착공
지방자치단체
표현해
한개씩
빠짐없이
선택에
받기도
테팔
##이었으나
비를
##렌즈를
##리시
##집도
##mm의
멈추고
남동생
20세기
##ium
여행이
티켓을
밟고
뽑는
편해
이국
색감을
늘어났
그후
##실버
쫄깃쫄깃
1초
메카
##시원한
박힌
선보일
##하시는데
뭉침
엘리자
느낌인데
디테일한
##셀로나
캠핑용품
##mc
왜케
내구성을
달라지
공군
맛있는거
멋을
full
금전
##듯하다
오뎅
##제리
##밤을
인원이
겨울에도
##58
특성에
퀄리티를
##크랩
이즈
빨랐고
##멀티
닿으면
곳에서는
##탄산
단순하게
##포동
펼쳐지는
바라보았다
소개했다
##최대
순간부터
gen
집니다
마는
크크
##외출
##스탠드
blue
##날짜
덩달아
코스닥
역활
양상
일련의
plus
불균
오리고
천국
감성이
전라도
모금
##글라
할때는
##블럼
어우러진
프라이빗
##보드가
지상파
뻗어
사항이
원단은
오케이
보틀
엄마한테
카메라는
##언더
##칼라
##명도
미아
소품으로
잘먹을
대학을
듯했다
비싸다
전국에서
역할은
책임이
울려
넓혀
일방적으로
##보기도
##년도
들었답니다
하마
차별화
제거가
업체의
새마을
남산
스튜
led가
개수
장치가
띄워
좋을것같아요
현실에
시중에서
퇴치
교체할
화려하게
한알
쓸만한
했어
발견했다
##하는건
다녀도
탑재되어
양반
일들을
마시며
엑스트라
사용했을
침체
굽고
올려봅니다
숙면을
카드로
##다드
금메달
취한
만나요
없으
입단
수없이
##중간에
지식이
시즌이
16강
지수
가글
쓰던거
가운데에
##욕조
도와줄
##진단
가루를
들으면서
주차장이
비건
탄수화물
보습이
저렴한가격에
##쳤던
시뮬
현지에서
버리기
##클레
바다로
매끄러운
애국
문구를
슬리핑
##파운데이션
겸용
제형은
##비서
받을수
아기도
##론과
##나무를
##담요
김병
분을
##마개
acc
레시피를
##증의
cv
도박
라탄
그럴때
친구들에게
최종적으로
사진들
400원
##포토
2006
착용이
스낵
현실적인
로지텍
7세
표현하고
50년
캠퍼
del
안해서
꽃은
증가하는
나지만
벗어날
층간
지도자
모나
##가까
##변에
100개
시나몬
양육
먹거나
세상은
모든게
꼬옥
연신
모이스처
전자레인지에
많았습니다
##스텐
특급
5초
있어서도
연못
원래의
##해드린
12시간
연출을
##같다
##으려는
sel
이메일
상세히
##였거든요
어째서
립글로
이미지로
다녀왔다
뛰어놀
스텔
한쪽으로
##심플
##메모
##온은
##mm로
리뷰가
포기하지
인상적이
집중할
규정을
연주를
협력을
힘도
부부의
로맨틱
##box
물리적
면은
그랬던
가면라이더
정성껏
눈에는
가스레인지
옥션
##보던
##혹시
재구매의사
이상인
##네트워크
차이로
맥도
어딘가
던지는
임산
장관이
편의를
말라는
9개월
채널을
부직포
말로는
시기는
##비싼
##선크림
딱입니다
디아
##먹을때
##행사를
놓칠
##정수
뒤에도
선스틱
신혼부부
##싸고
7만
습식
##ifi
코코아
가르치는
못했을
##거려서
선물하기
##하셔요
어휘
나뉘어져
돌렸다
메세
의회
2기
쳐서
어릴때
호기심을
삶과
둘의
##녀의
간격으로
##백제
중후
인버터
쌀쌀한
면적이
##전형
아마추어
러그
장면은
당기는
엄마에게
##평화
리프팅
##명에게
출신으로
요구에
최상급
##정당
특성이
블랙과
의문을
끼는
프로그래
넘지
##해졌습니다
##선수권
##담이
국민들이
닦아주면
컴퓨터에
##대해
다음의
##호수
보쌈
##중으로
오라
동아시아
##긋하게
오스
좌훈
공부할
##문화가
출연한
커리큘럼
마지막은
공수
생소한
스물
놓으니
이미지와
물건도
한봉
충동
통산
매장으로
재미난
부품이
전문으로
##생로랑
##빛의
가파
손에서
글래
꾸미기
현실은
##번이
##놀이도
손해를
micro
순삭
미세하게
비자
##활동이
성경
위드
파생
절충
10개월
뽀득
나서고
나라에
조용하고
들었지만
시작이
6천
##89
뜨겁게
대인
화장솜에
담았다
건강기능식품
부임
시군
알려주고
##개비
##래기
##매치
##재와
벨기에
연근
검증된
##버스를
만큼의
만지고
##갖고
프로그램의
업체들이
퍼포먼스
대피
소음도
양옆
빌리
맡게
정전기
룰루
경제의
더듬
안빠
##외에
에서도
독자적인
하야
지게
해킹
스타일링을
살았
둥둥
##대회에서
싶은데요
일시적으로
##토시
##드려야
문제점
진열되어
##쿨러
부풀어
푸는
##접착
##암동
##게임을
적용할
확인해주세요
지속력은
다녀야
어울려서
아테
##계약을
##빵을
갇혀
원유
죽이고
명성을
들리
칼날
##청소년
##이러
못한다는
차갑게
대용
도발
##그룹의
항공기
##룩을
##민과
이동통신
싸워
기계가
교도
브로콜리
산지
소원
##구매했어요
벗어나지
##씨도
친근
것인데요
##해드리겠습니다
이랬
다목적
##먹었다
때문인데요
놀아주
진해
협상을
개별포장
냉난방
##물어
거미
##노스
그리워
붙였다
없거나
김이
싫다
모티브로
반을
##배송으로
목욕탕
머리띠
##신랑
##초록
보였던
하나쯤
알레르
유심히
섭취를
##회사의
과천
선명하고
가세요
적응이
수혜
있는지를
정형
##거로
##힘을
자영업
못하겠
고정되어
캐비
날개를
단품
코일
기름에
다루고
저마다
비빔밥
파마
##둡니다
##베아
지퍼백
미련
싶어하는
아쉬웠어요
같았습니다
##해주셨습니다
열풍
떨어트
##해지네요
나뉜
명확한
백업
용품을
긴장을
애써
막아주는
신학
전통을
사춘
편하다고
하이드로
##부스
습기가
핑크핑크
개선이
삼겹
파스
##석과
드릴께요
##들아
4만원
프란
완성할
꼬막
줄곧
위쪽에
##ool
녹지
##나눔
홈카페
거니까
리미
건물의
시도를
##통도
##창고
멜킨
##편리
발표된
##정도만
##재산
따지면
##여명이
심쿵
거주하는
색깔을
입안에
홍합
총리는
진단을
우리들의
쓰다보니
깜박
30ml
들어온다
라틴
설치하여
배열
집합
떠나고
봉제
##새끼
늘리는
##아이라
돼야
동안의
연약한
남매
##만화
베를린
텍스처
오키나와
렌즈는
문서를
열정을
태교
달랐다
대공
##한텐
##지노
바닥은
##온라인
세정력이
백만
##he
꺼낸
자리하고
잘때
포르투갈
살리
##양파
##폭력
하진
줄고
다량
명칭은
사달라고
논술
양파를
얼굴과
##반으로
모으는
스키장
선생님은
유틸
부분들이
fif
무리한
행동에
500g
밀레
버틸
있는데도
부식
수경
농산
##놔야
##자라
갈아타
시동을
시스템의
총각
아빠와
인류의
주를
당의
찍어야
추가적인
논란을
스벅
초미세
##정하게
##나인
##두로
촉구했다
우스
스파이더
쓰니
작업입니다
부친
날의
무섭게
버리면
분석이
젤네일
가축
에센스를
##스크럽
##오일은
##모에
계속되는
좌식
메일
화려하고
##맘이
##업체가
반영한
노리
##우신
식탁에
##선가
생각해도
이름에
잘되서
##데리
예방을
감사를
신속한
당면
세정력
루이스
##톡톡
##키스
창을
##뮤직
아니예요
감은
데다가
모르시는
##한을
##임으로
세안을
##주기도
##정식
원동
뚝뚝
기업들의
민족의
우연
##바이러스
변형이
##인드
주차를
꽉꽉
포장에
탈취제
까르
무형
페퍼
과즙
딸아이가
힘들다고
##혹한
맡기고
2500
무심
##데도
양면테이프
방식에
##되지는
막아주
여인
언뜻
설치는
받아들일
영화에서
안경테
예방에
예술가
작곡가
kbo
바다의
얘기는
요걸로
회상
유리막
##해볼까요
증발
will
투자하는
이름만
말씀이
기미
세분
베지
지원해
정책이
5점
인형을
##꺼야
싱그러
지금이
##인권
둘째가
있으시다면
시작됐다
있는걸
동안은
가며
재고가
얼음이
자판
##uk
##ony
중국을
##atch
섭취하면
음식으로
근로자
적당량을
소스에
오면서
테이프로
##놓지
##해라
캐릭터의
문자로
##하시는게
버린다
##샌드
식량
불편을
##지점
##투명한
##데다
1970년대
이슈가
##고사
기분은
mr
봐주세요
하이퍼
극심한
##께용
개발하고
파운데이션을
모델명
간단해서
속까지
하원
남자를
착해서
메달
재질도
수염
않다면
달랐
갖지
세컨
열어보
요구하고
벌였다
이도
그네
미지근한
흠뻑
빠르네요
박성
학생은
##제철
만들어도
온실
##치다
버전으로
##쓰다가
10kg
주자
와야
에어프라이어에
남성이
수원시
##보정
##거가
처리할
카리스
딸은
카펫
##류도
타투
선수들은
가뭄
##전에서는
정교한
더울
선택했는데
짭짤
카드는
유럽에서
없애는
아이고
##커를
유명해서
사는게
기체
깊숙이
##51
##두니
도도
끝나지
cap
##거면
##장님이
시절부터
비닐에
불투명
오타
사세요
무엇이든
부담없는
##딸기
침몰
##이라고는
손가락이
가지만
배송에
##만한게
하차
했지
##갔고
조선시대
유적
동물을
##실점
##관념
였어요
남이
##메인
한산
건강식품
##소식
##었을까
연일
##님들께
개발해
주목할
재생하기
재료들을
간과
##레몬
나타내
성분의
천주
2004
책상을
버터를
현명
##들기
난리가
제품만을
번짐
살지
선물은
어버이날
주장하고
가능하면
명심
패턴으로
rt
##긴했지만
오일로
보내기
거라서
##톤이
ep
유희
지역사회
으깨
낱개
큼직한
비엔
매운맛
##트럭
셀룰
창가
하시면서
200g
배송을
##스테이크
##커버는
믿어
얘기도
30만원
사원
포스팅입니다
랜드
꼽았다
##두었던
명확하게
##소스를
우월
제작하여
자체로
나보다
##콘서
선뜻
뿌려주고
상이
##불량
뉴스를
소풍
##귀를
##enc
확대해
##밖에도
좋아하시네요
농도가
ha
품질은
070
er
소이
봤지만
함유로
이만큼
##코디
현직
착용하기
셔터
##불고기
당하고
브로우
측의
카테고
묶어서
어디를
##센터가
물량이
접한
담엔
성분들이
아늑한
##장까지
쿠팡에서
##케이스를
치크
싶으시다면
쏟아지는
##소년
##식사를
꽃무늬
##난로
고리를
보기만해도
닌텐도
##되었기
##열쇠
표면을
뾰족한
나왔을
아삭아삭
생각하기
산뜻하고
심상
##후드
주파수
갈고
##령에
단발
덧발라
나무의
공항에서
##고데기
간간히
명확히
먹어볼
출신인
애기가
지속되는
좋네용
많이용
에스테
제작에
들어갔어요
탈퇴
##심리
##포의
##사면
기울여
##oss
선생님께서
민주화
돌을
##나절
펭귄
교수의
공개한
추천할
생각했어요
두루두루
사준
제7
쓰임
합작
트렌디한
##시럽
지저분한
계시다면
wr
남기는
##초는
##정하고
하천
조물조물
예방할
안정감을
내돈내
모르니
구조의
자유로
디자인입니다
##주얼리
##탄생
살았던
소설을
카피
출력이
더덕
개성을
계피
수료
##방과
아쉬움을
가리는
끼우는
썼어요
있게끔
안먹는
##카카오
##허리
##몬스터
산출
##자다
홍차
등록을
따끔
##87
이벤트는
명은
##슨이
보관을
김치찌개
패턴의
대마
장기적으로
2의
부르며
바뀌어
살아서
압구정
설정할
골을
느려
중개
##바와
각광
양에
1m
##선풍기
##저우
인연이
베란다에
유아용품
눕혀
##lg
추위를
녹이
검찰에
##팩토리
친화
##락의
도전을
##림에
푸석푸석
쳤다
조경
##인건
##심도
안찍
선물받은
도움으로
##였는지
풍미가
우선은
##내부
##넘게
오카
##인간
전적으로
파라솔
자갈
이용하기
##비만
기법
놈이
서스펜션
토퍼
개량
법은
끊이지
고요
조선일보
언제부터
그러면서도
##있어도
배경을
피하기
100년
어디가
저지른
##었다면
군은
태그
##것입니다
보았을
##족을
##콘텐츠
계획하고
의결
보내주셨어요
김희
인접
보관해
흘리고
같으니
아이디어가
##티의
##cm의
나서도
##아프
북적
안심할
마을에
부산에서
518
바람의
##학회
##대지
먼가
##알려
표고버섯
무거워서
클리닉
로버트
르네
##어버린
##ins
##세제로
화사하고
##사이클
용병
안테나
충성
##마와
유지해
##안에는
##완화
##가시
데미지를
##목은
서울로
실사
기업과
시승
눈길이
정자
채우는
this
안전벨
장식이
친절하시고
덕후
쇼핑몰에서
운영되고
##템으로
관리는
문자를
태우고
알아보겠습니다
베드
겉에
몰두
농림
신랑이랑
먹었답니다
영주
지워지지
##독성
노즈
##았으니
아니어도
사실입니다
부터는
좋겠더라구요
2분기
##일듯
싸울
박수를
##순으로
놀다
##극장
##것들
##찾기
##봐야지
염소
긍정적으로
베테랑
해지
탈부착이
반환
편견
옮기는
않아야
##쇼파
근본적으로
호흡기
고이
대주
흔적을
서울중앙
한박스
하겠다는
##반려
##마로
건가요
없고요
암흑
만들기를
##김도
##무난
데스크탑
하나요
정관
체력을
10배
사연
장아찌
논의를
집안에서
반겨
쨍한
gold
볼록
원시
스포티
1600
고심
붕붕
##디에이터
발수
상관이
가다가
고리가
호환이
버건디
느슨
행동은
##홀에서
따스한
생각된다
잘못하면
개는
지위를
예상보다
뒤져
알아차
##이라는데
전문의
##캡을
수행하는
##나무가
실용성
미들
도로를
##우리가
후퇴
만족스러웠어요
원인으로
고민하시는
도래
새우젓
취향을
##2의
##기억
볼때
저렴이
입자
블루투스피커
맞은편
##봉은
##안심하고
상표
해드립니다
마이너스
감싸고
##창으로
펠트
쪼꼬
오랜만
산업용
죽인
백신
잘해
품은
마니아
만들어준
무난하고
패러다
과거에는
직거래
##ica
관리하기
##over
일상의
##이야말로
마그
장착할
이소
미술관
##법한
들지만
어른들이
star
구조조
경상남도
장소는
##56
##넉넉
계열사
sil
##정수기
한국으로
칠리
방은
마시면서
적립금
##박사
방풍
블루레이
없어지는
4위
즐거움
적외선
흙을
##문질
따듯한
얼굴의
##제도를
토로
릴리
먹기가
21세기
없었기
쓰이고
전액
주셔야
한시
##계층
15개
만들어줄
스크레
정리한
금감
여론조사
6회
상자가
##직구
##릿지
##릴라
것이므로
있지는
소시
어려워서
##훈이
jt
가꿔
##끈적
변질
사라질
쪄서
##ors
부정적
##가치
최고예요
##해드릴게요
##엔젤
프라임
파이널
##정도면
수단으로
부산광역시
##로록
관건
디지
깨어
착용해도
##오랜만에
##아와
파업
구울
피곤한
##비즈
조세
##낚시를
학교의
주네요
운동하는
대를
궁합이
엄지척
점심시간
밀린
민주당은
##정도가
현대자동차
확대를
##슈퍼
커트
발라야
##꽃을
##aph
보너스
상태였다
경로
고안
캐치
진작에
##자차
##시키는데
백색
보였습니다
낮아서
불러서
월간
최첨단
많다보니
남게
국경
##종과
페트
##랍니당
세울
개운한
##통제
##해주며
보호할
마당에
필연
##었고요
##루트
##자격증
지침
뭐랄까
분야를
네번째
행복해
##끼고
##리스타
마운트
노리는
##넥스
##사상
##보라고
light
흔들리는
휩싸
##보레
박살
달팽
환영합니다
바에
의미는
자녀를
코에
꿈은
예쁘지
가성비도
북쪽
##협약
현실이
##계좌
괜찮은것
깜찍한
노래방
##템이
직원들의
##86
5층
2005
햇빛을
발탁
테일러
살리는
임차
천장에
##키와
a3
문명
과학적
오른손
화장품이
내걸
뭉친
아비
##아이의
가루날
빅사이즈
높아진
특징입니다
높아질
##줬으면
늘리고
성장하는
##지못
피는
사망한
쓴다고
정성스럽게
##브는
띄고
##자랑
데오드
찍힌
이라크
##려한
제품이라는
만들어주고
열광
레전드
심장이
든다고
욕을
혈당
호응을
##용기에
당했다
위가
##솔루션
딸랑
실정이다
보습력이
백설
필터는
학교가
두께도
하향
정부에서
##행위를
mtb
마리오
많으시
브러쉬를
표출
간직
화제를
유령
1986년
사용방법은
미국을
##재에
##미안
##포크
보여주며
취침
광학
##싱크
사다리
직진
원데이클래스
디어
현존
와닿
##농협
추울
##이냐
구하는
예쁩니다
언어를
질투
필수적인
설계되어
소켓
##형태의
결과물
좋았구요
##시켜주고
##있는게
스핀
싫고
설치하면
찾는다면
##훈련을
마칠
고려해야
상온
##애기
##강사
아기들이
쉬울
내심
##노가
검토하고
두꺼워서
중고로
조각을
2인분
만나기
##엇는데
기름기가
사는데
완구
흔들리지
##환자
폭스바겐
4세
소개해드리려고
한방울
##갑자기
써보는
국토교통
꾸미고
##있으신
3분기
235
드레싱
측근
##스러움을
##락은
##접기
되는게
해병
이맘
일본을
일원
##ings
##패드로
##값은
##ement
자연에서
밥상
했을때
##정보호
그렇습니다
담보
home
1기
대회에
멀지
내복
##스틸
##관찰
##오게
화염
##미국
네이처
##서클
금메달을
착샷
고려해서
보관하기
화장실도
말이지
버튼은
동경
뭉치
다르다고
공급이
버튼으로
##라면서
시작하게
삼성은
대상은
집필
##잎을
개구리
##끈을
낙하
될수
예배
에탄올
없었다는
당내
##점퍼
모양에
기록해
좋았음
뚜껑에
3루
이녀석
좋네
불태
중산
네온
눌러주세요
신라면
싶어도
후손
들어오지
사용설명서
##써보고
##라인에
머금고
uhd
##해달라고
테니까
건강에도
뜨거워
설탕이
붙잡고
지녔
마리가
김선
배트
구름이
어머니를
로열
삶아서
##예를
예산이
##두께
해보자
자랑합니다
용돈
가져야
두께는
산이
후계
익힌
##작의
뒤의
##봣는데
둘러싸고
익으면
전쟁의
크라
면역력이
먹방
##협정
배구
##보시길
판매처
방송에
수화
일고
깔끔합니다
조그마한
인식하고
식물을
자리도
가로수
말하기
유발하는
안토
내뱉
##리본
작업으로
복합기
가능한데요
##상태에
바랄게요
##에이드
##됐을
역사는
##유도
끝낸
##장애인
##조한
##향의
인상이
브랜드에서
미루고
나타나지
구수
##물이나
합니당
선거에서
웅진
말의
올바
##셨는지
대부분을
오픈한
죽이는
##여대
##입에
후라이팬에
스쳐
##주식
##씨에게
산양
##화수
던진
베개를
##mah
로션을
설날
온도는
##감성
##생리대
##힘이
쉬운데
도자
##귀가
살아온
##미술관
익숙하지
##vel
웨이트
오늘이
되었죠
##정확
##어른
네트워크를
##하는데도
신기하고
최하
##같은게
경기장
카네이션
블루베
할지라도
두꺼워
전국에
ls
흡족
가솔
##웠다고
머물러
##조치
알러
휘리릭
##바랍니다
##꼬박
터트
그림도
택배를
112
##업체의
##빛으로
##스트의
인디언
꼬리를
바다에서
오염된
아끼는
세탁조
##번의
골라야
##달콤한
##라이드
##거리로
##퇴치
오만
##크림이
##혈관
대패
##밥도
설렘
1970년
##키스탄
지체
광각
장난아니
##해보시면
허무
##제거제
빵빵하게
인연을
##카르
유분이
##오네요
한발
ele
마무리로
캐릭터로
반찬이
##팡이
##비용을
앰프
##파니
ㅇㅇ
찜찜
씻기
##기장
빅데이터
줄도
피클
이경
헹굼
호전
생산을
90년대
유무
실물이
누비
국민들의
표기되어
정치를
##쥬스
손목을
음악에
mag
툭툭
하듯
가죽으로
##손수건
sec
빠뜨
정리해서
인간과
##광장
지적이다
견뎌
##준의
##물건
##주의에
도넛
경험한
받았지만
밀리
야경
녀석을
기억해
저렴한데
울음
이용을
구성해
1cm
껍질이
본다고
주기로
생각보다는
2001
사제
공헌
있는듯
마트보다
로그인
##미어
밀착력이
요리는
댕댕이
남편에게
##ll
##자형
갤럭시노트
##들게
tel
##색소
마누
##맛있게
대왕
박스는
자동차의
코인
아파트에
##티에
2개씩
##공사를
##알을
경산
양심
비웃
엑셀
펼친
동생은
공유하고
눈썰
##홀릭
##다시피
좋아하실
방지할
단맛
시속
파운드
##론적
##장에게
되긴
손과
마법의
멘붕
비판이
일찌감치
효율이
있습니까
공홈
백악
방향에
##어깨
##씁니다
골프를
##스톱
##공에
건식
인정한
들어서면
##uv
기반의
##보일러
전립
횡단
술집
살구
저울
600원
무침
에릭
후보자
나온다는
밀리는
##갔을
들었을
##룩한
일인
##해주셔야
back
남성용
누빔
전투를
##ks
투자자
미소가
밀접한
##oto
천일
않겠다는
##하시거나
들뜸
피트니스
단원
찾으러
설레는
돋보이게
론칭
##시구요
도출
뽑아서
조수석
##주르
강점
해당되는
건강보험
##어컨
철회
공휴일
후쿠오카
##82
##주의가
패키지를
ind
##브이
##매니
마을의
발냄새
##마켓에서
사용하거나
혼수
한손으로
하단의
아야
##관람
먹기에도
가셔서
유승
성당
라스
작업도
##97
세력이
찾아보다가
사의
##이벤
선물할
##세트가
모스크
아이허브
비타민b
엉뚱한
입구를
##청과
##에너
마포구
광대
게시되었습니다
gdp
반해서
것까지
각도로
기다렸다
##사항은
소감을
외국어
경상북도
##갤러리
엿볼
2년간
있었구요
바삭하고
자리로
주문은
상환
프레임이
왔다는
알아볼까요
리클
성분과
패션을
한류
지역경제
식감을
##강추
내장된
컵을
매달려
보면은
이음
덧글
달달하고
##불안
쿠폰을
##배상
##있는거
##측이
역사에
움짤
세트가
설계된
##각종
무소속
##겼어요
##기며
찾아보기
이러면
스피커를
푹신한
##그래픽
사업으로
위해서도
숙취
워셔
창단
lv
##가가치
색상에
합의를
##비오
##하던지
##마당
나온답니다
##바트
편리하다
##이번에는
백화점에서
태블릿pc
##스커트
일컫
된거
벙커
##애를
드라마틱한
가게에서
겁이
##프란
야마하
##꼼꼼하게
현대백화점
걸음마
과열
##하나요
##신용
맞췄
메뉴로
자기전에
처한
부족하다
세이브
사설
##조절을
템퍼
##토와
엊그제
포장된
2kg
그지
어마어마하게
부엉
덧대
##당했다
##가능하고
##창조
커진
살리고
이웃님들도
다룰
침을
부상으로
초딩
방위
거리에서
트레이너
##둬야
길이로
주게
찔러
##후에도
차량입니다
윤활
##어져요
##젓갈
역량
아기용품
유목
스킬을
수육
잔을
식은
촬영할
부쳐
ks
눈높
스탬프
굉장한
씨와
화질이
저보다
펼칠
유모차에
센트럴
불명
재능을
우선적으로
주의가
박진
직업을
##끼는
소개할게요
쫀득한
##위권
코스피
매출액
차돌
수년
소망
거름
불황
오아
지나가고
키즈카페
담백하고
개업
실패를
크롭
처리하는
##넣는
것에서
바지를
알아본
남아있
##2를
##아가며
생각하면서
주목된다
##이상의
했는데도
부족해
따라서는
##시크
펼쳤다
예물
하자고
있었는지
조류
태평양
애들도
무겁게
경찰의
판정을
##모와
대문
##모빌
##할까봐
##브레이크
적용이
##댓글
나간다
시리아
##오신
논의가
종류와
아몬
##오브
날렵
눈치를
##포드
##겠고
1인분
플래그
죽지
무의식
몰랐어요
개발이
은색
잘쓸게요
삼성의
330
3천원
소상공
##전사
약국
4계절
절실
리뷰입니다
생생하게
꿈의
8회
인성
빔프로젝
흘러나
모델인
오가는
남들이
좋아졌
담날
설명과
태어날
에센스가
만드는법
처음인데
중대
백종원
##었었는데
생활하는
파나
##전집
##카톡
힘들었어요
##기로는
만들어졌다
##국어
먼지도
확보할
##메탈
쓸쓸
했었어요
달라진다
제네시스
6살
##검진
요로코롬
발렌타
가져갈
##청구
##화과
##플라스틱
##진구
않겠다고
칼로리가
김주
환경호르몬
자두
평화를
##느라고
짜지
유방
5호
홍성
붓기
1인용
계세요
##오세요
##urn
제출한
초중
르노
생체
찾는다
분위기와
불릴
국물을
놓지
8만
##cr
##폐기
점유율
사진들을
체에
흔하게
순하게
옵션을
반지를
부스러
##set
협회
##레이저
달인
두었다
차량으로
빅토리아
힙합
##어주시면
##자키
영양제를
비지
종로구
잇따
고객들이
투여
##버가
소세지
최근의
날마다
머스크
캘리그라피
##줄로
자료가
여기저기서
##을까봐
기종
올겨울
드렸어요
던지고
김천
어쩌지
쇼트
##샘플
흡수를
비용도
나눴
수건으로
중대한
배럴
묵묵
줄줄이
##해놓은
지중
정치권
원할
멜로디
인물로
##초로
인천시
상상을
자극하는
##거리면서
구체적
다가온
완료한
교회의
카드지갑
##커버가
보아요
rep
먹이를
합체
공고
##ital
이면
##밖의
가게를
반바지
뭐든지
4단계
습격
초당
위해서라도
부속품
안정성
어릴적
##뭐니
일종
자생
두리
##해주었어요
특혜
판을
##일정
잠든
겨울은
정면으로
##다리가
##사업의
거울이
발도
구매하여
담당하고
곳까지
마르고
강해
농약
##ict
잘먹어서
끼우면
파우더를
받습니다
##공으로
##미션
환한
입니당
서른
재판부는
정확히는
판매한다
ot
울릉
나중엔
기왕
땅이
##기부
##빠짐
히알루론산
유격
평점
##aby
쉐이크
##란은
엽서
게을
분식
나일론
식이섬유
##나들이
처녀
우왕
손톱이
##귀여운
##입장
유지를
내포
##았으며
머리숱
안나요
좋아했던
보여드리고
패키지로
데려다
경사
##더블
fm
유산소
헤어스타일
##월드컵
조합을
완성입니다
추위
300만
에프
##항의
여기로
청각
머리카락을
30만
흐름이
##맨의
소개한다
민주통합
초대형
필자가
결핍
내다봤다
하루의
##사장님
부산시
뻔한
올리브영에서
cn
환상적인
자유자재로
사용해보세요
제도가
끊임
102
효율을
성우는
##적이에요
가능하
되시길
양주
의사소
##일지도
서방
어쨋
물어보고
##부르
의왕
펼쳐진다
550
샤인
##ism
##상품으로
본체를
##받았어요
발랐을
측면이
##하시죠
가본
##이었을
제품이죠
좋았지만
요령
부담도
##이라면서
1985년
배수구
소재와
다중
이치
에이드
이르렀다
군의
##백화
##코스터
잡아야
음악과
미국으로
소다
##합리
라인에
##프레스
백두
앉혀
뉴트리
##천이
아틀
교육에
상세페이지
경계를
아이템입니다
솜을
달러를
말처럼
예약이
탈북
회사로
진지한
비행기를
불규칙
##받았습니다
##식구
클릭하세요
##뻐서
##ons
##드리지
유족
앨범을
최우선
##키아
플레인
##시킴
계획에
군데군데
##지하
바르셀로나
여지
##사고가
아파트를
어둡게
전문가들이
꼽을
모듬
##머가
함량
##90원
책상이
강도를
구입해야
틀에
##레의
늦었지만
##화해
들인
##스퍼
확보하고
맡길
비는
산후조리
대강
필살
여하
##편집
##하였지만
비비드
웃으면서
##파라
##줬던
##ble
##사원
##문화의
품질의
시간에는
##교구
##킹이
코로나가
해드렸습니다
하고싶
해줘요
##코르
없어서는
##겨요
##덜덜
##파와
꽂혀
했었는데요
머핀
탐방
입소문
##안주로
앤드
##900원
원두를
##거고
##널드
도형
##했었어요
가리고
절제
##경기를
결과물을
하라는
강정
빌트인
##업체에
##태는
매출은
반죽이
제왕
마틴
먹는다고
##농구
종류로
정도라고
스퀘어
win
##어주기
동쪽
보고서를
왼쪽부터
##가지만
##세기에
둘을
rs
##여명의
##학에
자잘한
터져서
행사로
컨셉으로
1위에
브론
미역국
멋스럽게
시청률
세우는
였는데
##블렌
대사를
통을
전엔
때마침
끔찍한
접하는
사고싶
##아일랜드
act
아우터
기스
제치고
최저임금
생겼는데
보실까요
바디필로우
##음ㅋㅋ
9회
5개의
맞이하여
##포지
##겼는데
되었는지
##92
챙겨먹고
저걸
##삼겹살
##겸사
바운
떠오른
드라마를
깨닫고
##긴해요
좋을지
일제히
여부에
현대의
##드디어
누른
여파로
##바꿈
지켜보고
사랑하고
놀라고
레어
##번호를
정무
이어폰을
무대에서
##이노
끼우
하는건
##언스
간호사
##플릿
##신에
##냈습니다
예단
my플레이스
##루션을
꼼짝
2003
사라지
##새로
##의류
플레이어가
##칼국수
##기관에
있었으니
##남매
##광주
인견
나무에
꾸며져
##드리면
기초를
##조작
메르스
00원이
고깃
특이하게
부탁해
커버도
당첨자
145
대학원
스트리밍
앞당
농사를
##다보니까
##기야
나왔지만
캐쥬얼
허술
올라서
늘릴
가치는
##때문인지
태어났다
이사장
chr
통기성이
정상에
무릎이
힘드네요
주재
열기가
10년간
베이스를
거창
옵션으로
##품목
히든
##필터를
##짓을
필름이
타입은
비치는
박찬
유투브
올해로
면에
전임
##새를
##공제
신지
세기
있을듯
능동
유튜버
##소방
뒤틀
2연
분석이다
러시아의
기업인
이쪽은
튀어
개념으로
세이프
옳은
cam
##루어
##그랬
##김치를
다각
예약하고
치실
로망
발표를
7천
##금에
##분사
##att
방패
깨질
나처럼
건축물
감각이
봤을때
천차만
양대
대표이사
##봤답니다
aw
언니는
##alk
맞는다
강아지는
스테이
썸머
빠릅니다
시카고
보았는데요
정이
판넬
충전도
운항
mvp
국가를
저건
가죽을
붉게
조심히
기적
동급
펴서
##쿠션은
우려를
노출이
국민의당
북극
지어진
브랜드에
앞세워
손가락에
서정
16개
##꺼이
폴라
양양
이야기하는
호텔에
##시라고
놔두고
선수로
벗기
위안부
전월
필요해
windows
폭신폭신
갈릴
비눗
양질의
효과에
##많아서
커녕
초경량
##커는
참여했다
세트는
여배우
##올리브
##회도
잘만
에바
이례
천지
카톡으로
힘차게
##업의
지원되지
허가를
고르기
점등
트렌드를
##오롱
##라만
눈꽃
퀴즈
키토
추천해드리고
cle
대용량이라
그것에
무리를
성산
소개해드린
##쿨링
##닙니다
##좋다고
##기름을
고고씽
주장은
운동의
아내를
복제
##수있어요
기업들은
지형
맛없
박람
글자를
간식도
어울린다
추천드리는
졸업하고
쟁여놓고
올리기
방문객
칼륨
맛있었던
내돈내산
공동구매
그치지
##업체인
빚을
##감각
직사각
잠잠
생산하고
크지만
##움직
올린다
##냄비
부탁을
신년
해주기
경호
##밖으로
피지가
공격이
##시대에
##연료
##재구매
힘들다는
최순실
##시면서
항생
225
변화의
별개로
##재해
소개된
##부채
기숙사
초고속
때쯤
마우스를
밥먹고
시간대
차츰
떨어졌
##개인적으로
넣으니
악의
찍지
내용이다
내버려
##자국이
##붙은
하곤
보자면
교체하는
출력을
타인의
동치
##dc
##호스
취하는
수업에
유해한
발암
##이번엔
##ology
게르
김승
##거보다
2명이
##찌는
##회사인
조준
지구의
비도
하수구
평가는
스트링
##캐슬
주방이
##칼슘
센스있게
##고양
##오피스
이현
10억
##라구
아이러니
##뿐더러
금액으로
데이비드
##해주어
##1회
안구
##교도
나왔고
증후
효과와
했다며
레그
도깨비
표시된
##dl
파헤
선의
##사람은
##투쟁
모자이크
보호해
골키
목적에
충분하다
이르면
천을
욕망
고의
아이방
어디선가
##저렴한
##몽드
보내준
배우기
##주차장
3박
들어야
운명을
##커서
미끄러지지
##붙어
달력
확보를
조약
박스로
카를
방전
주인공인
##아름
단번에
##수요
##건조대
느껴지더라구요
##쿠아
화장실에서
##주니까
이야기다
먹어보진
대출을
기다리며
대리점
가로막
발판
포함하고
박테리아
만들어봤어요
닿을
가져왔어요
도와주고
##절대
##제품도
3개가
옹호
승인을
뿐입니다
예상치
##in1
선크림을
조림
##벨로
책과
##무성
들어있네요
고립
잘샀어요
##트레
##담아
놀라게
누락
전산
##1호
단체로
##시트를
##글씨
사용해봐야
재미있어
법안
12년
##인인
방진
입게
신체의
달했다
##빈은
바우
1달
계정
언론에
그립감도
##했는데도
안쪽에는
판결을
세탁기에
정직한
추첨을
교섭
상황에서도
##기반
판매합니다
##훈은
변기에
정육
줄인
톤의
흡수력
과제를
바람은
경제적으로
과도하게
마치겠습니다
무리하게
##전선
##했었던
말려서
미트
##손톱
때론
샌드위
재미있고
##가지로
##ve
##칠을
이때부터
##ode
버티고
국도
다하는
홀로그램
찍어도
##오오
##대박
만들어요
가발
배스
부케
거짓말을
내비
노리고
##캐스트
##었는데도
이곳저곳
##구조를
##제나
경제를
데스
꼬집
행위는
생동
정렬
차종
가구는
상상도
##배출
##두지
##76
건조하지
외출할때
죄책
이뤘
지나니
병원으로
쪼금
총평
간단합니다
목표가
남는다
바이올렛
판다
지리산
live
해주셔야
볼때마다
업무에
##즈마
유지하면서
닦아주고
살펴볼까요
fifa
자작나무
폭로
푸딩
누를
못하다
##되는지
살펴보자
##라인으로
##코스로
맺은
브러쉬가
내꺼
지워지는
##르다
두들겨
참석해
##블로거
드러내는
묶여
##볼륨
##84
##골목
조합은
##지퍼
관심도
뼈가
##이었다면
와이프가
아슬
워너
사용법은
##피의
##상태에서
전조
그런건지
##축을
치료가
빼빼
속한다
##였어
##볼은
저녁에는
딸려
짝꿍
##재미
##바글
육상
약화
받아보고
엔진을
마땅히
##츠가
바람직한
과태
##르지오
강화하는
##되구요
상품명
팬들은
##말씀
당신에게
##사업은
나타냈다
정동
##역시나
여자들이
제작하고
제각각
여타
벌어지고
근거가
성장이
##비전
스마트폰에
##렸더니
전제로
##150
##이었지만
##대응
##esh
만져보고
3명이
선반을
수컷
해먹을
용역
편도
홍천
품에
화면으로
시간동안
제빵
스스로의
살아갈
초급
자신에
소음을
높여주는
뿌리가
뭘까
셰프
욕구를
##쿠션을
혀를
되잖아요
헬스장
요번에
스타일이라
사진에는
공정거래
무한리필
tf
서초구
하였는데
베이커리
드셔보세요
##뒤로
발생합니다
올라갔다
투박
양념장
##들면
공간과
빨대컵
김모
shop
일렉트로
반대쪽
우회
##병원에서
승점
박원
여행객
##없지만
해온
##레쉬
착용해
##초콜릿
##좋은데
기포
조심하세요
##소하고
제6
온수매트
##주의와
안되면
스토리가
그룹의
공짜로
말했습니다
##잇어요
바글
홈런을
##매트가
간도
유진
작다
긍정적
쓸데없는
제품이니
오죽
안쓰고
레더
할수록
사줄
아무렇
##사스
맛나네요
##일기
노부
보여줬다
##키친
아쉽습니다
##ange
##분들과
먹었을
소나
폭을
브랜
요정
10번
##국수를
소식에
##는대
10cm
작업한
커버력도
조직이
아니냐고
##bt
##불고
좋을거같아요
##ek
모짜
벌어졌다
아니지
컴퓨터가
무서워서
도덕적
알지만
5핀
##노이
나눠져
애쉬
##선생님
##저냥
##무스
##잡는
최고네요
반복해서
##튜닝
##전통
아니었어요
다행이다
##사다
불과한
이가격에
##탄의
100m
##하든
##po
##산책
간다는
금이
수질
심하고
##으셔서
컨트롤러
point
영토
##틀랜드
차차
해주어야
##포즈
경추
7회
실적이
담아주
한인
귀엽네요
지우고
없어지
두번째는
조작이
식용유
감기에
##암튼
##젖병
그때마다
혼다
박종
담기
상당수
##깔끔한
알로
직행
곳이라고
진도
##가져
걸맞게
##원단으로
오네요
첫째는
##스팀
안좋아서
분들이나
토리
독재
흐물
##네의
사람에게는
필수입니다
얌전히
구매했던
입어보
회로
담근
법한
##난이
학생부
부족할
잘생
담임
하에
##스럽네요
소스는
클리오
신기했어요
vol
##청에서
종아
공격에
설명한
활동은
규제를
##부분에는
##았으나
주관적인
알려지지
머리결
8천
가더라구요
멜라
해보았어요
키위
mini
이어진다
아프다
대학에서
모호
육아맘
두터
원망
깨져서
강남역
사진이에요
마무리하고
청결하게
##시리
만족하면서
어땠
쥬스
국민을
##관도
##께서도
##달까
##기아
공기업
##중에서도
본드
술에
명에
머릿속에
##었네
승무원
글씨를
##이득
맘에드는
참외
기피
홍준
##티어
##뿐만이
155
코딩
충전할
의견도
##잡기
레이디
맛있다는
놀랬어요
측면에
화제
애정을
꾸미는
##북구
잘못을
전기가
어른들
국한
##주었습니다
감독을
언제쯤
변하고
커지는
##점점
쓰실
실내에
바질
기점으로
위험에
도무지
고려하면
카메라의
일조
매트리스를
##하셨는데
집에는
해봤습니다
역삼
정당한
##교과
전시장
소통을
키보드를
정치가
버킷
마늘을
정보도
ul
하여튼
over
진해서
성명
##놀라
국방부
좋을꺼
##정부의
뒤덮
형성된
사가
몽디에스
##때나
hand
배고프
기대하며
것같아요
유발할
cre
필요성이
##당시
##ire
##합의
매일같이
일본과
판단이
제안했다
안전벨트
##테라
##포장으로
##참에
##생일
자투리
평온
대부
공적
##71
가로로
지자
싶었습니다
6개의
주목받고
로즈골드
청소하는
인물이다
앤틱
주제가
방송된
추정되는
소분해서
신도시
모이는
정체를
챔피언스
당당히
도시로
성남시
##누가
무시할
##경우가
포장으로
##ody
급등
저렴해요
참석했다
갖가지
##머를
##범이
이데올로
맛있어용
##이었기
보급형
올라올
정문
코미디
##있는지
요놈
##메이크업을
밥과
낮다
물건들이
##저스
생산되는
제시하는
재구매할
생각지도
광산
sun
흡수시켜
오돌
조절해
타고난
##곡은
리오
살균소독
펼치는
뽁뽁이
탕수육
어지간
기습
액정보호
체계를
겨드랑이
계층
구출
나루
식욕
웨스트
악성
똥손
학업
##업체를
고정하는
부러워
멈출
고글
포어
##드라이브
univers
생각한다면
캣타워
##강정
##바인
##합시다
서쪽
무엇일까요
##해외
지갑을
천기저귀
찬물
엔진룸
##체계를
비니
##돌고
일교
나서서
청소하고
바디워
조사에
향긋
현저히
때처럼
휴대가
tvn
많지는
##얼굴에
##ject
##방식이
간편해요
곧장
아치
스터디
가릴
앉으면
고퀄리티
##베이킹
##양한
고려할
##우로
체제를
##았는지
##시스코
주인공의
제고
만들기에
##특허
##등분
금융감독
국비
##동원
원거리
##별로는
##장하고
안돼요
대표를
대가로
청계
옆의
배송되어
하나라도
연하게
준비했다
죽일
휘핑
##인삼
군대를
##가보다
제시하고
##옷이
장마가
##메랄
김준
길다
앵글
정도이다
품격
##업소
운동으로
##왔다는
수건을
650
측에
##오늘도
돌연
꽃과
##장미
무얼
##대며
봤는데요
##der
##자연스럽게
선정한
있더라도
조차
자유한국당
충전식
##만족합니다
민생
했음
##들어가는
4호
맑게
동아일보
이방
##인구
이세
다진마늘
러블리한
자다가
면역력을
비정상
인정받은
질문이
내각
않으려고
진행됐다
카나
감격
##북이
지방을
놓아도
유지되는
공유하는
등원
엔비
##운동의
드셔도
올라간다
아쉬웠던
지적도
무스
##근로
해답
##ye
되거나
5인치
간격을
은평
세척도
들렸다
##해주면서
장모
상대방이
##열의
좋지요
비비크림
이쁜데
##정품
##기전
장난이
사우나
쓸게요
스티븐
##블릭
그까
##주의는
초점이
오미자
##래의
##건강한
현실의
씽크대
인텐
순서로
교육은
##래가
제공하기
여러분들
자격을
##가구를
특허받은
##율도
우물
##행에
여러분께
커버력은
당할
기회로
집중하고
캐주얼한
딸의
하고는
마르지
특집
##치않
##때쯤
상승했다
쓰레기를
챙겨주
파티를
충주
홈에
초반에는
채팅
세계는
암컷
##마른
##마스크팩
##시어
코디를
##삼겹
3조
##자석
##기금
꼬박꼬박
심하지
고기와
사이좋게
##혈이
##베어
원내대표는
통통한
##감사합니다
바라고
밖을
자료에
보전
시시
연결한
이런걸
환경과
자립
##만하게
테크닉
기름기
ke
곡은
캠페인을
이진
##74
견고하고
고민고민
폐기물
중요하지
어려운데
괜찮으면
크라운
##코더
접하게
말씀드리고
담당자
##될지
바싹
요고
관심은
성향이
캡틴
차분하게
카라멜
졸업한
##펜을
들어있지
길거리
##공인
##개씩
달릴
일석이조
내려온
##우동
늘어나면서
사용기한
왔으니
포장해
인위적인
##는건
##줄에
반찬을
써보는데
집계됐다
달콤하고
만족해서
바나
감사드려요
##오렌지
불로
탓인지
칼럼
##댔다
배터리는
더스트
##생물
부위는
##요소
구도
오우
##웍스
ㅋㅋ이
뒤척
나폴
사주고
출시했다
##보인다
모래를
뒤로는
cor
##ott
밥도둑
##개장
##충분히
물이나
원통
오셨
조리도
intern
저주
포스팅으로
1박2일
멜론
##g으로
이루어졌
동결건조
스시
솜씨
##거래소
스툴
하늘과
체크를
ppf
##먹어보
있길
나이는
사람들로
팔꿈
연구는
믿을수
프로세서
유니버
로스팅
돌려주면
안한
힙시트
성질
곳이기도
##왁싱
소비자에게
부분적으로
##터스
묻힌
아찔
캐노
영양이
##53
자리잡은
택배비
아리따움
아이메이크업
버전이
맞닿
##티크
사정을
건강도
해야겠다
1984년
요걸
겨자
line
##셀프
루트
아르간
무선충전
신작
하여야
안정성을
스마트폰과
속도도
rx
성능과
대비해서
가솔린
비하
콜롬
부의
젠틀
상륙
제주시
50만
##주의자
##찜질
수명을
플레이오프
와사비
만으로도
안전에
집에와서
##시키면서
크리미
쓰니까
##여곡
도난
차트
10회
안되네요
7가지
##어묵
은은하니
##md
애용하고
승격
mk
라면을
##둔다
졸업생
만드신
축산
안쪽은
green
백인
본래의
구경할
까페
char
끝낼
안쓰는
##인증을
향도좋고
블록체인
투기
##코딩
선에서
##코튼
다녀와서
외출시
가보니
이뻤
한게
노브랜드
좁아서
슈팅
예정된
싫다고
##발라도
괜찬
30cm
단조
남자친구가
방안에
한성
아픔을
날짜를
보내야
오차
##물가
정리함
##클리닉
##려던
##연락
지장이
양으로
음식의
기대감이
해당한다
커리어
보여주기
##먹으러
##이었죠
코로나때문에
##급이
ho
##타페
##하기보다는
질의
##일어나
천차만별
##트리트
지나칠
겨울이라
특징인
관광지
##철을
볼륨을
##탄력
##작년
##드름이
##후를
##는걸
잔치
##iel
아쉽게
사이에는
이쁩니다
자랐
공연은
힘들지
쌓은
끓이면
테이크아웃
한병
헬리
여건
알면서도
강변
미성
ict
##라이브
형태는
돌린
##73
카트리지
밸브
옷과
##찮은
##바람에
##발란스
##칙을
달을
공급을
완성도
완젼
val
사랑받고
닭갈비
컴백
높아지는
안돼서
구성원
장례식
고급스러움을
주먹밥
##쓰는데
사용법을
나오기도
가져와서
2세대
언론의
높아요
마드리
안먹고
##꼬치
오버핏
크랙
파르
맛이라
조건에
돌진
호평을
감소했다
마칩니다
##가르
구입이
광안
##편이고
##넣은
김은
ko
마마
물고기를
##체리
쿠션감이
댓글을
행거
못했다고
해외배송
근무하는
1960년대
아니니까
헤아
방침을
##진답니다
멸균
대쉬
순두부
타겟
최저가로
한판
분들에게도
이긴
##지도록
간략하게
자연이
##타와
주실
표명
##쉽고
약이
신난
똑딱이
이구요
##이라든지
전부다
##충전기
소집
타러
탄산음료
위스키
203
##개국
블루래빗
주문해봤어요
데려가
##수영복
집회
팝콘
관리해
##으리라
##시더라구요
##대통령
선택했습니다
##림과
망가지
핸드폰으로
버디
다니는데
촘촘하게
##라인의
맞추면
##너의
구경도
시트가
마셔야
##함유
치약을
원적외선
손바닥에
누구에게나
검을
아쉬움
##와야
1982년
찾아간
##토퍼
제거에
##해변
##52
##이나서
선거에
her
절임
보실수
fil
칙칙한
##루룩
가정을
사치
spec
장착해
##틀어
입었다
태권도
아이스크림을
살펴보도록
덴탈
깔끔히
라운지
31일까지
##님에게
박주
##상품이
달리기
이끈
못했다는
살랑
편하더라고요
월넛
취약한
##곡으로
##냈어요
위주
평면
끊고
이어가고
3cm
more
장담
삽니다
문화체육
##애견
##스러워서
실효
##뒀어요
후엔
눌렀
웬만하면
기다렸다가
1을
본점
세라마
104
##스타일을
먹었더니
1루
불과했다
피부결을
##벤션
추산
화면에서
##les
그림에
의약
목화
##였기에
jtbc
1세대
고민하던
사형
##빨간
##겹게
3부
건강관리
꼽아
##공무원
움직이
기계식
예방하는
보금
거뒀다
오마
포함돼
방지하는
전하고
띈다
안습
수행할
살았다
재수
##부분과
갠적으로
신경쓰지
메추리
방문할
##시는데
##주간
쿠션은
##기초
10분정도
우럭
절삭
체형에
사안
모습인데요
높기
3g
닫을
##양으로
격투
톤이
협의를
된다며
시스템에
일의
##itch
cu
봐서는
매표
있단
밀크티
나오는데요
미워
덮는
호출
않기로
진압
거침
차서
컬러감
소파에
있으면서도
악기를
##통증
##오는데
과거를
싫어해서
나갑니다
수압
헌신
불의
##모습을
구매하세요
나이프
주머니가
아쉬울
측에서
##이드가
만든다고
많으시죠
보험료
예전보다
부문에서
색깔은
매트가
개씩
면으로
딜러
핑계로
##군에서
변경이
떡이
온도조절
분석해
루시
손잡고
피부트러블
주위의
rf
급격한
필요했는데
고품질
인재를
젖을
패드는
릴레이
빠름
폭주
##셔닝
알을
##ㄷㄷ
##네임
##떨어
요청했다
기록하는
서산
서류를
맛입니다
눈두
##후기를
주차장에
##신부
밀로
급격하게
유물
모델에
할수있는
625
세팅을
쪽의
##되어있어서
아이스박스
##룩으로
##민주연합
소개시켜
주셨다
5월에
냉장고를
##실용
다림질
언능
##일체
##왔을
##스퀘어
암막
##해드렸어요
환호
열악한
##라이즈
대수
센서가
펜던트
진행하였습니다
데에는
안면
##둘이
도착을
숙제
만년필
천안함
마케팅을
알아보니
끈다
데리
##나가고
부족으로
성질을
분량의
베어링
미만의
##산도
국민연금
그놈
bs
프로틴
보시죠
경력이
##하여서
걸음을
사진보다
고음
디오
웃어
쇼케이스
바스켓
가지런히
##해의
피의
갈아주
##인기
양극
보시길
##발한
영혼을
산정
##러닝
해남
##거스
멍게
##데일리
평가하는
자녀가
테이핑
##곡의
잘먹는
선수들
4g
1개를
기록은
다투
##히터
제대로된
cont
장벽
친구한테
치석
##해준답니다
명성
사마
학살
열매를
오디션
다녔는데
##리스는
올해부터
취미로
팩스
지우개
##이라는게
믿고쓰는
후덜덜
##아니고
구성에
샤워하고
돌아갔다
풀이된다
오빠는
헨리
식품을
실시하는
##짬뽕
짱구
돌아간
내년에는
일본에서는
내셔널
##명품
화장지
부인이
안정감이
너무좋아
5mm
액션캠
넘어선
영동
현장의
마음과
##띠에
손씻
저택
송파구
울집
##화에서는
멈추지
##2가
망치
##니에
믿음을
됐다며
잘받았습니다
자원을
행위가
##길에서
확률로
쉬지
100명
소개해드리는
전기자전거
비슷해서
한팩
토니모리
됐을
만기
남자들이
하루에도
아니었
제가장
지우는
막판
찻잔
끄떡
##뜩이나
##테마
못해요
국물에
감싸주는
곳곳
오래가
5종
비평
기꺼이
최장
알았던
jpg
새로이
격파
##라는데
헌법재판
라이딩을
##메기
피부톤이
##버렸습니다
경남도
문질문질
결국엔
청첩
컬러에요
자진
##시경
숯불
장교
##떡볶이
춥고
자막
다니기도
유분기가
위해서다
지면
탈바꿈
학생을
아니더라구요
밀착력
기린
타운
모양과
말부터
우리나라에
마츠
뚫린
스즈
##독을
대입
2m
##이어폰
해서는
##ats
사요
##해보도록
실키
좁고
kf
부산의
이태원
생깁니다
하기가
수분과
순차적으로
예시
대체할
사용한다면
##구간
##회계
전투에서
라즈
항공권
##을때마다
##간식으로
입힌
성실
아케
셀카봉
글씨가
##키지
택시를
##빠진
선조
다이나믹
skt
지향하는
사장님의
충격이
##결과를
아스파
절친
피난
자전거는
학교는
다툼
휴대하기도
도착해
채썰
학창
심야
토끼를
##문고
헌데
##ecd
편을
##크고
##긋불
내열
핑크빛
##사라
오케스트라
##례가
무도
디자인이에요
왠만하면
3단계로
착용감을
쓰러뜨
##검을
##아무리
않으므로
뒤적
맛나고
여기서만
특강
머무는
화이트와
살펴본
햇빛에
700원
제거하기
##특가
한수
어디에도
입안
죽기
##천으로
##동기
##54
시큼
면모를
쫄깃하고
##사진도
박태
물감을
산학
에어컨이
발휘할
깐깐
줄이야
꺼내고
닦은
스마트폰의
만들기로
꼬맹이
옵티
동호회
##데로
##que
기분전환
##uck
운영에
비밀을
회를
소중히
바를때
챔피언십
##부한
변화와
경첩
들이고
보였는데
보나
##폭탄
웃긴
것부터
벌여
가리키는
숙소로
식약처
표시를
수증
세력을
##중계
뚜껑은
리클라이너
내면서
지음
##일주
체류
##59
석탄
xs
화장실은
gpu
기능의
반입
냉동실
앞장서
##르면서
하이엔드
##타나
##리더라구요
##슬라
과감한
불상
꽂아서
퍼스
##달은
연꽃
출연해
보람이
먹이기
재워
##제품과
부족함이
뇌물
스티커도
투하
폰을
##위원회에
지인에게
악몽
##돌을
로제
##나와서
9년
신고를
시몬
스무디
집밥
찾아올
모른다고
올리브유
픽서
대하는
귀여움
개봉한
##어주니
1종
##아카데미
순조
올스타
건물은
한없이
abs
##이가능
작동하는
우호
##the
##탕이
소비를
죄송합니다
##간담
화력
이후부터
활력
##토스
작년부터
##겨우
총리가
교보
조미료
수반
해장
걱정하는
하니깐
##조개
